{
  "version": "1.0",
  "truncation": null,
  "padding": null,
  "added_tokens": [
    {
      "id": 0,
      "content": "<pad>",
      "single_word": false,
      "lstrip": false,
      "rstrip": false,
      "normalized": false,
      "special": true
    },
    {
      "id": 1,
      "content": "<unk>",
      "single_word": false,
      "lstrip": false,
      "rstrip": false,
      "normalized": false,
      "special": true
    },
    {
      "id": 2,
      "content": "<bos>",
      "single_word": false,
      "lstrip": false,
      "rstrip": false,
      "normalized": false,
      "special": true
    },
    {
      "id": 3,
      "content": "<eos>",
      "single_word": false,
      "lstrip": false,
      "rstrip": false,
      "normalized": false,
      "special": true
    }
  ],
  "normalizer": null,
  "pre_tokenizer": {
    "type": "Sequence",
    "pretokenizers": [
      {
        "type": "UnicodeScripts"
      },
      {
        "type": "ByteLevel",
        "add_prefix_space": false,
        "trim_offsets": true,
        "use_regex": true
      }
    ]
  },
  "post_processor": {
    "type": "TemplateProcessing",
    "single": [
      {
        "SpecialToken": {
          "id": "<bos>",
          "type_id": 0
        }
      },
      {
        "Sequence": {
          "id": "A",
          "type_id": 0
        }
      },
      {
        "SpecialToken": {
          "id": "<eos>",
          "type_id": 0
        }
      }
    ],
    "pair": [
      {
        "Sequence": {
          "id": "A",
          "type_id": 0
        }
      },
      {
        "Sequence": {
          "id": "B",
          "type_id": 1
        }
      }
    ],
    "special_tokens": {
      "<bos>": {
        "id": "<bos>",
        "ids": [
          2
        ],
        "tokens": [
          "<bos>"
        ]
      },
      "<eos>": {
        "id": "<eos>",
        "ids": [
          3
        ],
        "tokens": [
          "<eos>"
        ]
      }
    }
  },
  "decoder": {
    "type": "ByteLevel",
    "add_prefix_space": true,
    "trim_offsets": true,
    "use_regex": true
  },
  "model": {
    "type": "BPE",
    "dropout": null,
    "unk_token": "<unk>",
    "continuing_subword_prefix": null,
    "end_of_word_suffix": null,
    "fuse_unk": false,
    "byte_fallback": false,
    "ignore_merges": false,
    "vocab": {
      "<pad>": 0,
      "<unk>": 1,
      "<bos>": 2,
      "<eos>": 3,
      "!": 4,
      "\"": 5,
      "#": 6,
      "$": 7,
      "%": 8,
      "&": 9,
      "'": 10,
      "(": 11,
      ")": 12,
      "*": 13,
      "+": 14,
      ",": 15,
      "-": 16,
      ".": 17,
      "/": 18,
      "0": 19,
      "1": 20,
      "2": 21,
      "3": 22,
      "4": 23,
      "5": 24,
      "6": 25,
      "7": 26,
      "8": 27,
      "9": 28,
      ":": 29,
      ";": 30,
      "<": 31,
      "=": 32,
      ">": 33,
      "?": 34,
      "@": 35,
      "A": 36,
      "B": 37,
      "C": 38,
      "D": 39,
      "E": 40,
      "F": 41,
      "G": 42,
      "H": 43,
      "I": 44,
      "J": 45,
      "K": 46,
      "L": 47,
      "M": 48,
      "N": 49,
      "O": 50,
      "P": 51,
      "Q": 52,
      "R": 53,
      "S": 54,
      "T": 55,
      "U": 56,
      "V": 57,
      "W": 58,
      "X": 59,
      "Y": 60,
      "Z": 61,
      "[": 62,
      "\\": 63,
      "]": 64,
      "^": 65,
      "_": 66,
      "`": 67,
      "a": 68,
      "b": 69,
      "c": 70,
      "d": 71,
      "e": 72,
      "f": 73,
      "g": 74,
      "h": 75,
      "i": 76,
      "j": 77,
      "k": 78,
      "l": 79,
      "m": 80,
      "n": 81,
      "o": 82,
      "p": 83,
      "q": 84,
      "r": 85,
      "s": 86,
      "t": 87,
      "u": 88,
      "v": 89,
      "w": 90,
      "x": 91,
      "y": 92,
      "z": 93,
      "{": 94,
      "|": 95,
      "}": 96,
      "~": 97,
      "¡": 98,
      "¢": 99,
      "£": 100,
      "¤": 101,
      "¥": 102,
      "¦": 103,
      "§": 104,
      "¨": 105,
      "©": 106,
      "ª": 107,
      "«": 108,
      "¬": 109,
      "®": 110,
      "¯": 111,
      "°": 112,
      "±": 113,
      "²": 114,
      "³": 115,
      "´": 116,
      "µ": 117,
      "¶": 118,
      "·": 119,
      "¸": 120,
      "¹": 121,
      "º": 122,
      "»": 123,
      "¼": 124,
      "½": 125,
      "¾": 126,
      "¿": 127,
      "À": 128,
      "Á": 129,
      "Â": 130,
      "Ã": 131,
      "Ä": 132,
      "Å": 133,
      "Æ": 134,
      "Ç": 135,
      "È": 136,
      "É": 137,
      "Ê": 138,
      "Ë": 139,
      "Ì": 140,
      "Í": 141,
      "Î": 142,
      "Ï": 143,
      "Ð": 144,
      "Ñ": 145,
      "Ò": 146,
      "Ó": 147,
      "Ô": 148,
      "Õ": 149,
      "Ö": 150,
      "×": 151,
      "Ø": 152,
      "Ù": 153,
      "Ú": 154,
      "Û": 155,
      "Ü": 156,
      "Ý": 157,
      "Þ": 158,
      "ß": 159,
      "à": 160,
      "á": 161,
      "â": 162,
      "ã": 163,
      "ä": 164,
      "å": 165,
      "æ": 166,
      "ç": 167,
      "è": 168,
      "é": 169,
      "ê": 170,
      "ë": 171,
      "ì": 172,
      "í": 173,
      "î": 174,
      "ï": 175,
      "ð": 176,
      "ñ": 177,
      "ò": 178,
      "ó": 179,
      "ô": 180,
      "õ": 181,
      "ö": 182,
      "÷": 183,
      "ø": 184,
      "ù": 185,
      "ú": 186,
      "û": 187,
      "ü": 188,
      "ý": 189,
      "þ": 190,
      "ÿ": 191,
      "Ā": 192,
      "ā": 193,
      "Ă": 194,
      "ă": 195,
      "Ą": 196,
      "ą": 197,
      "Ć": 198,
      "ć": 199,
      "Ĉ": 200,
      "ĉ": 201,
      "Ċ": 202,
      "ċ": 203,
      "Č": 204,
      "č": 205,
      "Ď": 206,
      "ď": 207,
      "Đ": 208,
      "đ": 209,
      "Ē": 210,
      "ē": 211,
      "Ĕ": 212,
      "ĕ": 213,
      "Ė": 214,
      "ė": 215,
      "Ę": 216,
      "ę": 217,
      "Ě": 218,
      "ě": 219,
      "Ĝ": 220,
      "ĝ": 221,
      "Ğ": 222,
      "ğ": 223,
      "Ġ": 224,
      "ġ": 225,
      "Ģ": 226,
      "ģ": 227,
      "Ĥ": 228,
      "ĥ": 229,
      "Ħ": 230,
      "ħ": 231,
      "Ĩ": 232,
      "ĩ": 233,
      "Ī": 234,
      "ī": 235,
      "Ĭ": 236,
      "ĭ": 237,
      "Į": 238,
      "į": 239,
      "İ": 240,
      "ı": 241,
      "Ĳ": 242,
      "ĳ": 243,
      "Ĵ": 244,
      "ĵ": 245,
      "Ķ": 246,
      "ķ": 247,
      "ĸ": 248,
      "Ĺ": 249,
      "ĺ": 250,
      "Ļ": 251,
      "ļ": 252,
      "Ľ": 253,
      "ľ": 254,
      "Ŀ": 255,
      "ŀ": 256,
      "Ł": 257,
      "ł": 258,
      "Ń": 259,
      "ä¸": 260,
      "ï¼": 261,
      "ãĢ": 262,
      "ãĢĤ": 263,
      "ï¼Į": 264,
      "ä»": 265,
      "äº": 266,
      "çļ": 267,
      "çļĦ": 268,
      "å¥": 269,
      "ä¸Ģ": 270,
      "äºĨ": 271,
      "ä»ĸ": 272,
      "åı": 273,
      "æľ": 274,
      "å¤": 275,
      "åĪ": 276,
      "å¥¹": 277,
      "è¿": 278,
      "å®": 279,
      "åľ": 280,
      "åĪ°": 281,
      "åĲ": 282,
      "åħ": 283,
      "å¾": 284,
      "å¦": 285,
      "æľī": 286,
      "åŃ": 287,
      "å°": 288,
      "âĢ": 289,
      "ä½": 290,
      "ä¸ª": 291,
      "ä»¬": 292,
      "å¦Ī": 293,
      "å¸": 294,
      "æĺ": 295,
      "èİ": 296,
      "è¯": 297,
      "æĿ": 298,
      "èİī": 299,
      "åľ¨": 300,
      "èµ": 301,
      "éĿ": 302,
      "çİ": 303,
      "æĺ¯": 304,
      "æĪ": 305,
      "ä¹": 306,
      "å°ı": 307,
      "åĽ": 308,
      "çľ": 309,
      "å¼": 310,
      "å¿": 311,
      "ä¸Ģä¸ª": 312,
      "æĦ": 313,
      "æī": 314,
      "å¤©": 315,
      "éĩ": 316,
      "å¾Ī": 317,
      "çĶ": 318,
      "è¿Ļ": 319,
      "çľĭ": 320,
      "åĴ": 321,
      "æĿ¥": 322,
      "èµ·": 323,
      "çĿ": 324,
      "å¸¸": 325,
      "ä»ĸä»¬": 326,
      "æĹ": 327,
      "å®ĥ": 328,
      "éĿŀ": 329,
      "éĿŀå¸¸": 330,
      "æĥ": 331,
      "çİ©": 332,
      "éĤ": 333,
      "åĴĮ": 334,
      "ç»": 335,
      "ä¸į": 336,
      "åŃĲ": 337,
      "è¯´": 338,
      "éĤ£": 339,
      "å¼Ģ": 340,
      "çĿĢ": 341,
      "ï¼ģ": 342,
      "å¦Īå¦Ī": 343,
      "å¹": 344,
      "éĩĮ": 345,
      "æĬ": 346,
      "æĪĳ": 347,
      "ĥ½": 348,
      "åİ": 349,
      "åĬ": 350,
      "ä¼": 351,
      "æĦŁ": 352,
      "åŃ©": 353,
      "ä»İ": 354,
      "åĸ": 355,
      "æ¬": 356,
      "å§": 357,
      "ä¸Ĭ": 358,
      "æľīä¸Ģ": 359,
      "è·": 360,
      "å¤§": 361,
      "å¿ĥ": 362,
      "çī": 363,
      "ï¼ļ": 364,
      "åĨ": 365,
      "èİīèİī": 366,
      "åľ°": 367,
      "å·": 368,
      "éģ": 369,
      "âĢľ": 370,
      "âĢĿ": 371,
      "æĥ³": 372,
      "è®": 373,
      "æĭ": 374,
      "åİ»": 375,
      "ä½Ĩ": 376,
      "åī": 377,
      "æĹ¶": 378,
      "èĢ": 379,
      "æĸ": 380,
      "éĹ": 381,
      "åıª": 382,
      "èĩ": 383,
      "åīį": 384,
      "çĪ": 385,
      "åĲİ": 386,
      "å¹¶": 387,
      "éģĵ": 388,
      "äºº": 389,
      "å¾Ĺ": 390,
      "ä»¥": 391,
      "å¥½": 392,
      "ç¬": 393,
      "äºĨä¸Ģ": 394,
      "æ¯": 395,
      "ç±": 396,
      "æ¬¢": 397,
      "ä½ł": 398,
      "ç±³": 399,
      "èĩª": 400,
      "åĸľ": 401,
      "æĦŁåĪ°": 402,
      "æł": 403,
      "åĩ": 404,
      "çĦ": 405,
      "çĦ¶": 406,
      "åĸľæ¬¢": 407,
      "å¥³": 408,
      "è§": 409,
      "ä¼ļ": 410,
      "æķ": 411,
      "æĬĬ": 412,
      "åıĭ": 413,
      "ä¸º": 414,
      "å½": 415,
      "è¦": 416,
      "æŃ": 417,
      "è¦ģ": 418,
      "å¥¹çļĦ": 419,
      "ç¬ĳ": 420,
      "è¿ĩ": 421,
      "æĢ": 422,
      "å¯": 423,
      "çľĭåĪ°": 424,
      "éĥ½": 425,
      "åħ´": 426,
      "åı«": 427,
      "æľīä¸Ģå¤©": 428,
      "åģ": 429,
      "ä»İåīį": 430,
      "åĳ": 431,
      "ĭåıĭ": 432,
      "æľĭåıĭ": 433,
      "ä»ĸçļĦ": 434,
      "åı¯": 435,
      "ä¸Ģèµ·": 436,
      "å¥³åŃ©": 437,
      "åĽŀ": 438,
      "¥¿": 439,
      "è½": 440,
      "æľīä¸Ģä¸ª": 441,
      "èī": 442,
      "ä¸ĭ": 443,
      "è¥¿": 444,
      "å·±": 445,
      "èĩªå·±": 446,
      "å§Ĩ": 447,
      "åıĳ": 448,
      "æ²": 449,
      "æŀ": 450,
      "å®¶": 451,
      "çĽ": 452,
      "åº": 453,
      "æ°": 454,
      "ä¹Ī": 455,
      "äºĽ": 456,
      "é£": 457,
      "äºİ": 458,
      "é«": 459,
      "æ³": 460,
      "é«ĺ": 461,
      "ï¼ļâĢľ": 462,
      "å¼Ģå¿ĥ": 463,
      "åį": 464,
      "èĥ½": 465,
      "å°ıå¥³åŃ©": 466,
      "åħĭ": 467,
      "æī¾": 468,
      "å½ĵ": 469,
      "çŁ": 470,
      "æ±": 471,
      "åĩº": 472,
      "çĪ¸": 473,
      "çĶ·": 474,
      "é¸": 475,
      "è·ĳ": 476,
      "çİ°": 477,
      "èµ°": 478,
      "éĿ¢": 479,
      "å£": 480,
      "èĴ": 481,
      "åı¯ä»¥": 482,
      "åıĪ": 483,
      "èĴĤ": 484,
      "å§ĭ": 485,
      "èµ·æĿ¥": 486,
      "éĢ": 487,
      "æİ": 488,
      "å¼Ģå§ĭ": 489,
      "æı": 490,
      "åĵ": 491,
      "è¾": 492,
      "åĿ": 493,
      "å¿«": 494,
      "äºĭ": 495,
      "çī©": 496,
      "è¡": 497,
      "ä¹Ł": 498,
      "æĦı": 499,
      "ç¾": 500,
      "å¸®": 501,
      "å¤ļ": 502,
      "è°": 503,
      "æ»": 504,
      "æıĲ": 505,
      "åĪ°äºĨ": 506,
      "ç»Ļ": 507,
      "å±": 508,
      "å¤´": 509,
      "åĽŃ": 510,
      "æ¸": 511,
      "åĪ«": 512,
      "çĭ": 513,
      "ä¸ľ": 514,
      "ä¸ľè¥¿": 515,
      "äºİæĺ¯": 516,
      "æĪĳä»¬": 517,
      "çĶ·åŃ©": 518,
      "èĬ": 519,
      "åĬ¨": 520,
      "æ£": 521,
      "åģļ": 522,
      "æĶ": 523,
      "åħ·": 524,
      "é«ĺåħ´": 525,
      "çĦ¶åĲİ": 526,
      "çĶ¨": 527,
      "å¯¹": 528,
      "çº": 529,
      "æ¯ı": 530,
      "ãĢĤâĢľ": 531,
      "é¸Ł": 532,
      "è®©": 533,
      "è½¦": 534,
      "æľĢ": 535,
      "éĹ®": 536,
      "æłĳ": 537,
      "çŁ¥": 538,
      "ä»Ģ": 539,
      "ä¿": 540,
      "æ²¡": 541,
      "ä»Ģä¹Ī": 542,
      "èī²": 543,
      "ï¼Ł": 544,
      "åĲį": 545,
      "çĤ": 546,
      "å¤ª": 547,
      "è¿Ļä¸ª": 548,
      "çī¹": 549,
      "çĲ": 550,
      "çİ©åħ·": 551,
      "è¶": 552,
      "éĻ": 553,
      "ãĢĤâĢĿ": 554,
      "æĮ": 555,
      "ç¾İ": 556,
      "çĶŁ": 557,
      "æ´": 558,
      "è·³": 559,
      "çŁ¥éģĵ": 560,
      "éļ": 561,
      "ç©": 562,
      "èĬ±": 563,
      "å£°": 564,
      "å®ļ": 565,
      "å¸¦": 566,
      "åĨį": 567,
      "æĸ¯": 568,
      "éľ": 569,
      "çĤ¹": 570,
      "åħ¬": 571,
      "ç´": 572,
      "è§ī": 573,
      "ï¼ģâĢĿ": 574,
      "çİ©èĢ": 575,
      "çİ©èĢį": 576,
      "ç¿": 577,
      "æīĭ": 578,
      "ç§": 579,
      "åĽł": 580,
      "é©": 581,
      "æīĢ": 582,
      "åĲĳ": 583,
      "å°±": 584,
      "æĪĲ": 585,
      "åĲĥ": 586,
      "æıĲç±³": 587,
      "è°¢": 588,
      "ç¬ĳçĿĢ": 589,
      "é£ŀ": 590,
      "èĲ": 591,
      "è¿Ľ": 592,
      "æĸ°": 593,
      "èĢĮ": 594,
      "åĨ³": 595,
      "å¾®": 596,
      "çŃ": 597,
      "éĺ": 598,
      "åıĳçİ°": 599,
      "æ°´": 600,
      "åĢ": 601,
      "åĲ¬": 602,
      "å¥ĭ": 603,
      "åħ´å¥ĭ": 604,
      "åĽłä¸º": 605,
      "ä¸Ń": 606,
      "äº®": 607,
      "ä½ı": 608,
      "çª": 609,
      "æĻ": 610,
      "âĢĺ": 611,
      "âĢĻ": 612,
      "ç®": 613,
      "æŃ£": 614,
      "æĽ": 615,
      "é¡": 616,
      "æµ": 617,
      "åĲįåı«": 618,
      "è¯ķ": 619,
      "çļĦå°ı": 620,
      "åħ¬åĽŃ": 621,
      "éĽ": 622,
      "æ±¤": 623,
      "é©¬": 624,
      "åĨ³å®ļ": 625,
      "åĬ©": 626,
      "å®ī": 627,
      "æĦŁåĪ°éĿŀå¸¸": 628,
      "çĮ": 629,
      "æĭī": 630,
      "èĪ": 631,
      "è¿ĺ": 632,
      "åħī": 633,
      "æĺİ": 634,
      "çĪ¸çĪ¸": 635,
      "æĭ¿": 636,
      "å®³": 637,
      "å¨": 638,
      "æŀľ": 639,
      "äºĨä¸Ģä¸ª": 640,
      "å¤ĸ": 641,
      "çĽ´": 642,
      "è¯´éģĵ": 643,
      "æł·": 644,
      "ï¼ļ'": 645,
      "æ²¡æľī": 646,
      "çļĦè": 647,
      "æĿ°": 648,
      "æĶ¾": 649,
      "æĪ¿": 650,
      "å¸®åĬ©": 651,
      "æĳ": 652,
      "æ¬¡": 653,
      "æīĵ": 654,
      "éĹ´": 655,
      "æ¯Ķ": 656,
      "çªģ": 657,
      "æĢķ": 658,
      "éļ¾": 659,
      "çªģçĦ¶": 660,
      "èİīèİīçļĦ": 661,
      "çģ": 662,
      "çĥ": 663,
      "åĭ": 664,
      "ä¹Ĳ": 665,
      "è±": 666,
      "æĥħ": 667,
      "ç³": 668,
      "èĴĤç±³": 669,
      "åĦ": 670,
      "åĦ¿": 671,
      "æĽ´": 672,
      "èĢģ": 673,
      "åĳĬ": 674,
      "çļĦä¸ľè¥¿": 675,
      "éķ": 676,
      "æĬ±": 677,
      "é¢": 678,
      "éŁ": 679,
      "çī¹åĪ«": 680,
      "åħĭæĸ¯": 681,
      "éŁ³": 682,
      "è¡Į": 683,
      "ä¸Ģåıª": 684,
      "æĿ°åħĭ": 685,
      "è¾¹": 686,
      "ä¸Ģå¤©": 687,
      "æľĭåıĭä»¬": 688,
      "æĥ³è¦ģ": 689,
      "ï¼ļâĢĺ": 690,
      "æ°Ķ": 691,
      "çĭĹ": 692,
      "çĲĥ": 693,
      "éĤ£ä¸ª": 694,
      "æ»¡": 695,
      "å®³æĢķ": 696,
      "æ¼": 697,
      "è¢": 698,
      "ï¼ŁâĢĿ": 699,
      "æ±¤å§Ĩ": 700,
      "è£": 701,
      "æĸ¹": 702,
      "ä»İéĤ£": 703,
      "å¥ĩ": 704,
      "æ¸¸": 705,
      "èĴĤå§Ĩ": 706,
      "åĮ": 707,
      "ä¸Ķ": 708,
      "å¦Ĥ": 709,
      "æľ¬": 710,
      "ç»ĵ": 711,
      "èĩªå·±çļĦ": 712,
      "æŃ£åľ¨": 713,
      "æīĢæľī": 714,
      "é©¬åħĭæĸ¯": 715,
      "å¤§çļĦ": 716,
      "å®ĥä»¬": 717,
      "ä¹ħ": 718,
      "åĲ§": 719,
      "åıĺ": 720,
      "é¼": 721,
      "æ¯ıå¤©": 722,
      "èº": 723,
      "ä¼¤": 724,
      "ä¸ĢäºĽ": 725,
      "è§ģ": 726,
      "èĲ¨": 727,
      "ç¦": 728,
      "å¾Īå¼Ģå¿ĥ": 729,
      "æĹł": 730,
      "éĿŀå¸¸å¼Ģå¿ĥ": 731,
      "ä¸½": 732,
      "æĢ»": 733,
      "å®Į": 734,
      "åĢĻ": 735,
      "åĬĽ": 736,
      "å¥¹çļĦå¦Īå¦Ī": 737,
      "å¾®ç¬ĳçĿĢ": 738,
      "éĤ£åıª": 739,
      "æĹ¶åĢĻ": 740,
      "æľīä¸Ģåıª": 741,
      "åĪĨ": 742,
      "éĩį": 743,
      "åħ¨": 744,
      "äº«": 745,
      "çĨ": 746,
      "æĥĬ": 747,
      "çĮ«": 748,
      "èĭ": 749,
      "é»": 750,
      "ä¿Ŀ": 751,
      "éļ¾è¿ĩ": 752,
      "å¥½çļĦ": 753,
      "æ·": 754,
      "ãĢģ": 755,
      "éĤ£æĺ¯": 756,
      "å¤ĸéĿ¢": 757,
      "åķ": 758,
      "è´": 759,
      "è¿Ļåıª": 760,
      "ç©º": 761,
      "è¯ī": 762,
      "æŁ": 763,
      "èĦ": 764,
      "åĳĬè¯ī": 765,
      "éĹª": 766,
      "å¤Ħ": 767,
      "è®¸": 768,
      "åĲĹ": 769,
      "æī¾åĪ°": 770,
      "äºĭæĥħ": 771,
      "çĪ±": 772,
      "ä½į": 773,
      "éľ²": 774,
      "å£°éŁ³": 775,
      "å¾Īä¹ħ": 776,
      "é¥": 777,
      "éĴ": 778,
      "ä½ľ": 779,
      "çİ©å¾Ĺ": 780,
      "çŃĶ": 781,
      "å°ıå¿ĥ": 782,
      "ç»ı": 783,
      "ä¸ĭæĿ¥": 784,
      "éĻ©": 785,
      "æľĽ": 786,
      "æĢ»æĺ¯": 787,
      "åĳ³": 788,
      "åħĶ": 789,
      "éķ¿": 790,
      "ç¬ĳäºĨ": 791,
      "ä½Ĩæĺ¯": 792,
      "éĺ³": 793,
      "åģľ": 794,
      "æħ": 795,
      "åĽŀå®¶": 796,
      "æķ´": 797,
      "æĿ¡": 798,
      "åĽ¾": 799,
      "çĨĬ": 800,
      "è¶£": 801,
      "æİ¢": 802,
      "å±±": 803,
      "å¥¶": 804,
      "åıĹ": 805,
      "åħĶåŃĲ": 806,
      "æŃ¥": 807,
      "çĶ»": 808,
      "æ³ķ": 809,
      "ç¤": 810,
      "æĭ¥": 811,
      "åı£": 812,
      "èĽ": 813,
      "é²": 814,
      "æľīä¸Ģä¸ªåĲįåı«": 815,
      "å°ıé¸Ł": 816,
      "èį": 817,
      "èľ": 818,
      "âĢĶ": 819,
      "å¹²": 820,
      "å¯»": 821,
      "æ¢": 822,
      "éĥ½ä¼ļ": 823,
      "éĿŀå¸¸é«ĺåħ´": 824,
      "æŀĹ": 825,
      "è¯¥": 826,
      "åŃ¦": 827,
      "çľŁ": 828,
      "æķħ": 829,
      "ç»Ī": 830,
      "è§īå¾Ĺ": 831,
      "ä¸»": 832,
      "å¾Īå¿«": 833,
      "è¿ĳ": 834,
      "å¾ħ": 835,
      "ä»ĸçļĦå¦Īå¦Ī": 836,
      "ç«": 837,
      "åĿĹ": 838,
      "Ļ½": 839,
      "çº¦": 840,
      "æķħäºĭ": 841,
      "æ¼Ĥ": 842,
      "è¿ľ": 843,
      "ä»¥åīį": 844,
      "åĬ¨çī©": 845,
      "æĻļ": 846,
      "å¥¹ä»¬": 847,
      "éľĢ": 848,
      "çīĩ": 849,
      "æĦŁè°¢": 850,
      "å¾Īé«ĺåħ´": 851,
      "ç»Ń": 852,
      "ç¿°": 853,
      "çº¦ç¿°": 854,
      "æľīè¶£": 855,
      "èĿ": 856,
      "æľº": 857,
      "çķ": 858,
      "ç´§": 859,
      "æį": 860,
      "æĬĬå®ĥ": 861,
      "æģ": 862,
      "çľĭåĪ°äºĨ": 863,
      "è·¯": 864,
      "è£ħ": 865,
      "èī¾": 866,
      "éĿŀå¸¸åħ´å¥ĭ": 867,
      "åĲĮ": 868,
      "éľĢè¦ģ": 869,
      "çľĭçĿĢ": 870,
      "ç»§": 871,
      "è¢«": 872,
      "ç»§ç»Ń": 873,
      "çľĭèµ·æĿ¥": 874,
      "ãĢĤ'": 875,
      "æ¼Ĥäº®": 876,
      "æµ·": 877,
      "åħ¶": 878,
      "éª": 879,
      "æķ¢": 880,
      "ç´¢": 881,
      "åıĺå¾Ĺ": 882,
      "å¥¹åĸľæ¬¢": 883,
      "åŃĲéĩĮ": 884,
      "èĥ": 885,
      "æļ": 886,
      "ç©¿": 887,
      "å°ıçĶ·åŃ©": 888,
      "è¶Ĭ": 889,
      "åĬł": 890,
      "è®°": 891,
      "è¯Ŀ": 892,
      "é£İ": 893,
      "åĥ": 894,
      "å¼ĢäºĨ": 895,
      "çŁ³": 896,
      "ä»İéĤ£å¤©": 897,
      "æĿŁ": 898,
      "çĻ½": 899,
      "çĽ´åĪ°": 900,
      "ç¦»": 901,
      "åĥı": 902,
      "ä¸Ģèµ·çİ©": 903,
      "å¯»æī¾": 904,
      "åľ°æĸ¹": 905,
      "è¿Ļæĺ¯": 906,
      "æĦŁè§ī": 907,
      "é£Ł": 908,
      "èĻ": 909,
      "ä»İéĤ£å¤©èµ·": 910,
      "æŃ¤": 911,
      "ç»ĻäºĨ": 912,
      "ç»ĵæĿŁ": 913,
      "èİīèİīçļĦå°ıå¥³åŃ©": 914,
      "ãĢĤâĢĻ": 915,
      "æ»ĳ": 916,
      "è±ª": 917,
      "æ¡": 918,
      "å°¼": 919,
      "ï¼ĮâĢĿ": 920,
      "èº«": 921,
      "å²": 922,
      "èĩªè±ª": 923,
      "ä»¶": 924,
      "çĲĨ": 925,
      "ç¥": 926,
      "åİ»äºĨ": 927,
      "ä¸ī": 928,
      "è®¸å¤ļ": 929,
      "±¼": 930,
      "é±¼": 931,
      "èī²çļĦ": 932,
      "æľ¨": 933,
      "éĤ£éĩĮ": 934,
      "çİ°åľ¨": 935,
      "åĸĦ": 936,
      "åŃ©åŃĲ": 937,
      "éĹ¨": 938,
      "ä¸¤": 939,
      "å¹¶ä¸Ķ": 940,
      "æķ£": 941,
      "åĪ©": 942,
      "å¿«ä¹Ĳ": 943,
      "ç²": 944,
      "æİ¢ç´¢": 945,
      "äºĨä¸ĢäºĽ": 946,
      "åĽĽ": 947,
      "èĬ±åĽŃ": 948,
      "é¼ł": 949,
      "åĽŀçŃĶ": 950,
      "ç§į": 951,
      "çĪ¬": 952,
      "æ¯Ľ": 953,
      "æľīä¸Ģä¸ªåı«": 954,
      "ç¡": 955,
      "åĲ¬åĪ°": 956,
      "æ£µ": 957,
      "éľ²è¥¿": 958,
      "å®Ŀ": 959,
      "ä½ķ": 960,
      "åľ°ä¸Ĭ": 961,
      "èİİ": 962,
      "åĭĩ": 963,
      "ç½": 964,
      "èģ": 965,
      "æ£®": 966,
      "ç®Ģ": 967,
      "çĽ¸": 968,
      "å¤Ł": 969,
      "åºĶ": 970,
      "åľº": 971,
      "æĭ¥æĬ±": 972,
      "åĿĲ": 973,
      "å¾Īä¹ħä»¥åīį": 974,
      "æ£®æŀĹ": 975,
      "éĿŀå¸¸åĸľæ¬¢": 976,
      "åĨĴ": 977,
      "å¦Īå¦Īè¯´": 978,
      "ä½Ĩä»ĸ": 979,
      "çļĦäºĭæĥħ": 980,
      "ä¹ĭ": 981,
      "æĪ¿éĹ´": 982,
      "æĦŁåĪ°å¾Ī": 983,
      "å®īåħ¨": 984,
      "å¼ł": 985,
      "è¿Ļæł·": 986,
      "åĲī": 987,
      "éĶ": 988,
      "èµ°äºĨ": 989,
      "äººéĥ½": 990,
      "åħ³": 991,
      "åħ¬åĽŃéĩĮ": 992,
      "ç¾İåĳ³": 993,
      "çļĦå°ıå¥³åŃ©": 994,
      "æł¹": 995,
      "éħ": 996,
      "ç®±": 997,
      "è¾¾": 998,
      "æĪı": 999,
      "å¤©ç©º": 1000,
      "çĿ¡": 1001,
      "æľµ": 1002,
      "é¦": 1003,
      "çľ¼": 1004,
      "ä»ĸæĥ³": 1005,
      "æķ£æŃ¥": 1006,
      "æ³¨": 1007,
      "å¸¦çĿĢ": 1008,
      "äºĨèµ·æĿ¥": 1009,
      "ä¹Ķ": 1010,
      "åĭĩæķ¢": 1011,
      "é²į": 1012,
      "éĵ": 1013,
      "æİī": 1014,
      "åĨĴéĻ©": 1015,
      "å°Ŀ": 1016,
      "çļĦæĹ¶åĢĻ": 1017,
      "ä¸ĬäºĨ": 1018,
      "åºĹ": 1019,
      "ä¼¤å¿ĥ": 1020,
      "æ£Ĵ": 1021,
      "é¹": 1022,
      "çľĭåĪ°äºĨä¸Ģ": 1023,
      "åĪĨäº«": 1024,
      "çħ": 1025,
      "çı": 1026,
      "åº§": 1027,
      "æ¯ıä¸ª": 1028,
      "å½ĵå¥¹": 1029,
      "ä¹°": 1030,
      "åĳ¨": 1031,
      "æĢİ": 1032,
      "èĭı": 1033,
      "¿Ģ": 1034,
      "æ¿Ģ": 1035,
      "ä¿¡": 1036,
      "æħ¢": 1037,
      "ç¢": 1038,
      "å·²": 1039,
      "è¯ķåĽ¾": 1040,
      "ä¼ļåĦ¿": 1041,
      "éĺ³åħī": 1042,
      "å¤ĩ": 1043,
      "æĮģ": 1044,
      "æĺŁ": 1045,
      "ç¾İä¸½": 1046,
      "çģ«": 1047,
      "ä»ĸä»¬ä¸Ģèµ·": 1048,
      "æ¶": 1049,
      "è¿ª": 1050,
      "èĮ": 1051,
      "æĢİä¹Ī": 1052,
      "æĬĵ": 1053,
      "å¨ľ": 1054,
      "å¿Ļ": 1055,
      "ä½Ĩå¥¹": 1056,
      "æĿ¾": 1057,
      "æĪĳçļĦ": 1058,
      "æĺİçĻ½": 1059,
      "åĽ´": 1060,
      "åĭĥ": 1061,
      "ï¼ģâĢĻ": 1062,
      "çº¢": 1063,
      "çļĦå¦Īå¦Ī": 1064,
      "è¾Ĩ": 1065,
      "å¡": 1066,
      "æĪĲäºĨ": 1067,
      "çĶ·äºº": 1068,
      "åł": 1069,
      "é²įåĭĥ": 1070,
      "å¥¹è¯´": 1071,
      "åĩĨ": 1072,
      "åĩºäºĨ": 1073,
      "åĵŃ": 1074,
      "åĨįä¹Ł": 1075,
      "éĩįè¦ģ": 1076,
      "çī¹åĪ«çļĦ": 1077,
      "ä¾": 1078,
      "ä¸įçŁ¥éģĵ": 1079,
      "éĩĮéĿ¢": 1080,
      "è½¬": 1081,
      "éļı": 1082,
      "çļĦå°ıçĶ·åŃ©": 1083,
      "åĶ": 1084,
      "å·¨": 1085,
      "çİĽ": 1086,
      "éĹ®éģĵ": 1087,
      "èĹ": 1088,
      "åĩĨå¤ĩ": 1089,
      "å°Ķ": 1090,
      "çĶµ": 1091,
      "çľĭçľĭ": 1092,
      "å¹¸": 1093,
      "ç¡®": 1094,
      "åĩºæĿ¥": 1095,
      "åıĳçĶŁ": 1096,
      "æ´»": 1097,
      "æľį": 1098,
      "å¾Īå¤ļ": 1099,
      "åº¦": 1100,
      "æ¯į": 1101,
      "åĽŀåĪ°": 1102,
      "æĶ¶": 1103,
      "èįī": 1104,
      "åŃĹ": 1105,
      "æ¸¸æĪı": 1106,
      "æ³¨æĦı": 1107,
      "è§£": 1108,
      "ç¤º": 1109,
      "å²ģ": 1110,
      "è¯Ĩ": 1111,
      "åĸĬ": 1112,
      "å¥¹æĥ³": 1113,
      "æĢª": 1114,
      "èĪ¹": 1115,
      "è¿ĻäºĽ": 1116,
      "åıĬ": 1117,
      "æ¸©": 1118,
      "ä¹¦": 1119,
      "å®¶äºº": 1120,
      "æŃĮ": 1121,
      "å·¥": 1122,
      "åĨ°": 1123,
      "éĢŁ": 1124,
      "å»": 1125,
      "ä¸ĢçĽ´": 1126,
      "æĹ¥": 1127,
      "è½»": 1128,
      "æĭħ": 1129,
      "åħ¶ä»ĸ": 1130,
      "ä»ĸè¯´": 1131,
      "å±ĭ": 1132,
      "çİ©å¾Ĺå¾Īå¼Ģå¿ĥ": 1133,
      "ä¸īå²ģ": 1134,
      "ï¼ģ'": 1135,
      "çŁ³å¤´": 1136,
      "é£Łçī©": 1137,
      "ç¨": 1138,
      "è®¶": 1139,
      "æĥĬè®¶": 1140,
      "¤Ĳ": 1141,
      "æĺ¯ä¸Ģä¸ª": 1142,
      "èĩ³": 1143,
      "å°Ĩ": 1144,
      "é¤Ĳ": 1145,
      "ä»İåīįæľīä¸Ģä¸ª": 1146,
      "ä½ıåľ¨": 1147,
      "å±ķ": 1148,
      "ä¸Ģä¸ªå¤§": 1149,
      "çħ§": 1150,
      "åħħ": 1151,
      "èĹı": 1152,
      "ä»»": 1153,
      "ä½łçļĦ": 1154,
      "è°¢è°¢": 1155,
      "ä¸įæĥ³": 1156,
      "åĿı": 1157,
      "çļĦåľ°æĸ¹": 1158,
      "èĪŀ": 1159,
      "è¯·": 1160,
      "å·²ç»ı": 1161,
      "åį¡": 1162,
      "æ¤": 1163,
      "å¸Į": 1164,
      "åĩł": 1165,
      "æ¹": 1166,
      "è¿ĩæĿ¥": 1167,
      "æīĢä»¥": 1168,
      "ä¸įèĥ½": 1169,
      "ä¸ºä»Ģä¹Ī": 1170,
      "éĽ¨": 1171,
      "åĪ°è¾¾": 1172,
      "å½ĵä»ĸ": 1173,
      "æİ¥": 1174,
      "é¡»": 1175,
      "å½ĵä»ĸä»¬": 1176,
      "ç¼": 1177,
      "è¡£": 1178,
      "å®ŀ": 1179,
      "å°½": 1180,
      "æĮ¥": 1181,
      "èĬ±åĽŃéĩĮ": 1182,
      "çĽĴ": 1183,
      "çĪ¶": 1184,
      "ä½¿": 1185,
      "ä½ıäºĨ": 1186,
      "äºĨä¸Ģä¼ļåĦ¿": 1187,
      "åĸľæ¬¢åľ¨": 1188,
      "âĢĶâĢĶ": 1189,
      "åĶ±": 1190,
      "é¢Ĺ": 1191,
      "å¿ħ": 1192,
      "å¥¹å¦Īå¦Ī": 1193,
      "æĭħå¿ĥ": 1194,
      "åħħæ»¡": 1195,
      "åĮħ": 1196,
      "å¸ĮæľĽ": 1197,
      "ç¬ĳçĿĢè¯´": 1198,
      "çŃī": 1199,
      "å£«": 1200,
      "ç¿¼": 1201,
      "ĻåŃĲ": 1202,
      "å¤«": 1203,
      "æľīä¸Ģä¸ªåĲįåı«èİīèİīçļĦå°ıå¥³åŃ©": 1204,
      "èµ·äºĨ": 1205,
      "ä»ĸä»¬çļĦ": 1206,
      "æķĻ": 1207,
      "ªåĬĽ": 1208,
      "åĬªåĬĽ": 1209,
      "åķĬ": 1210,
      "æ±Ĥ": 1211,
      "èĤ": 1212,
      "åĴĮä»ĸçļĦ": 1213,
      "ä¸Ģæł·": 1214,
      "å½©": 1215,
      "å¿ħé¡»": 1216,
      "åĳ¼": 1217,
      "å¨ħ": 1218,
      "èĿ¶": 1219,
      "åŁ": 1220,
      "´èĿ¶": 1221,
      "åĬŀ": 1222,
      "èī¯": 1223,
      "ä»¥åĲİ": 1224,
      "åĪĩ": 1225,
      "æĤ": 1226,
      "ç³ķ": 1227,
      "éĿł": 1228,
      "å»º": 1229,
      "çļĦå¤§": 1230,
      "ä¸Ģæ¬¡": 1231,
      "å¤±": 1232,
      "åķĨ": 1233,
      "åĸĦèī¯": 1234,
      "åĨįæ¬¡": 1235,
      "åĽĽå¤Ħ": 1236,
      "åĽŀäºĨ": 1237,
      "å¼Ħ": 1238,
      "æī¾åĪ°äºĨ": 1239,
      "ä»ĸä»¬éĥ½": 1240,
      "èı": 1241,
      "å¥¹åľ¨": 1242,
      "æ¯ıä¸ªäººéĥ½": 1243,
      "æĳĩ": 1244,
      "åħ¥": 1245,
      "ä¸»æĦı": 1246,
      "æ±ł": 1247,
      "ç³ĸ": 1248,
      "æ©": 1249,
      "å¼º": 1250,
      "èĥ½å¤Ł": 1251,
      "å¾®ç¬ĳçĿĢè¯´": 1252,
      "æīĢæľīçļĦ": 1253,
      "åıĳçİ°äºĨä¸Ģ": 1254,
      "çĸ": 1255,
      "ç±³å¨ħ": 1256,
      "é¥¼": 1257,
      "è¡¨": 1258,
      "é¡¾": 1259,
      "ä¸¤ä¸ª": 1260,
      "æľĢç»Ī": 1261,
      "æľĢåĲİ": 1262,
      "æ³¢": 1263,
      "å¾®ç¬ĳ": 1264,
      "åķĨåºĹ": 1265,
      "ĵĿ": 1266,
      "ä¸ĸ": 1267,
      "åĵª": 1268,
      "çĿĽ": 1269,
      "å°Ŀè¯ķ": 1270,
      "èİİæĭī": 1271,
      "åĲ¦": 1272,
      "ä¸įä¼ļ": 1273,
      "å¤§åıĪ": 1274,
      "æ°¸": 1275,
      "æķ´å¤©": 1276,
      "æĺİçĻ½äºĨ": 1277,
      "åĽłä¸ºä»ĸ": 1278,
      "é¡¶": 1279,
      "çľ¼çĿĽ": 1280,
      "åĪ°å¤ĸéĿ¢": 1281,
      "æ¸ħ": 1282,
      "è¿ĽäºĨ": 1283,
      "ä¿®": 1284,
      "ç¬¬": 1285,
      "å®ĥçļĦ": 1286,
      "æ³¨æĦıåĪ°": 1287,
      "åĩºåİ»": 1288,
      "æīĵå¼Ģ": 1289,
      "æ·±": 1290,
      "èī¾ç±³": 1291,
      "æļĸ": 1292,
      "è·Ł": 1293,
      "çķĮ": 1294,
      "éĿĻ": 1295,
      "åıĪå¤§åıĪ": 1296,
      "åĴĮå¥¹çļĦ": 1297,
      "å¨ĥ": 1298,
      "æĲ": 1299,
      "ä»ĸçľĭåĪ°": 1300,
      "éĻ¢": 1301,
      "èİ«": 1302,
      "æ°¸è¿ľ": 1303,
      "è¿ĺæĺ¯": 1304,
      "ä¸ĸçķĮ": 1305,
      "äº²": 1306,
      "å¥½å¥ĩ": 1307,
      "çļ®": 1308,
      "è¹": 1309,
      "å®¹": 1310,
      "æĪĳåı¯ä»¥": 1311,
      "çļĦå£°éŁ³": 1312,
      "ä¸įåĪ°": 1313,
      "ä»ĸåľ¨": 1314,
      "æ®": 1315,
      "åħĪ": 1316,
      "æį¡": 1317,
      "åºĬ": 1318,
      "è±¡": 1319,
      "çľĭè§ģ": 1320,
      "èĻ«": 1321,
      "åº¦è¿ĩ": 1322,
      "ä¿ĿæĮģ": 1323,
      "å®īå¨ľ": 1324,
      "æķħäºĭç»ĵæĿŁ": 1325,
      "å¿ĺ": 1326,
      "æĦıè¯Ĩ": 1327,
      "åĵį": 1328,
      "æ¢¯": 1329,
      "åĪ¶": 1330,
      "å±ķç¤º": 1331,
      "ç¥ŀ": 1332,
      "åĢĴ": 1333,
      "çĥŃ": 1334,
      "å¤ªéĺ³": 1335,
      "èĲ¨å§Ĩ": 1336,
      "å¥¹çľĭåĪ°": 1337,
      "æĪ´": 1338,
      "æĹ©": 1339,
      "æ£®æŀĹéĩĮ": 1340,
      "èļ": 1341,
      "ä¸Ģè¾¹": 1342,
      "æľĢåĸľæ¬¢": 1343,
      "æ´ŀ": 1344,
      "æĦıè¯ĨåĪ°": 1345,
      "æĹħ": 1346,
      "æĹ¶éĹ´": 1347,
      "è®©å¥¹": 1348,
      "é»ĳ": 1349,
      "è´Ŀ": 1350,
      "èĢĮä¸Ķ": 1351,
      "è¢ĭ": 1352,
      "ä¸İ": 1353,
      "æŀ¶": 1354,
      "èĲ½": 1355,
      "ç¤¼": 1356,
      "çĤ¹å¤´": 1357,
      "é¢ľ": 1358,
      "åľ¨åħ¬åĽŃéĩĮ": 1359,
      "çĵ": 1360,
      "è·ĳåİ»": 1361,
      "çĪ¶æ¯į": 1362,
      "äº«åıĹ": 1363,
      "çīĽ": 1364,
      "ç¬Ķ": 1365,
      "èĽĭ": 1366,
      "ç§ĭ": 1367,
      "åĽłä¸ºå¥¹": 1368,
      "æĺ¯åĲ¦": 1369,
      "èĿ´èĿ¶": 1370,
      "æĹłæ³ķ": 1371,
      "æĭį": 1372,
      "èĢģäºº": 1373,
      "é»Ľ": 1374,
      "èĢģé¼ł": 1375,
      "åı¯èĥ½": 1376,
      "çķĻ": 1377,
      "çļĦäºº": 1378,
      "å¦Ĥä½ķ": 1379,
      "å¸®å¿Ļ": 1380,
      "å±±å§Ĩ": 1381,
      "åĲįåŃĹ": 1382,
      "å¦Ĥæŀľ": 1383,
      "çº¸": 1384,
      "åĽŀæĿ¥": 1385,
      "æľĢå¥½çļĦ": 1386,
      "æĶ¾åľ¨": 1387,
      "æŁĶ": 1388,
      "åĲĪ": 1389,
      "éĹªäº®": 1390,
      "æĬ¤": 1391,
      "æĦŁåĪ°éĿŀå¸¸èĩªè±ª": 1392,
      "æĹģ": 1393,
      "è¿ĩåİ»": 1394,
      "æģ¯": 1395,
      "é»Ľè¥¿": 1396,
      "æľª": 1397,
      "åįĥ": 1398,
      "äºĮ": 1399,
      "åĿĲåľ¨": 1400,
      "éĤ£äºĽ": 1401,
      "æłĳä¸Ĭ": 1402,
      "åĤ": 1403,
      "åĪ»": 1404,
      "åİŁ": 1405,
      "çļĦä¸Ģ": 1406,
      "ä¸įåĨį": 1407,
      "éĻĦ": 1408,
      "åĵģ": 1409,
      "æ¯ĶåĪ©": 1410,
      "æİ¨": 1411,
      "ä¹ł": 1412,
      "æ¶Ī": 1413,
      "æĵ": 1414,
      "®åŃĲ": 1415,
      "èĨ": 1416,
      "ä¸įè¦ģ": 1417,
      "ï¼Ł'": 1418,
      "åĺ": 1419,
      "åĻ": 1420,
      "åºĶè¯¥": 1421,
      "ä»İéĤ£ä»¥åĲİ": 1422,
      "ç§ĭåįĥ": 1423,
      "åĲĵ": 1424,
      "èİīèİīçļĦå¦Īå¦Ī": 1425,
      "èĵĿ": 1426,
      "æ¼Ĥäº®çļĦ": 1427,
      "åĽ°": 1428,
      "éĩİ": 1429,
      "éĻĦè¿ĳ": 1430,
      "åľ¨ä¸Ģèµ·": 1431,
      "æŀĿ": 1432,
      "ï¼ŁâĢĻ": 1433,
      "æĮĩ": 1434,
      "å·´": 1435,
      "ç¦»å¼Ģ": 1436,
      "éĢł": 1437,
      "èĪĴ": 1438,
      "ä»»ä½ķ": 1439,
      "æ³¡": 1440,
      "ªæĺİ": 1441,
      "ç¾İåĳ³çļĦ": 1442,
      "å¼Ł": 1443,
      "æĸ°çļĦ": 1444,
      "äº¤": 1445,
      "åľĪ": 1446,
      "åĿļ": 1447,
      "ç»Īäºİ": 1448,
      "è¹¦": 1449,
      "è°¢è°¢ä½ł": 1450,
      "æ¯ıå¤©éĥ½": 1451,
      "è¿ħ": 1452,
      "æĦ¿": 1453,
      "åĪ°äºĨä¸Ģä¸ª": 1454,
      "éĢĤ": 1455,
      "é¾": 1456,
      "æ´Ĺ": 1457,
      "ç¾İä¸½çļĦ": 1458,
      "è¿ħéĢŁ": 1459,
      "å¥½äºĨ": 1460,
      "ä¼ł": 1461,
      "ä¸ºèĩªå·±": 1462,
      "å°ıçĭĹ": 1463,
      "çĭ¬": 1464,
      "éĿĴ": 1465,
      "è®º": 1466,
      "æķ°": 1467,
      "å¥¹æĬĬ": 1468,
      "åĨ·": 1469,
      "å¹³": 1470,
      "éĢģ": 1471,
      "å¦ĤæŃ¤": 1472,
      "å¡ĺ": 1473,
      "æ±łå¡ĺ": 1474,
      "çŁ¥éģĵèĩªå·±": 1475,
      "éĢļ": 1476,
      "èİīèİīåĴĮ": 1477,
      "æĽ´åĬł": 1478,
      "è¿Ļä¹Ī": 1479,
      "ç²ī": 1480,
      "æĿ¿": 1481,
      "åİ»åħ¬åĽŃ": 1482,
      "åĲ¹": 1483,
      "éģĩ": 1484,
      "çıį": 1485,
      "ä½ĵ": 1486,
      "ä»ĸåĸľæ¬¢": 1487,
      "è§Ĥ": 1488,
      "æıĲå§Ĩ": 1489,
      "èģªæĺİ": 1490,
      "æłĳæŀĿ": 1491,
      "åį´": 1492,
      "åĳ¨åĽ´": 1493,
      "æĦŁè§īå¥½": 1494,
      "åı¦": 1495,
      "æ³°": 1496,
      "å®ĮæĪĲ": 1497,
      "äºĨä¸ĭæĿ¥": 1498,
      "é¦Ļ": 1499,
      "åı¶": 1500,
      "æľ¬å°¼": 1501,
      "è¶³": 1502,
      "åĵªéĩĮ": 1503,
      "ä½łå¥½": 1504,
      "å¦®": 1505,
      "æ±½": 1506,
      "ä¸Ľ": 1507,
      "å¥ĩæĢª": 1508,
      "ç¦ı": 1509,
      "çİ¯": 1510,
      "ç¬ĳäºĨèµ·æĿ¥": 1511,
      "çļĦçİ©åħ·": 1512,
      "æŃ¢": 1513,
      "ç®¡": 1514,
      "å·¥ä½ľ": 1515,
      "ä¸Ģèµ·çİ©èĢį": 1516,
      "æ¸©æļĸ": 1517,
      "ä¸įåıĬ": 1518,
      "é¸Ń": 1519,
      "è¿Ĳ": 1520,
      "æĪĳä»¬åı¯ä»¥": 1521,
      "èĽĻ": 1522,
      "éļıåĲİ": 1523,
      "åģĩ": 1524,
      "åĲĦ": 1525,
      "½åŃĲ": 1526,
      "å¤§å®¶": 1527,
      "åľ¨è¿Ļ": 1528,
      "åĬŁ": 1529,
      "ç«Ļ": 1530,
      "éĨ": 1531,
      "ç»Ĩ": 1532,
      "æĪ¿åŃĲ": 1533,
      "åĮ»": 1534,
      "ä¸įåĲĮ": 1535,
      "æĽ´å¤ļ": 1536,
      "èĲ¨æĭī": 1537,
      "æĮ¥æīĭ": 1538,
      "éĿĴèĽĻ": 1539,
      "ä»ĸæĬĬ": 1540,
      "æľīäºĽ": 1541,
      "çĶŁæ°Ķ": 1542,
      "çİ©å¾ĹéĿŀå¸¸å¼Ģå¿ĥ": 1543,
      "æīĺ": 1544,
      "æ²Ļ": 1545,
      "ä»ĸéĿŀå¸¸": 1546,
      "æĪĲä¸º": 1547,
      "å¥¶å¥¶": 1548,
      "éĨĴ": 1549,
      "çĪ¸çĪ¸å¦Īå¦Ī": 1550,
      "èĦ¸": 1551,
      "ŀĭ": 1552,
      "è¿·": 1553,
      "å¾Ģ": 1554,
      "ä¸Ģä¸ĭ": 1555,
      "¹æŀľ": 1556,
      "ä»į": 1557,
      "éĥ": 1558,
      "ç¬¬äºĮ": 1559,
      "å¥¹éĿŀå¸¸": 1560,
      "åĩĢ": 1561,
      "æĪĲåĬŁ": 1562,
      "è¿«": 1563,
      "åİ¨": 1564,
      "ç¿Ķ": 1565,
      "å¹¸ç¦ı": 1566,
      "é»Ħ": 1567,
      "æĦŁè°¢äºĨ": 1568,
      "å·¨å¤§çļĦ": 1569,
      "æķĳ": 1570,
      "èµ°åĪ°": 1571,
      "å¸ĥ": 1572,
      "çªĹ": 1573,
      "çĽĴåŃĲ": 1574,
      "éº": 1575,
      "åıªæĺ¯": 1576,
      "Ĭå¤©": 1577,
      "èµĽ": 1578,
      "éĤ£æĺ¯ä¸Ģ": 1579,
      "æľĢå¥½çļĦæľĭåıĭ": 1580,
      "ä¸įåıĬå¾ħ": 1581,
      "è¿«ä¸įåıĬå¾ħ": 1582,
      "æ³³": 1583,
      "ä»ĸåĨ³å®ļ": 1584,
      "è§Ĩ": 1585,
      "çĶļ": 1586,
      "é¥¼å¹²": 1587,
      "çĶļèĩ³": 1588,
      "éĴ±": 1589,
      "åĴĮå¦Īå¦Ī": 1590,
      "å¾Ĺå¾Ī": 1591,
      "å¤©ç©ºä¸Ń": 1592,
      "åĸĬéģĵ": 1593,
      "äºĭçī©": 1594,
      "æĳ¸": 1595,
      "è¸": 1596,
      "åĵ¥": 1597,
      "åį³": 1598,
      "çļĦè¯Ŀ": 1599,
      "ä¹İ": 1600,
      "é¢ĺ": 1601,
      "åİ¨æĪ¿": 1602,
      "çļĦçĶ·åŃ©": 1603,
      "ç¬ĳå®¹": 1604,
      "æĢĿ": 1605,
      "æľīä¸Ģä¸ªå°ıå¥³åŃ©": 1606,
      "é¸ŁåĦ¿": 1607,
      "ä»įçĦ¶": 1608,
      "ä¼¸": 1609,
      "éªĳ": 1610,
      "æ±¤ç±³": 1611,
      "åĨľ": 1612,
      "è®©ä»ĸ": 1613,
      "èİ«èİī": 1614,
      "è¿Ľåİ»": 1615,
      "å½¢": 1616,
      "å¹²åĩĢ": 1617,
      "å¸Ī": 1618,
      "çİĭ": 1619,
      "ä»İæľª": 1620,
      "è®¤": 1621,
      "æ´ĭ": 1622,
      "ç¬¬äºĮå¤©": 1623,
      "æ¢¦": 1624,
      "ç¡®ä¿Ŀ": 1625,
      "ä¸Ŀ": 1626,
      "ç´§ç´§": 1627,
      "é¸ŃåŃĲ": 1628,
      "ç³»": 1629,
      "å°ıåħĶåŃĲ": 1630,
      "é¼ĵ": 1631,
      "åĪ°å¤Ħ": 1632,
      "åĽŀçŃĶéģĵ": 1633,
      "éĹ®å¦Īå¦Ī": 1634,
      "ä¸įæĺ¯": 1635,
      "æĥĬåĸľ": 1636,
      "èĽĭç³ķ": 1637,
      "çĶŁæ´»": 1638,
      "æľīçĤ¹": 1639,
      "æ»©": 1640,
      "çĬ": 1641,
      "éĥ¨": 1642,
      "æ±½è½¦": 1643,
      "æĦŁæ¿Ģ": 1644,
      "è½¯": 1645,
      "ç«ĭ": 1646,
      "è¯¥æĢİä¹Ī": 1647,
      "åĪ°äºĨä¸Ģ": 1648,
      "çĹ": 1649,
      "å¾Īåĸľæ¬¢": 1650,
      "æĺ¯çļĦ": 1651,
      "åŁİ": 1652,
      "æĳĺ": 1653,
      "æĿ¥è¶Ĭ": 1654,
      "èľĤ": 1655,
      "ä»¤": 1656,
      "è·ĳåĲĳ": 1657,
      "è¶ĬæĿ¥è¶Ĭ": 1658,
      "æĹ¶åħī": 1659,
      "æīį": 1660,
      "ä¸įåģľ": 1661,
      "åŃĲä¸Ĭ": 1662,
      "éĩı": 1663,
      "æĭ¿çĿĢ": 1664,
      "ä»ĸä»¬åľ¨": 1665,
      "ç»¿": 1666,
      "éĹªéĹª": 1667,
      "åĴĮæľĭåıĭä»¬": 1668,
      "å½ĵçĦ¶": 1669,
      "è§ģè¿ĩ": 1670,
      "ç¯": 1671,
      "ç¾İå¥½çļĦ": 1672,
      "é¥Ń": 1673,
      "é¾Ļ": 1674,
      "åĪĴ": 1675,
      "åį¡è½¦": 1676,
      "ä¼łæĿ¥": 1677,
      "æĺ¯ä¸Ģ": 1678,
      "å¿ĺè®°": 1679,
      "åĲİæĿ¥": 1680,
      "åĸĿ": 1681,
      "åĪ«äºº": 1682,
      "åł¡": 1683,
      "èĮ¸": 1684,
      "å½¼": 1685,
      "éĩįè¦ģçļĦ": 1686,
      "æ²³": 1687,
      "å¤ļäºĨ": 1688,
      "åıĳåħī": 1689,
      "īå¿«": 1690,
      "ï¼ĮâĢĺ": 1691,
      "æ¤ħ": 1692,
      "æĸ°æľĭåıĭ": 1693,
      "å¢": 1694,
      "æĦŁåĪ°éļ¾è¿ĩ": 1695,
      "çĿ¡è§ī": 1696,
      "æĪĳä¼ļ": 1697,
      "éĤ£å¤©": 1698,
      "æ¯ĶèµĽ": 1699,
      "æĬ¬": 1700,
      "å¯Ł": 1701,
      "æ£µæłĳ": 1702,
      "éĿłè¿ĳ": 1703,
      "¡èĲ": 1704,
      "æĦŁåĪ°å®³æĢķ": 1705,
      "æīĵå¼ĢäºĨ": 1706,
      "èľľ": 1707,
      "çĽ¸ä¿¡": 1708,
      "æľīä¸Ģä¸ªåı«èİīèİīçļĦå°ıå¥³åŃ©": 1709,
      "è¿½": 1710,
      "éĹ®é¢ĺ": 1711,
      "æĴ": 1712,
      "äºĴ": 1713,
      "çł": 1714,
      "æĦīå¿«": 1715,
      "è·³èĪŀ": 1716,
      "çĶľ": 1717,
      "çľĭèµ·æĿ¥å¾Ī": 1718,
      "è¿«ä¸įåıĬå¾ħåľ°": 1719,
      "åľ¨éĤ£éĩĮ": 1720,
      "ä¼ĳ": 1721,
      "¯åŃĲ": 1722,
      "æ¸¸æ³³": 1723,
      "çº¿": 1724,
      "æ³°è¿ª": 1725,
      "å¥¹åĨ³å®ļ": 1726,
      "å¼Ģå¿ĥåľ°": 1727,
      "åĳ¢": 1728,
      "ä¸ĢçĤ¹": 1729,
      "èµ¶": 1730,
      "åıĳçĶŁäºĨ": 1731,
      "åĽŀäºĨå®¶": 1732,
      "èĦļ": 1733,
      "åĳĬè¯īå¥¹": 1734,
      "ä¼ĳæģ¯": 1735,
      "çĤ¹äºĨ": 1736,
      "æ»ĳæ¢¯": 1737,
      "é£ŀç¿Ķ": 1738,
      "è¡£æľį": 1739,
      "ç§ĺ": 1740,
      "æĶ¾è¿Ľ": 1741,
      "çļĦæľĭåıĭ": 1742,
      "åĨĻ": 1743,
      "æĸĻ": 1744,
      "åĽŀå®¶äºĨ": 1745,
      "åŃ©åŃĲä»¬": 1746,
      "åİĨ": 1747,
      "äºĨä¸Ģåı£": 1748,
      "åĽŀåĪ°äºĨ": 1749,
      "åĲĮæĦı": 1750,
      "æĿ¾é¼ł": 1751,
      "éŃ": 1752,
      "ä»ĸçļĦçİ©åħ·": 1753,
      "ä¸ĭäºĨ": 1754,
      "åĿıäºĨ": 1755,
      "çİ¯é¡¾": 1756,
      "éĽ¶": 1757,
      "ä»Ķ": 1758,
      "çĳ": 1759,
      "éĤ£æĺ¯ä¸Ģä¸ª": 1760,
      "åĪ«æĭħå¿ĥ": 1761,
      "åľŁ": 1762,
      "Ń¦": 1763,
      "çĤ¹äºĨçĤ¹å¤´": 1764,
      "è®¡": 1765,
      "å®¶éĩĮ": 1766,
      "çĭ®åŃĲ": 1767,
      "ģäºĨ": 1768,
      "ä¸ĢåĪĩ": 1769,
      "å®¤": 1770,
      "ä½Ĩå®ĥ": 1771,
      "ä¸ĬçļĦ": 1772,
      "åįķ": 1773,
      "ä»ĸçļĦæľĭåıĭ": 1774,
      "åĲ¸": 1775,
      "æĭ¿èµ·": 1776,
      "æĬĵä½ı": 1777,
      "æ·ĭ": 1778,
      "æī¾åĪ°äºĨä¸Ģ": 1779,
      "éĺ³åħīä¸ĭ": 1780,
      "éŃĶ": 1781,
      "ä»Ķç»Ĩ": 1782,
      "æĪĳæĥ³": 1783,
      "äººä»¬": 1784,
      "ä½łåı¯ä»¥": 1785,
      "çľĭäºĨ": 1786,
      "å¼Ģå§ĭåĵŃ": 1787,
      "åĳĺ": 1788,
      "çİĽä¸½": 1789,
      "éĢī": 1790,
      "å©": 1791,
      "åıĳçİ°äºĨä¸Ģä¸ª": 1792,
      "ä»Ĭå¤©": 1793,
      "åľ¨å¤ĸéĿ¢": 1794,
      "çŃĶåºĶ": 1795,
      "å®ĥéĿŀå¸¸": 1796,
      "æĸ¯æ³¢": 1797,
      "æ¹¿": 1798,
      "æĸ¯æ³¢çī¹": 1799,
      "çļĦå¥³åŃ©": 1800,
      "åħ´å¥ĭåľ°": 1801,
      "åĤ²": 1802,
      "å¯Ĩ": 1803,
      "åĨįä¹Łæ²¡æľī": 1804,
      "ç¢°": 1805,
      "åĹ": 1806,
      "èħ": 1807,
      "å£®": 1808,
      "éĽª": 1809,
      "å¤į": 1810,
      "äºİæĺ¯ä»ĸ": 1811,
      "æĳĶ": 1812,
      "äºĴçĽ¸": 1813,
      "ä¸Ģèµ·åİ»": 1814,
      "ĦåĤ²": 1815,
      "éªĦåĤ²": 1816,
      "å¾Ĺä¸į": 1817,
      "è·ĳæĿ¥": 1818,
      "çĥ¤": 1819,
      "æĹłè®º": 1820,
      "ä¾¿": 1821,
      "åħħæ»¡äºĨ": 1822,
      "ä»İåīįæľīä¸Ģåıª": 1823,
      "åĪĽ": 1824,
      "æĺ¯ä»Ģä¹Ī": 1825,
      "ä¸Ģä¸ªå¤§å¤§çļĦ": 1826,
      "ä¸ĬéĿ¢": 1827,
      "åĽĽåĳ¨": 1828,
      "æľīä¸Ģä½į": 1829,
      "æµģ": 1830,
      "æ¿ĢåĬ¨": 1831,
      "åłĨ": 1832,
      "æĺİäº®": 1833,
      "åĳĬåĪ«": 1834,
      "å°ıå¿ĥç¿¼": 1835,
      "å°ıå¿ĥç¿¼ç¿¼": 1836,
      "å¸½åŃĲ": 1837,
      "å¥³å£«": 1838,
      "ä½łä»¬": 1839,
      "èĭ¹æŀľ": 1840,
      "ç¥ŀå¥ĩ": 1841,
      "ç¨ĭ": 1842,
      "éĤ£ä¹Ī": 1843,
      "åĸ·": 1844,
      "æī¾ä¸įåĪ°": 1845,
      "æĵ¦": 1846,
      "æĪ¿éĹ´éĩĮ": 1847,
      "åı¯çĪ±": 1848,
      "åŃ¦ä¹ł": 1849,
      "åĻ¨": 1850,
      "è¿Ļä¸ªæķħäºĭ": 1851,
      "æĮī": 1852,
      "èį¡": 1853,
      "åģļä»Ģä¹Ī": 1854,
      "çļĦå¯": 1855,
      "å¾Īä¹ħå¾Īä¹ħä»¥åīį": 1856,
      "ç¤¼çī©": 1857,
      "èĨĢ": 1858,
      "Ŀåį": 1859,
      "èº«è¾¹": 1860,
      "è¯»": 1861,
      "ç»³": 1862,
      "é¢ľèī²": 1863,
      "Ŀåįľ": 1864,
      "åģ·": 1865,
      "ç»Ļå¥¹": 1866,
      "è®®": 1867,
      "æĻļä¸Ĭ": 1868,
      "åıĸ": 1869,
      "ç®±åŃĲ": 1870,
      "æľĢåĸľæ¬¢çļĦ": 1871,
      "ä¹ĭåĲİ": 1872,
      "æŁ¥": 1873,
      "å¦Īå¦ĪåĴĮ": 1874,
      "éĺµ": 1875,
      "éĩĬ": 1876,
      "æ»¡äºĨ": 1877,
      "èŃ¦": 1878,
      "çĽĸ": 1879,
      "éŁ³ä¹Ĳ": 1880,
      "æ¹ĸ": 1881,
      "å°ıå¿ĥç¿¼ç¿¼åľ°": 1882,
      "æľīäºĨä¸Ģä¸ª": 1883,
      "åĪ¶ä½ľ": 1884,
      "å¥¹çļĦæľĭåıĭ": 1885,
      "ä¸ĢæĿ¡": 1886,
      "åį³ä½¿": 1887,
      "è·ĥ": 1888,
      "åıĳåĩº": 1889,
      "æĦŁåĪ°éĿŀå¸¸åħ´å¥ĭ": 1890,
      "éĤ£åıªé¸Ł": 1891,
      "æħ¢æħ¢": 1892,
      "çľĭåĪ°ä¸Ģä¸ª": 1893,
      "æµ·æ»©": 1894,
      "åĳĬè¯īä»ĸ": 1895,
      "åĶ±æŃĮ": 1896,
      "æĹ¢": 1897,
      "æĦŁåĪ°éĿŀå¸¸å¼Ģå¿ĥ": 1898,
      "å¾Īéļ¾è¿ĩ": 1899,
      "æ¡¶": 1900,
      "è·ĳæĿ¥è·ĳåİ»": 1901,
      "æĿ¥äºĨ": 1902,
      "å½±": 1903,
      "é£ŀèµ°äºĨ": 1904,
      "åĽ¢": 1905,
      "å¼¹": 1906,
      "åĽŀåĪ°å®¶": 1907,
      "æ¶Īå¤±": 1908,
      "å¥Ĺ": 1909,
      "å¹¶ä¸į": 1910,
      "æ¼Ķ": 1911,
      "ĵæĦı": 1912,
      "æľīå¾Īå¤ļ": 1913,
      "ä¹ĭåīį": 1914,
      "ç´¯": 1915,
      "åħ³äºİ": 1916,
      "æĿ¥åĪ°": 1917,
      "çľŁæĺ¯": 1918,
      "èįīåľ°ä¸Ĭ": 1919,
      "å¥¹çļĦçİ©åħ·": 1920,
      "åı°": 1921,
      "åĵĩ": 1922,
      "è¯ķçĿĢ": 1923,
      "å±ĭéĩĮ": 1924,
      "æ¥": 1925,
      "ä½ĨéļıåĲİ": 1926,
      "æİĮ": 1927,
      "çĭ¸": 1928,
      "çī¹åĪ«çļĦä¸ľè¥¿": 1929,
      "åĲįåŃĹåı«": 1930,
      "éº¦": 1931,
      "æľīæĹ¶åĢĻ": 1932,
      "éĩĳ": 1933,
      "èĬ±æľµ": 1934,
      "æĪ¿åŃĲéĩĮ": 1935,
      "ç¦»å¼ĢäºĨ": 1936,
      "æŁĶè½¯": 1937,
      "çļĦå¯ĵæĦı": 1938,
      "Ĳçĭ¸": 1939,
      "åįĪ": 1940,
      "çĭĲçĭ¸": 1941,
      "åľ¨äºĨ": 1942,
      "æ¬£": 1943,
      "çº¢èī²": 1944,
      "éĢĥ": 1945,
      "è¯¥æĢİä¹ĪåĬŀ": 1946,
      "å¹´": 1947,
      "æĺŁæĺŁ": 1948,
      "ä¸įåģľåľ°": 1949,
      "ä¸»äºº": 1950,
      "ä¾Ŀ": 1951,
      "æľīè¶£çļĦ": 1952,
      "çľĭåĪ°äºĨä¸Ģåıª": 1953,
      "å¥Ķ": 1954,
      "è¯º": 1955,
      "äºİæĺ¯å¥¹": 1956,
      "æĭ¥æĬ±äºĨ": 1957,
      "èĩ³äºİ": 1958,
      "æ®µ": 1959,
      "éŀĭ": 1960,
      "å¥¹éĿŀå¸¸åĸľæ¬¢": 1961,
      "æĸŃ": 1962,
      "ç»Ļä»ĸ": 1963,
      "æī¿": 1964,
      "æĭ¾": 1965,
      "èĲ¨èİī": 1966,
      "éĹªéĹªåıĳåħī": 1967,
      "å½ĵçĦ¶åı¯ä»¥": 1968,
      "ä¸¢": 1969,
      "ä»¥èĩ³äºİ": 1970,
      "çļĦå¯ĵæĦıæĺ¯": 1971,
      "å¾Īå¿«å°±": 1972,
      "ä¸įåĸľæ¬¢": 1973,
      "èī¾çİĽ": 1974,
      "çİ¯é¡¾åĽĽåĳ¨": 1975,
      "´åŃĲ": 1976,
      "åŃ¦ä¼ļ": 1977,
      "åİ»äºĨåħ¬åĽŃ": 1978,
      "ä¸¤ä¸ªæľĭåıĭ": 1979,
      "å¦Ļ": 1980,
      "çľŁçļĦ": 1981,
      "å¾Īä¼¤å¿ĥ": 1982,
      "åľ¨ä¸Ģä¸ª": 1983,
      "è§Ĵ": 1984,
      "è½®": 1985,
      "èĻ«åŃĲ": 1986,
      "éĹªäº®çļĦ": 1987,
      "è¿Ļä½į": 1988,
      "é£ŀæľº": 1989,
      "æĺ¯ä¸Ģåıª": 1990,
      "æ¬¢åĳ¼": 1991,
      "å±ħ": 1992,
      "æº": 1993,
      "åŃ¤": 1994,
      "éĩĮçļĦ": 1995,
      "åıĮ": 1996,
      "éĶĻ": 1997,
      "ç³ĸæŀľ": 1998,
      "æļĹ": 1999,
      "ç»ĻäºĨå¥¹": 2000,
      "å¼ºå£®": 2001,
      "æľīè®¸å¤ļ": 2002,
      "æ±ģ": 2003,
      "æ²»": 2004,
      "ç©¿ä¸Ĭ": 2005,
      "ç½Ĳ": 2006,
      "æ»ļ": 2007,
      "åº¦è¿ĩäºĨ": 2008,
      "è·ĳåĪ°": 2009,
      "æĻ®": 2010,
      "ç²¾": 2011,
      "éĽĨ": 2012,
      "å¨ĥå¨ĥ": 2013,
      "åĲĥäºĨ": 2014,
      "åĲīå°Ķ": 2015,
      "è·ŁçĿĢ": 2016,
      "å¥½æľĭåıĭ": 2017,
      "è¿ĩäºĨä¸Ģä¼ļåĦ¿": 2018,
      "åįģ": 2019,
      "åĩºçİ°": 2020,
      "éķĩ": 2021,
      "å®Įç¾İ": 2022,
      "è¿Ļä¸ªæķħäºĭçļĦå¯ĵæĦıæĺ¯": 2023,
      "ä¿ĿæĬ¤": 2024,
      "çļĦè·¯": 2025,
      "åħ³ç³»": 2026,
      "åĨħ": 2027,
      "ç¿ħ": 2028,
      "æĦŁè§īå¥½å¤ļäºĨ": 2029,
      "æī¿è¯º": 2030,
      "äºĳ": 2031,
      "å¤§å£°": 2032,
      "æĶ¶æĭ¾": 2033,
      "åĲīç±³": 2034,
      "æĦ¿æĦı": 2035,
      "æĹ§": 2036,
      "ä»¤äºº": 2037,
      "ĤçļĦ": 2038,
      "ç¿ħèĨĢ": 2039,
      "åıĤ": 2040,
      "è§£éĩĬ": 2041,
      "èĢĮæĦŁåĪ°": 2042,
      "é¡¹": 2043,
      "èıľ": 2044,
      "äºĨä¸Ģä¸ĭ": 2045,
      "æ¡Į": 2046,
      "åĴĮä»ĸçļĦæľĭåıĭä»¬": 2047,
      "åı¹": 2048,
      "éģĵåĪ«": 2049,
      "è·³è·ĥ": 2050,
      "çĵ¶": 2051,
      "åıĭåĸĦ": 2052,
      "åıĳçİ°äºĨ": 2053,
      "åį±": 2054,
      "åĵ¦": 2055,
      "æİ¢éĻ©": 2056,
      "åĨ°æ·": 2057,
      "ĩæ·ĭ": 2058,
      "åĽ½": 2059,
      "ä»ĸçļĦæľĭåıĭä»¬": 2060,
      "åĿĳ": 2061,
      "åĨ°æ·ĩæ·ĭ": 2062,
      "çĪ¬ä¸Ĭ": 2063,
      "æİīäºĨ": 2064,
      "èīĺ": 2065,
      "åħĪçĶŁ": 2066,
      "åį±éĻ©": 2067,
      "æĪ·": 2068,
      "çľĭåĪ°äºĨä¸Ģä¸ª": 2069,
      "ä¸Ģä¸ªå¤§å¤§çļĦæĭ¥æĬ±": 2070,
      "çļĦæĺ¯": 2071,
      "ä¸įå¾Ĺä¸į": 2072,
      "åŁİåł¡": 2073,
      "æĿ¥è¯´": 2074,
      "çİ©äºĨ": 2075,
      "æĶ¯": 2076,
      "å¦¹": 2077,
      "èĦı": 2078,
      "æĦŁåıĹ": 2079,
      "çĪ·": 2080,
      "æ³¥": 2081,
      "é¸¡": 2082,
      "æ¯ıæ¬¡": 2083,
      "åĲĦç§į": 2084,
      "æ²¡åħ³ç³»": 2085,
      "æļ´": 2086,
      "åĬłåħ¥": 2087,
      "ä½łèĥ½": 2088,
      "çģ«è½¦": 2089,
      "ä¸¾": 2090,
      "çģĮ": 2091,
      "èĪĴéĢĤ": 2092,
      "æĹĭ": 2093,
      "æĭ¥æľī": 2094,
      "å¤§æłĳ": 2095,
      "èĢĥ": 2096,
      "åŀ": 2097,
      "é½": 2098,
      "åĲ¬åĪ°äºĨ": 2099,
      "è®°å¾Ĺ": 2100,
      "å¾Īå¤§çļĦ": 2101,
      "è¿«ä¸įåıĬå¾ħåľ°æĥ³": 2102,
      "Ĳå¿ĥ": 2103,
      "å®ĥæĺ¯": 2104,
      "ªļ": 2105,
      "åªļ": 2106,
      "é¥¿": 2107,
      "æĺİåªļ": 2108,
      "é¹°": 2109,
      "æĢªçī©": 2110,
      "åĲµ": 2111,
      "èµı": 2112,
      "ä¸įå°ıå¿ĥ": 2113,
      "å¥Ķè·ĳ": 2114,
      "èŀ": 2115,
      "äºĶ": 2116,
      "ä»ĸå¯¹": 2117,
      "æľīä»Ģä¹Ī": 2118,
      "åľ¨èĬ±åĽŃéĩĮ": 2119,
      "èĩªè¡Į": 2120,
      "æĦŁåĪ°å¾Īéļ¾è¿ĩ": 2121,
      "æĬ¬å¤´": 2122,
      "å¼Ĺ": 2123,
      "åģļäºĨ": 2124,
      "éŃĶæ³ķ": 2125,
      "çģĮæľ¨": 2126,
      "èĩªè¡Įè½¦": 2127,
      "éĹ»": 2128,
      "æ´¾": 2129,
      "æį¡èµ·": 2130,
      "ç½Ĺ": 2131,
      "åĴ¯": 2132,
      "ä»¥åıĬ": 2133,
      "å¥¹å¯¹": 2134,
      "åģĩè£ħ": 2135,
      "æľŁ": 2136,
      "å°±æĺ¯": 2137,
      "æĻ¯": 2138,
      "ä½łæĥ³": 2139,
      "èºº": 2140,
      "éĽ¶é£Ł": 2141,
      "ä¸Ģå®ļ": 2142,
      "éĤ£æĺ¯ä»Ģä¹Ī": 2143,
      "å¢Ļ": 2144,
      "çŃĶåºĶäºĨ": 2145,
      "è¿Ļæ¬¡": 2146,
      "åľ¨ä¸Ģ": 2147,
      "çĶ°": 2148,
      "çĽ®": 2149,
      "ä¸įçŁ¥éģĵè¯¥æĢİä¹ĪåĬŀ": 2150,
      "éĽ·": 2151,
      "¡èĲĿåįľ": 2152,
      "ç»Ŀ": 2153,
      "ä¸įèµ·": 2154,
      "çĽĺ": 2155,
      "åģľä¸ĭæĿ¥": 2156,
      "èı²": 2157,
      "ä»ĸå¼Ģå§ĭ": 2158,
      "ç¬ĳäºĨç¬ĳ": 2159,
      "äºī": 2160,
      "åĴ¬": 2161,
      "ç»ķ": 2162,
      "ç³Ł": 2163,
      "çħ§é¡¾": 2164,
      "èİīèİīè¯´": 2165,
      "å¤ļä¹Ī": 2166,
      "åħ¬ä¸»": 2167,
      "çŃīå¾ħ": 2168,
      "åıªæľī": 2169,
      "åĺ´": 2170,
      "éĢĴ": 2171,
      "æľīä¸ĢåıªåĲįåı«": 2172,
      "éĺ³åħīæĺİåªļ": 2173,
      "äºļ": 2174,
      "ä¸Ģä½į": 2175,
      "æĻ¨": 2176,
      "å¹¸è¿Ĳ": 2177,
      "ä¹±": 2178,
      "å¥³åĦ¿": 2179,
      "å±ŀ": 2180,
      "å¾Ĺå¤ª": 2181,
      "èĦ¸ä¸Ĭ": 2182,
      "ç¢Ĺ": 2183,
      "å°ĸ": 2184,
      "ä»ĸåĲ¬åĪ°": 2185,
      "çİ©èĢįæĹ¶": 2186,
      "æ°ĶçĲĥ": 2187,
      "åĲĮæĦıäºĨ": 2188,
      "èİİèİī": 2189,
      "å½¼æŃ¤": 2190,
      "è®²": 2191,
      "é¦ĸ": 2192,
      "æĭ¼": 2193,
      "çļĦæĹ¥": 2194,
      "å¾Īæľīè¶£": 2195,
      "ç©¿çĿĢ": 2196,
      "æĹģè¾¹": 2197,
      "ä»½": 2198,
      "èĲ¨ç±³": 2199,
      "éħ·": 2200,
      "ä¼Ĭ": 2201,
      "äºĨä¸Ģå£°": 2202,
      "å¸®ä½ł": 2203,
      "è£ĻåŃĲ": 2204,
      "èµ°è¿Ľ": 2205,
      "åģľæŃ¢": 2206,
      "æĻļé¤Ĳ": 2207,
      "æł¼": 2208,
      "è§¦": 2209,
      "å¸®æĪĳ": 2210,
      "çıįå¦®": 2211,
      "éĤ»": 2212,
      "æįī": 2213,
      "ç§»": 2214,
      "æŁľ": 2215,
      "è¹¦è·³": 2216,
      "æ£ĴçļĦ": 2217,
      "æĹħè¡Į": 2218,
      "ç¡¬": 2219,
      "ç»³åŃĲ": 2220,
      "åĨ²": 2221,
      "æ²¹": 2222,
      "çģ¿": 2223,
      "ç´§ç´§åľ°": 2224,
      "ç«ĭåĪ»": 2225,
      "åĴĮä»ĸçļĦå¦Īå¦Ī": 2226,
      "çĶ»çĶ»": 2227,
      "ä¸ĢåĿĹ": 2228,
      "æĪĸ": 2229,
      "çªģçĦ¶éĹ´": 2230,
      "çģ¿çĥ": 2231,
      "ä¸Ģä»¶": 2232,
      "å®Ŀå®Ŀ": 2233,
      "äºĨä»ĸ": 2234,
      "æ³°è¿ªçĨĬ": 2235,
      "å¥¹éĥ½ä¼ļ": 2236,
      "æ¨": 2237,
      "å¥ĸ": 2238,
      "é¥°": 2239,
      "ä»ĸæĦŁåĪ°": 2240,
      "éĴŁ": 2241,
      "æķ´ä¸ª": 2242,
      "éĵ¾": 2243,
      "èĳ": 2244,
      "æŃī": 2245,
      "éĤ£æĿ¡": 2246,
      "åº·": 2247,
      "åºŃ": 2248,
      "æ¬£èµı": 2249,
      "å¥¹çŁ¥éģĵ": 2250,
      "èµ¢": 2251,
      "æķ´çĲĨ": 2252,
      "ç»ĻäºĨä»ĸ": 2253,
      "åıĳçĶŁäºĨä»Ģä¹Ī": 2254,
      "è¡Ĺ": 2255,
      "æĮĤ": 2256,
      "å¤ľ": 2257,
      "å¹¶æĦŁè°¢": 2258,
      "å¥¹çļĦå¦Īå¦Īè¯´": 2259,
      "è¯·æ±Ĥ": 2260,
      "ä¸Ģä¸ªåı«": 2261,
      "å¾ĹæĽ´": 2262,
      "åĸľæ¬¢çİ©": 2263,
      "ç§¯": 2264,
      "æŁĲ": 2265,
      "è§Ĥå¯Ł": 2266,
      "åĮ»çĶŁ": 2267,
      "èľľèľĤ": 2268,
      "å¹¶è¯´": 2269,
      "æŀģäºĨ": 2270,
      "æİ¥çĿĢ": 2271,
      "æĹ©æĻ¨": 2272,
      "æĸĳ": 2273,
      "éľ²åĩºäºĨ": 2274,
      "åĨľå¤«": 2275,
      "è¿ĻæĿ¡": 2276,
      "ä»ĸä»¬åĨ³å®ļ": 2277,
      "æłĩ": 2278,
      "çģ°": 2279,
      "ç©¿è¿ĩ": 2280,
      "å°ıçĮ«": 2281,
      "æ©¡": 2282,
      "çł´": 2283,
      "äºĨåĩºæĿ¥": 2284,
      "å§Ĳ": 2285,
      "åľ¨éĺ³åħīä¸ĭ": 2286,
      "ä¸įæķ¢": 2287,
      "å·¢": 2288,
      "çĸ²": 2289,
      "è®¡åĪĴ": 2290,
      "åĩ¯": 2291,
      "è¦ģå°ıå¿ĥ": 2292,
      "å¤´é¹°": 2293,
      "çĶ¨å®ĥ": 2294,
      "çļĦè£": 2295,
      "çĥŁ": 2296,
      "æľīäºº": 2297,
      "èĢĲå¿ĥ": 2298,
      "å®¶åºŃ": 2299,
      "çī¹æ®": 2300,
      "çĮ´åŃĲ": 2301,
      "è¿Ļåıªé¸Ł": 2302,
      "é²ľ": 2303,
      "åİ»æī¾": 2304,
      "å¥¹æĦŁåĪ°": 2305,
      "åģ¥": 2306,
      "å¤´åıĳ": 2307,
      "è®©å®ĥ": 2308,
      "å°±åĥı": 2309,
      "é¹ħ": 2310,
      "æĿ¯": 2311,
      "å¾Īå®³æĢķ": 2312,
      "éĤ£åĿĹ": 2313,
      "åľ°éĿ¢": 2314,
      "å°¾": 2315,
      "çļĦå°ıé¸Ł": 2316,
      "çī¹æ®Ĭ": 2317,
      "ä»ĸä¼ļ": 2318,
      "ï¼ļ\"": 2319,
      "ç»Ļä½ł": 2320,
      "æĽ¾": 2321,
      "å¼ĥ": 2322,
      "æľºåĻ¨": 2323,
      "éĤ»å±ħ": 2324,
      "å¸ģ": 2325,
      "æµª": 2326,
      "å®īéĿĻ": 2327,
      "ç»ıåİĨ": 2328,
      "åľĨ": 2329,
      "æīĩ": 2330,
      "æīĶ": 2331,
      "èģĬ": 2332,
      "ä½ıåľ¨ä¸Ģ": 2333,
      "æ²¿": 2334,
      "çĮ«å¤´é¹°": 2335,
      "æĹħç¨ĭ": 2336,
      "åºĨ": 2337,
      "çĬ¶": 2338,
      "ç©ºä¸Ń": 2339,
      "åİŁæĿ¥": 2340,
      "æ±¤å§ĨåĴĮ": 2341,
      "æ´ĭå¨ĥå¨ĥ": 2342,
      "çĶŁçī©": 2343,
      "çĪ±çļĦ": 2344,
      "åĽłä¸ºå®ĥ": 2345,
      "åĽŀçŃĶè¯´": 2346,
      "æĹĭè½¬": 2347,
      "ä¸Ģæł¹": 2348,
      "åĪĢ": 2349,
      "å°ıèĢģé¼ł": 2350,
      "åĲİéĿ¢": 2351,
      "Ĥèļ": 2352,
      "æłĳåı¶": 2353,
      "åıĹä¼¤": 2354,
      "å¥¹éĹ®": 2355,
      "æ³£": 2356,
      "åŃ¦ä¼ļäºĨ": 2357,
      "ä»ĸæĥ³è¦ģ": 2358,
      "çĿĢå®ĥ": 2359,
      "åĲİéĻ¢": 2360,
      "éĩįæĸ°": 2361,
      "åĢĴäºĨ": 2362,
      "è¿İ": 2363,
      "æ°´éĩĮ": 2364,
      "åĪļ": 2365,
      "ä¸Ģä¸ªåĲįåı«": 2366,
      "åı«èİīèİī": 2367,
      "å¼ı": 2368,
      "ç¾ŀ": 2369,
      "éķľ": 2370,
      "èľ¡": 2371,
      "ç§ĺå¯Ĩ": 2372,
      "ç©´": 2373,
      "éĨĴæĿ¥": 2374,
      "åı¸": 2375,
      "å·¾": 2376,
      "éĹŃ": 2377,
      "æĶ¾å¼ĥ": 2378,
      "åĳ³éģĵ": 2379,
      "è½»è½»": 2380,
      "çľĭäºĨçľĭ": 2381,
      "èķ": 2382,
      "çļĦä¸Ģå¤©": 2383,
      "åıĭå¥½": 2384,
      "Ĥèļģ": 2385,
      "éĤĢ": 2386,
      "åīª": 2387,
      "å¼Łå¼Ł": 2388,
      "åĵ¥åĵ¥": 2389,
      "éĤĢè¯·": 2390,
      "å¥ı": 2391,
      "äºĨä¸Ģæķ´å¤©": 2392,
      "è·ĳå¼ĢäºĨ": 2393,
      "ç¢İ": 2394,
      "ä»İåīįæľīä¸Ģä¸ªå°ıå¥³åŃ©": 2395,
      "ç§¯æľ¨": 2396,
      "å¥½åĲĥ": 2397,
      "è·ĳäºĨ": 2398,
      "æ£į": 2399,
      "çİ©åħ·è½¦": 2400,
      "æĦŁåĪ°éĿŀå¸¸é«ĺåħ´": 2401,
      "æħ¢æħ¢åľ°": 2402,
      "äºĨå¥¹": 2403,
      "èĢħ": 2404,
      "æĭ¿åĩº": 2405,
      "æĬ±ä½ıäºĨ": 2406,
      "äºĨä¸Ģåı£æ°Ķ": 2407,
      "æ¤į": 2408,
      "å¤§å¤§çļĦ": 2409,
      "éĤ£åıªçĭĹ": 2410,
      "ä»ĸçŁ¥éģĵ": 2411,
      "çĥ¦": 2412,
      "åĬŀæ³ķ": 2413,
      "æĪĳä¹Ł": 2414,
      "éĥ½åľ¨": 2415,
      "åĮĸ": 2416,
      "æ¸ħçĲĨ": 2417,
      "éĤ£ä½į": 2418,
      "æĿĳ": 2419,
      "åı¯æĢķ": 2420,
      "æĪĳä»¬æĿ¥": 2421,
      "æķ£æŃ¥æĹ¶": 2422,
      "èĪĴæľį": 2423,
      "æŀļ": 2424,
      "å¡Ķ": 2425,
      "å»ºè®®": 2426,
      "è¿ĻåĿĹ": 2427,
      "ä¸īå²ģäºĨ": 2428,
      "ĺèĽ": 2429,
      "äºİæĺ¯ä»ĸä»¬": 2430,
      "æµĭ": 2431,
      "æ¥¼": 2432,
      "ĺèĽĽ": 2433,
      "èĶ": 2434,
      "ä½łä¸ºä»Ģä¹Ī": 2435,
      "åºķ": 2436,
      "ç¾Ĭ": 2437,
      "æĺ¯åĲ¦åı¯ä»¥": 2438,
      "æ´ģ": 2439,
      "å¼ķ": 2440,
      "åĬ¡": 2441,
      "çļĦæīĢæľī": 2442,
      "æĺ¯ä¸ª": 2443,
      "è®Ń": 2444,
      "èĻ¹": 2445,
      "å½©èĻ¹": 2446,
      "å°±åľ¨è¿Ļ": 2447,
      "ç¥Ŀ": 2448,
      "æ²¿çĿĢ": 2449,
      "èĢĢ": 2450,
      "ä½İ": 2451,
      "è°ģ": 2452,
      "å®³æĢķäºĨ": 2453,
      "çļĦçĭĹ": 2454,
      "èĥ½ä¸įèĥ½": 2455,
      "çģ¯": 2456,
      "å¼łæľĽ": 2457,
      "çĶ±": 2458,
      "å°¾å·´": 2459,
      "å¥¹çļĦæľĭåıĭä»¬": 2460,
      "åı£è¢ĭ": 2461,
      "é£İçŃ": 2462,
      "ä»Ļ": 2463,
      "èĢģå¸Ī": 2464,
      "èĥ¡èĲĿåįľ": 2465,
      "ä¸įæĸŃ": 2466,
      "çģµ": 2467,
      "éģĩåĪ°äºĨä¸Ģ": 2468,
      "ä¾ĿçĦ¶": 2469,
      "é£İçŃĿ": 2470,
      "éĤ®": 2471,
      "ä¸įè§ģ": 2472,
      "æ¯¯åŃĲ": 2473,
      "è´´": 2474,
      "çģ¿çĥĤçļĦ": 2475,
      "äºĨä¸Ģåıª": 2476,
      "ç®ĢçĽ´": 2477,
      "ä¸ĳ": 2478,
      "äºĨä¸Ģä»¶": 2479,
      "æĬĬå®ĥä»¬": 2480,
      "åĿļæĮģ": 2481,
      "çļĦå¸®åĬ©": 2482,
      "å¹ħ": 2483,
      "ä¸Ģéĺµ": 2484,
      "è¯Ń": 2485,
      "è¿ĻéĩĮ": 2486,
      "çļĦèĥ": 2487,
      "ä»İæŃ¤": 2488,
      "ç´«": 2489,
      "å¯Į": 2490,
      "çĪ¸çĪ¸è¯´": 2491,
      "éª¨": 2492,
      "åĸĦèī¯çļĦ": 2493,
      "æīĵæī": 2494,
      "è¿Ļæĺ¯ä¸Ģä¸ª": 2495,
      "ä»İæľªè§ģè¿ĩ": 2496,
      "åģ¥åº·": 2497,
      "å°±åľ¨è¿ĻæĹ¶": 2498,
      "ä»ĸéĹ®": 2499,
      "çīĮ": 2500,
      "èµ°åĲĳ": 2501,
      "ä¹Łè®¸": 2502,
      "æĪĳä»¬åİ»": 2503,
      "æľµèĬ±": 2504,
      "çģĮæľ¨ä¸Ľ": 2505,
      "ï¼ĮâĢľ": 2506,
      "åı«åģļ": 2507,
      "æķĻè®Ń": 2508,
      "åıªæľīä¸īå²ģ": 2509,
      "ä»ĸå¾Ī": 2510,
      "åľ¨åľ°ä¸Ĭ": 2511,
      "åĮĻ": 2512,
      "èļĤèļģ": 2513,
      "ä¹Į": 2514,
      "ä½łåľ¨": 2515,
      "æ£ķ": 2516,
      "æ¯ĽèĮ¸": 2517,
      "åĨįä¹Łä¸į": 2518,
      "ç§»åĬ¨": 2519,
      "æ¯ĽèĮ¸èĮ¸": 2520,
      "å·§": 2521,
      "å¸¦æĿ¥": 2522,
      "Sp": 2523,
      "åĴĮå¥¹çļĦå¦Īå¦Ī": 2524,
      "æ²ī": 2525,
      "çº¢èī²çļĦ": 2526,
      "ot": 2527,
      "å®¢": 2528,
      "è®©æĪĳ": 2529,
      "èº²": 2530,
      "ç½ĳ": 2531,
      "å¥¹å¼Ģå§ĭ": 2532,
      "ä¸Ģä¸ªå°ıå¥³åŃ©": 2533,
      "ä»ĸéĥ½ä¼ļ": 2534,
      "å¼±": 2535,
      "æĭ©": 2536,
      "æĦŁåĪ°å¾Īå¼Ģå¿ĥ": 2537,
      "è°Ī": 2538,
      "å¾ħåľ¨": 2539,
      "å¤§å®¶éĥ½": 2540,
      "éĢīæĭ©": 2541,
      "åĽŀåİ»": 2542,
      "é»Ħèī²": 2543,
      "çĩ": 2544,
      "æłĳæľ¨": 2545,
      "å¾ĹéĿŀå¸¸": 2546,
      "æıĲç±³çļĦå°ıçĶ·åŃ©": 2547,
      "åı¯èĥ½ä¼ļ": 2548,
      "çªĹæĪ·": 2549,
      "åĪĽéĢł": 2550,
      "è´µ": 2551,
      "åįģåĪĨ": 2552,
      "æĽ¾ç»ı": 2553,
      "æľĿ": 2554,
      "æĶ¶éĽĨ": 2555,
      "åĵĪ": 2556,
      "å½¢çĬ¶": 2557,
      "å¤§è±¡": 2558,
      "çıŃ": 2559,
      "ä¸Ģä¸ªå£°éŁ³": 2560,
      "æīįèĥ½": 2561,
      "æ¤įçī©": 2562,
      "çĶ°éĩİ": 2563,
      "å¹¶å¼Ģå§ĭ": 2564,
      "äºİæĺ¯åĨ³å®ļ": 2565,
      "èĬĤ": 2566,
      "ä½¿çĶ¨": 2567,
      "ä¸įæķ¢çĽ¸ä¿¡": 2568,
      "Spot": 2569,
      "åĲīå§Ĩ": 2570,
      "åĴĮå¦Īå¦Īä¸Ģèµ·": 2571,
      "è¿Ļé¢Ĺ": 2572,
      "ç»ĥ": 2573,
      "ä¿©": 2574,
      "çĵľ": 2575,
      "å±ŀäºİ": 2576,
      "è¿Ļè¾Ĩ": 2577,
      "å¾ĹåĪ°": 2578,
      "éŀĭåŃĲ": 2579,
      "æµ·è±": 2580,
      "å¥¹ä¼ļ": 2581,
      "åį°": 2582,
      "çļĦæīĭ": 2583,
      "è¯´è¯Ŀ": 2584,
      "ä½Ĩä»ĸä»¬": 2585,
      "å½ĵä»ĸä»¬åĪ°è¾¾": 2586,
      "çľŁæĺ¯å¤ª": 2587,
      "æ´Ľ": 2588,
      "æ¯ıå¤©éĥ½ä¼ļ": 2589,
      "æ³¡æ³¡": 2590,
      "çļĦæľĢ": 2591,
      "æĢĢ": 2592,
      "çļĦèĦ": 2593,
      "æ£µå¤§æłĳ": 2594,
      "æĿ¥è·³": 2595,
      "è®¤ä¸º": 2596,
      "éĺŁ": 2597,
      "é³": 2598,
      "å¾·": 2599,
      "æĺ¾": 2600,
      "æĦŁåĪ°èĩªè±ª": 2601,
      "æ²¡æľīäºº": 2602,
      "ç«¯": 2603,
      "æ´ŀç©´": 2604,
      "æĽ´å¤ļçļĦ": 2605,
      "èŁ": 2606,
      "æľīä¸¤ä¸ªæľĭåıĭ": 2607,
      "åİ»çľĭ": 2608,
      "å§ĭç»Ī": 2609,
      "æĳĨ": 2610,
      "æĬĵä½ıäºĨ": 2611,
      "çļĦæĸ¹": 2612,
      "ä»ĸçĶ¨": 2613,
      "ä»ĸæĢ»æĺ¯": 2614,
      "ä¼¼": 2615,
      "ä¹Łå¾Ī": 2616,
      "èĪª": 2617,
      "ä¸Ģåľº": 2618,
      "äºĨè®¸å¤ļ": 2619,
      "æĺ¯å¾Ī": 2620,
      "èİīèİīæĥ³": 2621,
      "åĩī": 2622,
      "æ··": 2623,
      "ä»ĸè§īå¾Ĺ": 2624,
      "å¥¹å¾Ī": 2625,
      "åľ¨å¥¹": 2626,
      "ä¸įè¡Į": 2627,
      "èµ°è¿ĳ": 2628,
      "ãĢĤâĢĿâĢľ": 2629,
      "æµ´": 2630,
      "å»ºéĢł": 2631,
      "è¹¦è¹¦è·³": 2632,
      "ä»ĸä»¬æĬĬ": 2633,
      "æĭĴ": 2634,
      "ä½ĨåĲİæĿ¥": 2635,
      "è·³æĿ¥è·³": 2636,
      "é©¶": 2637,
      "è¹¦è¹¦è·³è·³": 2638,
      "æķ²": 2639,
      "é«ĺé«ĺ": 2640,
      "éħ¸": 2641,
      "çĿ¡çĿĢ": 2642,
      "æĩ": 2643,
      "ä¹Łæĥ³": 2644,
      "é¡¿": 2645,
      "çļĦå°ıçĭĹ": 2646,
      "æĥĬåı¹": 2647,
      "åĽŀå®¶çļĦè·¯": 2648,
      "æ¢ħ": 2649,
      "èĮľ": 2650,
      "çģ¿çĥĤçļĦç¬ĳå®¹": 2651,
      "å¸Ĥ": 2652,
      "éĿŀå¸¸ä¼¤å¿ĥ": 2653,
      "å¸®åĬ©ä»ĸ": 2654,
      "æ©Ļ": 2655,
      "æĮ¥æīĭåĳĬåĪ«": 2656,
      "è·³æĿ¥è·³åİ»": 2657,
      "ä¸Ģè¾Ĩ": 2658,
      "éĹ®å¥¹": 2659,
      "ç»¿èī²": 2660,
      "å¥¹éĿŀå¸¸åħ´å¥ĭ": 2661,
      "åĽĽå¤Ħå¼łæľĽ": 2662,
      "é»ĳæļĹ": 2663,
      "æ¶Ĥ": 2664,
      "æĥ«": 2665,
      "åľ°è¯´": 2666,
      "æĤ²": 2667,
      "å©´": 2668,
      "ç¥ŀå¥ĩçļĦ": 2669,
      "çĸ²æĥ«": 2670,
      "æ»¡è¶³": 2671,
      "åĲ¬ä»İ": 2672,
      "åħ¶ä¸Ń": 2673,
      "»åŃĲ": 2674,
      "è¿Ī": 2675,
      "è¿ĩäºĨ": 2676,
      "äºĽæĹ¶åĢĻ": 2677,
      "è®©æĪĳä»¬": 2678,
      "åľ¨è¿ĻéĩĮ": 2679,
      "åıĤåĬł": 2680,
      "æłĳæŀĹ": 2681,
      "å¦Ĥæŀľä½ł": 2682,
      "çĹĽ": 2683,
      "åĬ±": 2684,
      "å¹¶åĲĳ": 2685,
      "äººçļĦ": 2686,
      "æĮĳ": 2687,
      "ä»ĸçļĦå¦Īå¦Īè¯´": 2688,
      "çļĦèį": 2689,
      "é¦Ĩ": 2690,
      "å¦Īå¦ĪåĴĮçĪ¸çĪ¸": 2691,
      "ç´¯äºĨ": 2692,
      "å©´åĦ¿": 2693,
      "èľĺèĽĽ": 2694,
      "éĵģ": 2695,
      "é¹¿": 2696,
      "è§£åĨ³": 2697,
      "ä»ĸåĲĳ": 2698,
      "®ä¸": 2699,
      "äºĨå¥¹çļĦ": 2700,
      "æ²®ä¸": 2701,
      "è£ħæ»¡": 2702,
      "åĳ¨åĽ´çļĦ": 2703,
      "æ²®ä¸§": 2704,
      "è¯ļ": 2705,
      "æ¶Īå¤±äºĨ": 2706,
      "å¥¹å¦Īå¦Īè¯´": 2707,
      "å°ıçļĦ": 2708,
      "å°±ä¼ļ": 2709,
      "å°±èĥ½": 2710,
      "è¿Ľè¡Į": 2711,
      "å®Įåħ¨": 2712,
      "èĭ¦": 2713,
      "å¥¹æĥ³è¦ģ": 2714,
      "æŀª": 2715,
      "åĩºåıĳ": 2716,
      "é¼ĵæİĮ": 2717,
      "å¥¹è§īå¾Ĺ": 2718,
      "å®ĥå¾Ī": 2719,
      "æĬ±ä½ı": 2720,
      "èģļ": 2721,
      "æľīäºĨä¸Ģä¸ªä¸»æĦı": 2722,
      "æĲ¬": 2723,
      "æľīä¸ĢæĿ¡": 2724,
      "ç»Ļå¦Īå¦Ī": 2725,
      "æ¡Ī": 2726,
      "çļĦè£ĻåŃĲ": 2727,
      "åĴĮä»ĸ": 2728,
      "æŀľæ±ģ": 2729,
      "æĶ¾è¿ĽäºĨ": 2730,
      "æĢĿèĢĥ": 2731,
      "æĭĴç»Ŀ": 2732,
      "å¥¹çĶ¨": 2733,
      "å¿«åľ°": 2734,
      "æĦŁåĪ°éĿŀå¸¸éļ¾è¿ĩ": 2735,
      "éĤ£ä¸ªçĶ·äºº": 2736,
      "æīĢæľīäººéĥ½": 2737,
      "åĩłä¸ª": 2738,
      "åĨľåľº": 2739,
      "åļ": 2740,
      "åĴĮæĪĳ": 2741,
      "å¥½ä¸»æĦı": 2742,
      "èµ°çĿĢ": 2743,
      "æ¯Ķå¦Ĥ": 2744,
      "éĩİé¤Ĳ": 2745,
      "éĢļè¿ĩ": 2746,
      "ç¾¤": 2747,
      "æĻļäºĽæĹ¶åĢĻ": 2748,
      "è£ħé¥°": 2749,
      "çļĦæĹ¥åŃĲ": 2750,
      "ç®ĢçĽ´ä¸įæķ¢çĽ¸ä¿¡": 2751,
      "åľ¨å¤©ç©ºä¸Ń": 2752,
      "å£³": 2753,
      "å¯¹ä¸įèµ·": 2754,
      "æ´Ĵ": 2755,
      "å¸¦åĽŀå®¶": 2756,
      "å°±åı¯ä»¥": 2757,
      "æ¾": 2758,
      "ä¸Ģä¼ļåĦ¿": 2759,
      "åľ°æĿ¿": 2760,
      "æ¸Ĳ": 2761,
      "å·¨åĵį": 2762,
      "åºĨç¥Ŀ": 2763,
      "æĽ²": 2764,
      "ç»ıè¿ĩ": 2765,
      "åĴĮå¥¹çļĦæľĭåıĭä»¬": 2766,
      "åı·": 2767,
      "æĥĳ": 2768,
      "å¦Īå¦ĪçļĦè¯Ŀ": 2769,
      "æĻĥ": 2770,
      "ä¿®å¥½": 2771,
      "æĲħ": 2772,
      "åĩºçİ°äºĨ": 2773,
      "ä¸Ģç§į": 2774,
      "ä½Ĩè¿Ļ": 2775,
      "äºĨä¸Ģæ®µ": 2776,
      "æİĴ": 2777,
      "æĸ°äºĭçī©": 2778,
      "ä¸ĢæĬĬ": 2779,
      "ä½Ĩè¿ĺæĺ¯": 2780,
      "åģ¶": 2781,
      "ç¾İå¦Ļ": 2782,
      "¥åĮĻ": 2783,
      "ä»ĸä»¬åĸľæ¬¢": 2784,
      "ä¸Ĭåİ»": 2785,
      "éĴ¥åĮĻ": 2786,
      "ãĢĤ\"": 2787,
      "æ¬¢è¿İ": 2788,
      "çľĭåĪ°ä¸Ģåıª": 2789,
      "åģļåĪ°": 2790,
      "éĺ²": 2791,
      "åĢŁ": 2792,
      "éĤ£è¾Ĩ": 2793,
      "è¾£": 2794,
      "èĥĸ": 2795,
      "ç»ĵæĿŁæĹ¶": 2796,
      "å®Ī": 2797,
      "æĭĽ": 2798,
      "ä¹Ĳè¶£": 2799,
      "ä¼¤å®³": 2800,
      "æ»ĳç¨": 2801,
      "çĶµå½±": 2802,
      "å¼Ģå§ĭåĵŃäºĨèµ·æĿ¥": 2803,
      "ç»ĥä¹ł": 2804,
      "æ»ĳç¨½": 2805,
      "å¥¹åĲ¬åĪ°": 2806,
      "è¯ģ": 2807,
      "å¯»æ±Ĥ": 2808,
      "åĪ°å¤ĸéĿ¢åİ»": 2809,
      "åľ¨æ£®æŀĹéĩĮ": 2810,
      "ä¸Ģä¸ªå°ı": 2811,
      "é©¬åħĭ": 2812,
      "å¿«ä¹ĲçļĦ": 2813,
      "éĶģ": 2814,
      "ä¸įè§ģäºĨ": 2815,
      "ä»ĸçļĦçĪ¸çĪ¸": 2816,
      "éĿ¢åīį": 2817,
      "æ»¡æĦı": 2818,
      "å®ĮæĪĲäºĨ": 2819,
      "æģ¶": 2820,
      "éĶħ": 2821,
      "éħª": 2822,
      "éĻ¢åŃĲéĩĮ": 2823,
      "ç¡¬å¸ģ": 2824,
      "å½ĵå¥¹ä»¬": 2825,
      "å¥¶éħª": 2826,
      "åĩĨå¤ĩå¥½": 2827,
      "æĬĬæīĭ": 2828,
      "è¿·èĹı": 2829,
      "æįīè¿·èĹı": 2830,
      "ä¼¼ä¹İ": 2831,
      "åı²": 2832,
      "å¥¹è¯´éģĵ": 2833,
      "éĤ£æł¹": 2834,
      "è¦ģåİ»": 2835,
      "è·ĳè¿ĩåİ»": 2836,
      "éĤ£æł·": 2837,
      "éĤ£ä¸ªäºº": 2838,
      "æĹłæ¯Ķ": 2839,
      "å¾Īé«ĺåħ´èĩªå·±": 2840,
      "æĪĲäºĨæľĢå¥½çļĦæľĭåıĭ": 2841,
      "ä¸įåĲĮçļĦ": 2842,
      "æ´¾å¯¹": 2843,
      "ç»ķçĿĢ": 2844,
      "é³Ħ": 2845,
      "çļĦçĶ·äºº": 2846,
      "å¥¹æĢ»æĺ¯": 2847,
      "ä¸ºå¥¹": 2848,
      "æıĲç±³çļĦå¦Īå¦Ī": 2849,
      "èģªæĺİçļĦ": 2850,
      "å°ıå¿ĥåľ°": 2851,
      "è¶³å¤Ł": 2852,
      "è¸ı": 2853,
      "ç¾İå¥½çļĦä¸Ģå¤©": 2854,
      "å¾Īå¥½": 2855,
      "è¿Ļåº§": 2856,
      "åıªè¦ģ": 2857,
      "ç²Ĺ": 2858,
      "éħ±": 2859,
      "ºåŃĲ": 2860,
      "ä»ĸéĿŀå¸¸åħ´å¥ĭ": 2861,
      "å¤§ç¬ĳ": 2862,
      "æ°´åĿĳ": 2863,
      "å¥¹åĸľæ¬¢åľ¨": 2864,
      "çĪ¶äº²": 2865,
      "ä»ĸéĿŀå¸¸åĸľæ¬¢": 2866,
      "èĩĤ": 2867,
      "ç¾½": 2868,
      "æĶ¹": 2869,
      "èĥ¶": 2870,
      "ä¸ĽæŀĹ": 2871,
      "ç¾İå¥½": 2872,
      "çĪ±ä¸½": 2873,
      "èį¯": 2874,
      "ä¸ĢåĪĩéĥ½": 2875,
      "åŃĺ": 2876,
      "å¹¶åľ¨": 2877,
      "æĢİä¹ĪäºĨ": 2878,
      "æ±łå¡ĺéĩĮ": 2879,
      "è§£éĩĬè¯´": 2880,
      "æĺĵ": 2881,
      "è¯ķè¯ķ": 2882,
      "çĿ¡çĿĢäºĨ": 2883,
      "å¥¥": 2884,
      "éĹ®ä»ĸ": 2885,
      "å°½ç®¡": 2886,
      "åı¸æľº": 2887,
      "æĤ²ä¼¤": 2888,
      "çļĦå®¶": 2889,
      "åĪĻ": 2890,
      "å¥¹çľĭåĪ°äºĨ": 2891,
      "å¤§äºĨ": 2892,
      "å¿«éĢŁ": 2893,
      "åħ¶ä»ĸåĬ¨çī©": 2894,
      "åı¶åŃĲ": 2895,
      "ç¾½æ¯Ľ": 2896,
      "ãĢĤâĢĺ": 2897,
      "çİ©å¥¹çļĦçİ©åħ·": 2898,
      "åĴĮå®¶äºº": 2899,
      "å¹¶æ²¡æľī": 2900,
      "åįĩ": 2901,
      "å·¥åħ·": 2902,
      "éĻĦè¿ĳçļĦ": 2903,
      "æĴŀ": 2904,
      "çļĦæĹ¶éĹ´": 2905,
      "å®ĥåľ¨": 2906,
      "æ°´æŀľ": 2907,
      "çĸ¼": 2908,
      "ä¸Ģå¼ł": 2909,
      "èİĵ": 2910,
      "æĬ¥": 2911,
      "æĪĳåĸľæ¬¢": 2912,
      "è§ģåĪ°": 2913,
      "éĤ£æĺ¯ä¸Ģåıª": 2914,
      "æľīä¸Ģä¸ªå°ıå¥³åŃ©åı«èİīèİī": 2915,
      "å°ĸåı«": 2916,
      "æľīå¤ļ": 2917,
      "åĽº": 2918,
      "æľīä¸Ģä¸ªå°ıçĶ·åŃ©": 2919,
      "çĮ©": 2920,
      "åŃ¤åįķ": 2921,
      "æ¾¡": 2922,
      "çĪ±ä¸½ä¸Ŀ": 2923,
      "å¨ģ": 2924,
      "æĿ°åħĭåĴĮ": 2925,
      "ç»ıå¸¸": 2926,
      "å¸ĮæľĽèĩªå·±": 2927,
      "äº²çĪ±çļĦ": 2928,
      "æĻ®éĢļ": 2929,
      "å¿µ": 2930,
      "å¼Ģè½¦": 2931,
      "åĳ½": 2932,
      "ç¿»": 2933,
      "ä»»åĬ¡": 2934,
      "çĽĴåŃĲéĩĮ": 2935,
      "äºĨæĳĩ": 2936,
      "å°ģ": 2937,
      "æľīä¸ĢäºĽ": 2938,
      "çĦ¶åĲİä»ĸä»¬": 2939,
      "çļĦå°ıåħĶåŃĲ": 2940,
      "çļĦèľ": 2941,
      "çľĭèµ·æĿ¥éĿŀå¸¸": 2942,
      "æĺ¯å¾Īéĩįè¦ģçļĦ": 2943,
      "å¤¹": 2944,
      "è¡«": 2945,
      "å°±åľ¨": 2946,
      "åĲĥå®Į": 2947,
      "æĬ±çĿĢ": 2948,
      "æĭľ": 2949,
      "æĽ´å¥½": 2950,
      "æģĲ": 2951,
      "æĪ´çĿĢ": 2952,
      "å¥¹éĹ®å¦Īå¦Ī": 2953,
      "åĬ¨çī©ä»¬": 2954,
      "ç½®": 2955,
      "çĶµè§Ĩ": 2956,
      "éĩĩ": 2957,
      "åĴĮå¥¹": 2958,
      "çīĻ": 2959,
      "å¹¶æĬĬå®ĥ": 2960,
      "è¡¬": 2961,
      "å¯»æ±Ĥå¸®åĬ©": 2962,
      "èĸ": 2963,
      "æľĹ": 2964,
      "åĴĮæľ¬": 2965,
      "æĬĸ": 2966,
      "æĪĳä»¬ä¸Ģèµ·": 2967,
      "æ¯ıå½ĵ": 2968,
      "æµĨ": 2969,
      "æĪĲä¸ºäºĨ": 2970,
      "æĢ¥": 2971,
      "æĦıæĢĿ": 2972,
      "æ¸´": 2973,
      "éľĢè¦ģå¸®åĬ©": 2974,
      "æĳĩäºĨæĳĩ": 2975,
      "äº«çĶ¨": 2976,
      "è·¯ä¸Ĭ": 2977,
      "éļıçĿĢ": 2978,
      "è½»è½»åľ°": 2979,
      "è¡¬è¡«": 2980,
      "è°·": 2981,
      "è¿Ļä¸ªçĶ·äºº": 2982,
      "éķ¿çļĦ": 2983,
      "ä¿®çĲĨ": 2984,
      "åħ½": 2985,
      "æĺ¯æĹ¶åĢĻ": 2986,
      "éģį": 2987,
      "å¥½åĲ§": 2988,
      "ä¸ºä»ĸ": 2989,
      "ä¸ĭåİ»": 2990,
      "åŃ¦åĪ°äºĨ": 2991,
      "æĿĲ": 2992,
      "æıĲéĨĴ": 2993,
      "éĻª": 2994,
      "å¸¦ä»ĸ": 2995,
      "æĳ©": 2996,
      "çħ§çīĩ": 2997,
      "è¸¢": 2998,
      "æ¤ħåŃĲ": 2999,
      "å¾Īéĩįè¦ģ": 3000,
      "æ²¡äºĭ": 3001,
      "å¾®ç¬ĳäºĨ": 3002,
      "åı¦ä¸Ģä¸ª": 3003,
      "èį¡ç§ĭåįĥ": 3004,
      "åŀĭ": 3005,
      "æī¾åĪ°ä¸Ģä¸ª": 3006,
      "è£ħæ»¡äºĨ": 3007,
      "ç¼¸": 3008,
      "å±ķç¤ºç»Ļ": 3009,
      "çļĦä¸ĢåĪĩ": 3010,
      "å¥¹åĲĳ": 3011,
      "å°ıçĨĬ": 3012,
      "æĦŁåĪ°éªĦåĤ²": 3013,
      "çĭ¬èĩª": 3014,
      "ç²īèī²": 3015,
      "ä»ĸåı¯ä»¥": 3016,
      "æľīä¸Ģä¸ªå¤§": 3017,
      "æĮĸ": 3018,
      "è¿Ľåħ¥": 3019,
      "åºĬä¸Ĭ": 3020,
      "å¥¹çļĦçĪ¸çĪ¸": 3021,
      "åģļä¸ĢäºĽ": 3022,
      "æĺİæ²»": 3023,
      "å®³ç¾ŀ": 3024,
      "èĻİ": 3025,
      "åİ»äºĨåķĨåºĹ": 3026,
      "ä¸īæĺİæ²»": 3027,
      "å®ĿèĹı": 3028,
      "èĭıè¥¿": 3029,
      "è¿Ļæ£µæłĳ": 3030,
      "ä¸įçĶ¨": 3031,
      "çĪª": 3032,
      "ä¸ĭéĽ¨": 3033,
      "çĭ¼": 3034,
      "ç¯®": 3035,
      "ä»ĸéĿŀå¸¸é«ĺåħ´": 3036,
      "ä»ĸä»¬æĥ³": 3037,
      "åİ»æİ¢ç´¢": 3038,
      "é«ĺåħ´åľ°": 3039,
      "æĻº": 3040,
      "æ¯ıä¸ªäºº": 3041,
      "æ¸©æŁĶ": 3042,
      "å¥¹åıĳçİ°": 3043,
      "è¿ŀ": 3044,
      "åĩ¶": 3045,
      "éĥ½æĺ¯": 3046,
      "çĶ¨æĿ¥": 3047,
      "é£ŀè¡Į": 3048,
      "èĴĤç±³çļĦå°ıçĶ·åŃ©": 3049,
      "åĪĨéĴŁ": 3050,
      "æķ´æ´ģ": 3051,
      "äºĨä»ĸçļĦ": 3052,
      "æľīä¸Ģè¾Ĩ": 3053,
      "ä¸Ģçľĭ": 3054,
      "æł¡": 3055,
      "è®°ä½ı": 3056,
      "æĿ¯åŃĲ": 3057,
      "è¿Ļä»¶": 3058,
      "ä½Ĩæľīä¸Ģå¤©": 3059,
      "æľīä¸Ģä¸ªçĶ·åŃ©": 3060,
      "æı¡": 3061,
      "åĽ°éļ¾": 3062,
      "çļĦèįī": 3063,
      "æĦŁåĪ°å¼Ģå¿ĥ": 3064,
      "æĢ§": 3065,
      "éĤ£åıªçĮ«": 3066,
      "ä¸įä¹ħ": 3067,
      "çĶŁæĹ¥": 3068,
      "å¤ĸå¥Ĺ": 3069,
      "çıł": 3070,
      "é¦Ļèķ": 3071,
      "é¦Ļèķī": 3072,
      "åĩºäºĨä¸Ģä¸ª": 3073,
      "å¯¹å¥¹": 3074,
      "å¸¦å¥¹": 3075,
      "æ°´ä¸Ń": 3076,
      "è¡¨ç¤º": 3077,
      "çĳŀ": 3078,
      "īåŃĲ": 3079,
      "å®½": 3080,
      "ä»ĸä»¬ä¼ļ": 3081,
      "å¦Īå¦ĪçļĦ": 3082,
      "çĦ¶åĲİä»ĸ": 3083,
      "æ£ĴäºĨ": 3084,
      "ĿçĽĸ": 3085,
      "åĪ°ä¸Ģä¸ª": 3086,
      "è¿Ļæł¹": 3087,
      "åĿ¡": 3088,
      "çļĦçĮ«": 3089,
      "è®¾": 3090,
      "å¹¶è¯´éģĵ": 3091,
      "äºĨä¸Ģæ¬¡": 3092,
      "ä¸ºèĩªå·±çļĦ": 3093,
      "èĥ½æī¾åĪ°": 3094,
      "éĢı": 3095,
      "è£¹": 3096,
      "æ¡ĥ": 3097,
      "çīĽå¥¶": 3098,
      "æĭĽåĳ¼": 3099,
      "ty": 3100,
      "äºĨä¸ª": 3101,
      "å¸®å¥¹": 3102,
      "ç´§å¼ł": 3103,
      "æį¢": 3104,
      "æĪĲäºĨå¥½æľĭåıĭ": 3105,
      "çļĦæĹ¶åħī": 3106,
      "åĪĿ": 3107,
      "åľ°éĩĮ": 3108,
      "æŃ£ç¡®": 3109,
      "å¥¶çīĽ": 3110,
      "å¿ĺè®°äºĨ": 3111,
      "çĪ·çĪ·": 3112,
      "æĥ³çĿĢ": 3113,
      "è¿Ļåıªå°ıé¸Ł": 3114,
      "æĹ©ä¸Ĭ": 3115,
      "è´Ŀæĭī": 3116,
      "ä»İåīįæľīä¸Ģä¸ªåĲįåı«": 3117,
      "éĴĪ": 3118,
      "çĶµè¯Ŀ": 3119,
      "æµĨæŀľ": 3120,
      "å¹¿": 3121,
      "éĢĲ": 3122,
      "åĵ¨": 3123,
      "çī©åĵģ": 3124,
      "ç¥ŀç§ĺ": 3125,
      "çĥŃçĪ±": 3126,
      "èŃ¦å¯Ł": 3127,
      "åı¤": 3128,
      "çĤ¹å¿ĥ": 3129,
      "æīĭéĩĮ": 3130,
      "å½¼å¾Ĺ": 3131,
      "æĪĺ": 3132,
      "å°ıæĹ¶": 3133,
      "æ¬¢ç¬ĳ": 3134,
      "èī²å½©": 3135,
      "ç©¿ä¸ĬäºĨ": 3136,
      "è¡¨æ¼Ķ": 3137,
      "æ´ŀéĩĮ": 3138,
      "æĺİäº®çļĦ": 3139,
      "åĽ½çİĭ": 3140,
      "ä»ĸçľĭåĪ°äºĨ": 3141,
      "ä¸įè¿ĩ": 3142,
      "éĿ¢åĮħ": 3143,
      "çĮª": 3144,
      "å¸®åĬ©å¥¹": 3145,
      "ä½ľåĵģ": 3146,
      "çº¦ç¿°å°¼": 3147,
      "èĥİ": 3148,
      "æĤ¦": 3149,
      "ä¼¸æīĭ": 3150,
      "èĴĤå§ĨåĴĮ": 3151,
      "èĵĿèī²": 3152,
      "åĽ°æĥĳ": 3153,
      "è¿ľå¤Ħ": 3154,
      "çĸļ": 3155,
      "æĮĩçĿĢ": 3156,
      "ç«Ļåľ¨": 3157,
      "èľ¡ç¬Ķ": 3158,
      "èĪªè¡Į": 3159,
      "ç£": 3160,
      "èĻ½": 3161,
      "ä¼´": 3162,
      "è®¿": 3163,
      "åģľäºĨä¸ĭæĿ¥": 3164,
      "è¢ĭåŃĲ": 3165,
      "å¥¹éĿŀå¸¸å¼Ģå¿ĥ": 3166,
      "ä¸ºäºĨ": 3167,
      "èĬĴ": 3168,
      "ç§°": 3169,
      "åĲ¬è¯Ŀ": 3170,
      "ç®Ń": 3171,
      "æħ°": 3172,
      "èĥĮ": 3173,
      "è¡¨çİ°": 3174,
      "æ¸©æļĸçļĦ": 3175,
      "å¾Īåħ´å¥ĭ": 3176,
      "éĿŀå¸¸å®³æĢķ": 3177,
      "åĲĮæĹ¶": 3178,
      "æ°¸è¿ľä¸įä¼ļ": 3179,
      "èµ¢å¾Ĺ": 3180,
      "çľ¨": 3181,
      "èµ°åĪ°å¤ĸéĿ¢": 3182,
      "çĦ¶åĲİå¥¹": 3183,
      "ä½ıçĿĢ": 3184,
      "èĢģèĻİ": 3185,
      "æ´»åĬ¨": 3186,
      "é³Ħé±¼": 3187,
      "å¥½å¥½": 3188,
      "ä½łæĺ¯": 3189,
      "ä»İåīįæľīä¸Ģä¸ªåı«": 3190,
      "åįĹ": 3191,
      "èĴĤå§ĨçļĦå°ıçĶ·åŃ©": 3192,
      "æľĢåĸľæ¬¢çļĦçİ©åħ·": 3193,
      "¤åŃĲ": 3194,
      "Ŀ´èĿ¶": 3195,
      "äºĨå¾Īå¤ļ": 3196,
      "åıĶ": 3197,
      "å¿į": 3198,
      "åĴĮçİ©èĢį": 3199,
      "éĤ£é¢Ĺ": 3200,
      "è®¨": 3201,
      "åİ»åķĨåºĹ": 3202,
      "åĢ¼": 3203,
      "çļĦèĿ´èĿ¶": 3204,
      "æĻļé¥Ń": 3205,
      "æ¯įäº²": 3206,
      "åĴ¯åĴ¯": 3207,
      "éĹŃä¸Ĭ": 3208,
      "ä¸Ģå£°": 3209,
      "å¥¹åı¯ä»¥": 3210,
      "ä¸įä½ı": 3211,
      "åĭºåŃĲ": 3212,
      "æŃ£åľ¨åħ¬åĽŃéĩĮ": 3213,
      "åģľæŃ¢äºĨ": 3214,
      "çļĦåĨĴéĻ©": 3215,
      "ä¸Ģçīĩ": 3216,
      "åľ¨èįīåľ°ä¸Ĭ": 3217,
      "ä»ĸä»¬çľĭåĪ°": 3218,
      "å®ĥä¼ļ": 3219,
      "æĭĮ": 3220,
      "åį§": 3221,
      "åº§å¤§": 3222,
      "æľīçĤ¹å®³æĢķ": 3223,
      "æĲħæĭĮ": 3224,
      "èĻ½çĦ¶": 3225,
      "²Į": 3226,
      "è²Į": 3227,
      "æĪĳåľ¨": 3228,
      "éĽ¾": 3229,
      "åħīèĬĴ": 3230,
      "ç»ĵæĿŁåĲİ": 3231,
      "çªĹå¤ĸ": 3232,
      "å¯Įæľī": 3233,
      "èİ·": 3234,
      "éĿŀå¸¸æĦŁæ¿Ģ": 3235,
      "èĢ³": 3236,
      "åı¯éĿł": 3237,
      "åįİ": 3238,
      "ç»ĵæŀľ": 3239,
      "èĦ±": 3240,
      "å¤±æľĽ": 3241,
      "å©ļ": 3242,
      "ç³Łç³ķ": 3243,
      "èĸĦ": 3244,
      "å¤§çĭĹ": 3245,
      "è¿ĽæĿ¥": 3246,
      "å²¸": 3247,
      "åĨ°ç®±": 3248,
      "åıĳçĶŁäºĨä»Ģä¹Īäºĭ": 3249,
      "çĪªåŃĲ": 3250,
      "ee": 3251,
      "ä»ĸä»¬å¼Ģå§ĭ": 3252,
      "åİħ": 3253,
      "æĥ³æ³ķ": 3254,
      "æĸĹ": 3255,
      "æ¯¯": 3256,
      "èĩªçĶ±": 3257,
      "æľĢæ£ĴçļĦ": 3258,
      "åİ¨æĪ¿éĩĮ": 3259,
      "é½¿": 3260,
      "ç»Ļå¦Īå¦Īçľĭ": 3261,
      "çļĦåŃ©åŃĲ": 3262,
      "å®ł": 3263,
      "æĽ¼": 3264,
      "è¿ĺæľī": 3265,
      "å®ĿçŁ³": 3266,
      "æĭįæīĭ": 3267,
      "¢å¤į": 3268,
      "ä»ĸåıĳçİ°": 3269,
      "ä¹ĺ": 3270,
      "å¾Īéķ¿": 3271,
      "çĤ¹çĤ¹å¤´": 3272,
      "çŃĴ": 3273,
      "é¼»åŃĲ": 3274,
      "æĹłèģĬ": 3275,
      "æģ¢å¤į": 3276,
      "ç½ĲåŃĲ": 3277,
      "éĹŃä¸Ĭçľ¼çĿĽ": 3278,
      "åį§å®¤": 3279,
      "çļĦçĪ¸çĪ¸": 3280,
      "ä»ĸçŁ¥éģĵèĩªå·±": 3281,
      "éĹ¹": 3282,
      "åĩ»": 3283,
      "è·ĳæŃ¥": 3284,
      "éĴ®": 3285,
      "éº»": 3286,
      "ä¸ĭéĿ¢": 3287,
      "åĬ¨çī©åĽŃ": 3288,
      "åĪ°å¤Ħå¯»æī¾": 3289,
      "è§ĴèĲ½": 3290,
      "çļĦé¸Ł": 3291,
      "å¥¹éĿŀå¸¸é«ĺåħ´": 3292,
      "è¿Ļçīĩ": 3293,
      "æĿ¥åĪ°äºĨ": 3294,
      "éĺ¿": 3295,
      "åıĺå¾ĹéĿŀå¸¸": 3296,
      "çİĭåŃĲ": 3297,
      "èµ¶ç´§": 3298,
      "æ¨¡": 3299,
      "åı£è¢ĭéĩĮ": 3300,
      "ä»Ļå¥³": 3301,
      "æ··åĲĪ": 3302,
      "å°ıéķĩ": 3303,
      "æĥ³äºĨä¸Ģä¼ļåĦ¿": 3304,
      "èĩ´": 3305,
      "æĦŁåĪ°å¿«ä¹Ĳ": 3306,
      "ä¸ĭæ¬¡": 3307,
      "å¯¹ä»ĸ": 3308,
      "æĸ°çİ©åħ·": 3309,
      "éĽħ": 3310,
      "ï¼Į'": 3311,
      "ä½ľä¸º": 3312,
      "åŃ¦æł¡": 3313,
      "å¾Īé«ĺåħ´èĥ½": 3314,
      "ä¾Ľ": 3315,
      "å¿ĺäºĨ": 3316,
      "çĥ¤ç®±": 3317,
      "æľĪ": 3318,
      "å¥¹æľīä¸Ģä¸ª": 3319,
      "æŃ£åľ¨çİ©": 3320,
      "åĿĲä¸ĭæĿ¥": 3321,
      "¡èĲĦ": 3322,
      "æµĭéĩı": 3323,
      "åħŃ": 3324,
      "åĽŀåºĶ": 3325,
      "åıĺæĪĲ": 3326,
      "çĹħ": 3327,
      "æ³¥åľŁ": 3328,
      "åĩłä¸ªå°ıæĹ¶": 3329,
      "ä»ĸä»¬ä¸Ģèµ·çİ©": 3330,
      "éĤ£ä¸Ģå¤©": 3331,
      "åıĳåĩºäºĨ": 3332,
      "é¸½åŃĲ": 3333,
      "çļĦèĽ": 3334,
      "éĤ£ä¸ªå£°éŁ³": 3335,
      "åıĺå¾ĹæĽ´åĬł": 3336,
      "éĵĥ": 3337,
      "æĲŃ": 3338,
      "è¿·è·¯": 3339,
      "å¦¹å¦¹": 3340,
      "ä¸¥": 3341,
      "è¿Ļå¤ª": 3342,
      "å¾Ĺè¶ĬæĿ¥è¶Ĭ": 3343,
      "åĢ¾": 3344,
      "åĲ¬èµ·æĿ¥": 3345,
      "æľ¨å¤´": 3346,
      "æī¾åĪ°äºĨä¸Ģä¸ª": 3347,
      "å¹³éĿĻ": 3348,
      "ä¸įå¥½": 3349,
      "æĺİå¤©": 3350,
      "èº«ä½ĵ": 3351,
      "åĲĵåĿıäºĨ": 3352,
      "åĹ¡": 3353,
      "´å°": 3354,
      "ä»ĸè·ĳ": 3355,
      "å°´å°": 3356,
      "å°ıé±¼": 3357,
      "ç»ĻæĪĳ": 3358,
      "è®©ä»ĸä»¬": 3359,
      "æŁł": 3360,
      "å±±åĿ¡": 3361,
      "åı£æ°Ķ": 3362,
      "ä¿®å¥½äºĨ": 3363,
      "èĵĿèī²çļĦ": 3364,
      "å¹¸ç¦ıçļĦ": 3365,
      "å°´å°¬": 3366,
      "å¿Ĺ": 3367,
      "åĴĮå®ĥ": 3368,
      "è¡¡": 3369,
      "å¤ªå¤ª": 3370,
      "éľĩ": 3371,
      "èŁ¹": 3372,
      "åı¤èĢģ": 3373,
      "æĿĤ": 3374,
      "çĪĨ": 3375,
      "è®©ä½ł": 3376,
      "é£İåĲ¹": 3377,
      "ä½ıåľ¨ä¸Ģä¸ª": 3378,
      "åĮ»éĻ¢": 3379,
      "åľ°çľĭçĿĢ": 3380,
      "ä¸Ģèµ·åľ¨": 3381,
      "è°ĥ": 3382,
      "çļĦèĭ": 3383,
      "çļĦèĵĿ": 3384,
      "æµ·æ´ĭ": 3385,
      "äº«åıĹçĿĢ": 3386,
      "åľ°æĿ¿ä¸Ĭ": 3387,
      "èł": 3388,
      "åĴĮä½ł": 3389,
      "çīµ": 3390,
      "ä½Ĩèİīèİī": 3391,
      "ä¸ĢåıªåĲįåı«": 3392,
      "æľŁå¾ħ": 3393,
      "åĪº": 3394,
      "å¤©æ°Ķ": 3395,
      "ä»ĸä»¬ä¿©": 3396,
      "èī¾æĭī": 3397,
      "ç§įåŃĲ": 3398,
      "èįīåľ°": 3399,
      "ĥèŁ¹": 3400,
      "åıį": 3401,
      "ä¸įåĬ¨": 3402,
      "åħ¨åĬĽ": 3403,
      "èĥľ": 3404,
      "å®ĮæĪĲåĲİ": 3405,
      "wee": 3406,
      "èĩŃ": 3407,
      "çİ©èĢįåĴĮ": 3408,
      "æĦŁåĪ°éĿŀå¸¸æĥĬè®¶": 3409,
      "æľīè¶£çļĦäºĭæĥħ": 3410,
      "æĦıè¯ĨåĪ°èĩªå·±": 3411,
      "ç¤¼è²Į": 3412,
      "æ²Ļåıĳ": 3413,
      "åĽŀåĪ°å®¶æĹ¶": 3414,
      "¬èıľ": 3415,
      "ģè®¸": 3416,
      "åħģè®¸": 3417,
      "ä¸Ģä¸ªäºº": 3418,
      "åĴĮä¸Ģä¸ª": 3419,
      "åĸľæĤ¦": 3420,
      "èµ°è¿ĽäºĨ": 3421,
      "å¸®ä»ĸ": 3422,
      "éĴ»": 3423,
      "çĲĨè§£": 3424,
      "èħ¿": 3425,
      "èīĺèĪ¹": 3426,
      "åŁº": 3427,
      "æ·±åĲ¸": 3428,
      "åĤ»": 3429,
      "æĦ¿æľĽ": 3430,
      "å¹³è¡¡": 3431,
      "äºĨä¸Ģåľº": 3432,
      "è£Ļ": 3433,
      "è¿Ļæĺ¯ä¸ª": 3434,
      "äºīåĲµ": 3435,
      "æµ·è±ļ": 3436,
      "æĽ¼è¿ª": 3437,
      "çļĦå¦Īå¦Īè¯´": 3438,
      "è¿Ļä¸Ģå¤©": 3439,
      "éĿŀå¸¸éļ¾è¿ĩ": 3440,
      "æĪĳæĺ¯": 3441,
      "èİīèİīè¯´éģĵ": 3442,
      "åĨįè§ģ": 3443,
      "å²©": 3444,
      "åĩłåĪĨéĴŁ": 3445,
      "èħ°": 3446,
      "ç´«èī²": 3447,
      "éª¨å¤´": 3448,
      "åįĹçĵľ": 3449,
      "æĪĳèĥ½": 3450,
      "çĪ½": 3451,
      "åħĭåĬĽ": 3452,
      "æŃĮåĶ±": 3453,
      "åĩłä¹İ": 3454,
      "ç¼©": 3455,
      "å¥ĩæĢªçļĦ": 3456,
      "äºĶå½©": 3457,
      "å·§åħĭåĬĽ": 3458,
      "å¤©é¹ħ": 3459,
      "çĿģ": 3460,
      "ä¸ĬåºĬ": 3461,
      "å¹¶æĬĬ": 3462,
      "åĳĢ": 3463,
      "è¿Ļä¸ªä¸ĸçķĮ": 3464,
      "åĬĽéĩı": 3465,
      "åĽ¾çīĩ": 3466,
      "é²ģ": 3467,
      "å¥¹ä»¬ä¸Ģèµ·": 3468,
      "æĪ´ä¸Ĭ": 3469,
      "éĥ¨åĪĨ": 3470,
      "æºª": 3471,
      "ä¸Ģé¢Ĺ": 3472,
      "ä»ĸè¯ķåĽ¾": 3473,
      "ä¼ĺ": 3474,
      "æĸĩ": 3475,
      "ä½łéľĢè¦ģ": 3476,
      "å¿«äºĨ": 3477,
      "åĽ¾æ¡Ī": 3478,
      "å±±é¡¶": 3479,
      "æ¯Ľæ¯Ľ": 3480,
      "ä¸¢äºĨ": 3481,
      "åŀ«": 3482,
      "ç¥¨": 3483,
      "ä¸¤åıª": 3484,
      "æĭ¼åĽ¾": 3485,
      "Twee": 3486,
      "çļĦæķħäºĭ": 3487,
      "åľ¨å¥¹çļĦ": 3488,
      "éĤ£æ£µæłĳ": 3489,
      "å¤§åĸĬ": 3490,
      "æ¬¢ä¹Ĳ": 3491,
      "çĦ¶èĢĮ": 3492,
      "å¯¹çļĦ": 3493,
      "çŁ¥è¯Ĩ": 3494,
      "èĪĶ": 3495,
      "èĦĳ": 3496,
      "ç¨į": 3497,
      "åĩºåİ»çİ©": 3498,
      "ç»¿èī²çļĦ": 3499,
      "çī¹æ®ĬçļĦ": 3500,
      "å¼¯": 3501,
      "æĬĺ": 3502,
      "æĪĳçŁ¥éģĵ": 3503,
      "èī³": 3504,
      "èµ°è¿ĩæĿ¥": 3505,
      "åĨ³å¿ĥ": 3506,
      "éĺħ": 3507,
      "æģ©": 3508,
      "çľĭèµ·æĿ¥åĥı": 3509,
      "æħ¢è·ĳ": 3510,
      "ä»ĺ": 3511,
      "ä»ĸå¦Īå¦Ī": 3512,
      "æĦ§": 3513,
      "ä»ĸä»¬è¯´": 3514,
      "ä½Ĩåį´": 3515,
      "å¯Ĵ": 3516,
      "æ¡¥": 3517,
      "åŃ¤çĭ¬": 3518,
      "ä»ĸæ³¨æĦıåĪ°": 3519,
      "æłı": 3520,
      "åįĸ": 3521,
      "å£ģ": 3522,
      "æĿ¾äºĨä¸Ģåı£æ°Ķ": 3523,
      "ff": 3524,
      "å¥¹ä¸īå²ģäºĨ": 3525,
      "åľ¨ä»ĸ": 3526,
      "æĪĳä»¬çļĦ": 3527,
      "åģļçļĦ": 3528,
      "åģļäºĨä¸Ģä¸ª": 3529,
      "èĴĤç±³çļĦå¦Īå¦Ī": 3530,
      "åĮ¹": 3531,
      "èĭ±": 3532,
      "èĦĨ": 3533,
      "ä¹¦æŀ¶": 3534,
      "å¼Ģå§ĭåĵŃæ³£": 3535,
      "æĭľè®¿": 3536,
      "å®ģ": 3537,
      "çİ©æ¸¸æĪı": 3538,
      "æĦŁåĪ°æĥĬè®¶": 3539,
      "è¾Ľ": 3540,
      "æľ¬ä¹¦": 3541,
      "èī¾ç±³ä¸½": 3542,
      "å¤ľæĻļ": 3543,
      "uff": 3544,
      "ª¬": 3545,
      "æª¬": 3546,
      "ä»£": 3547,
      "åĴª": 3548,
      "èµ·åĪĿ": 3549,
      "èİīèİīéĿŀå¸¸å¼Ģå¿ĥ": 3550,
      "åıĪå¼Ģå¿ĥ": 3551,
      "æłĳä¸ĭ": 3552,
      "åı£åĵ¨": 3553,
      "æľīè¶£çļĦä¸ľè¥¿": 3554,
      "å®ŀçİ°": 3555,
      "æŁłæª¬": 3556,
      "ä¸įæĺİçĻ½": 3557,
      "èİīèİīéĿŀå¸¸é«ĺåħ´": 3558,
      "æĥ³çŁ¥éģĵ": 3559,
      "åİ»åĨĴéĻ©": 3560,
      "éĢĢ": 3561,
      "å¸®åĬ©åĪ«äºº": 3562,
      "ï¼ŁâĢĿâĢľ": 3563,
      "åĽŀå®¶çļĦæĹ¶åĢĻ": 3564,
      "æ¼Ķå¥ı": 3565,
      "æŁĶè½¯çļĦ": 3566,
      "¡åŃĲ": 3567,
      "ĮçĶŁ": 3568,
      "åħį": 3569,
      "ä»ĸä»¬çİ©å¾Ĺå¾Īå¼Ģå¿ĥ": 3570,
      "çİ©ä»ĸçļĦçİ©åħ·": 3571,
      "çİ©åģ¶": 3572,
      "çİ©æįīè¿·èĹı": 3573,
      "åĽłæŃ¤": 3574,
      "å¥ĩå¦Ļ": 3575,
      "æĮīéĴ®": 3576,
      "éĨĴæĿ¥æĹ¶": 3577,
      "äºĨåıĪ": 3578,
      "ç»Ĵ": 3579,
      "æĥ³è±¡": 3580,
      "åĨįæĿ¥": 3581,
      "åıĺå¾Ĺè¶ĬæĿ¥è¶Ĭ": 3582,
      "éģĩåĪ°": 3583,
      "æłĳæŀĿä¸Ĭ": 3584,
      "é»Ħèī²çļĦ": 3585,
      "éĽªäºº": 3586,
      "æ£įåŃĲ": 3587,
      "ä½©": 3588,
      "è¯¾": 3589,
      "éĿŀå¸¸æľī": 3590,
      "èµ°è¿ĩåİ»": 3591,
      "æĪĳä»¬éľĢè¦ģ": 3592,
      "çĮĽ": 3593,
      "è´§": 3594,
      "ç©ºæ°Ķ": 3595,
      "æīĢä»¥ä»ĸ": 3596,
      "æ©±": 3597,
      "ç¾İåĳ³çļĦé£Łçī©": 3598,
      "åįĪé¤Ĳ": 3599,
      "èĦ¸ä¸Ĭå¸¦çĿĢ": 3600,
      "å²©çŁ³": 3601,
      "å¾Īå¤§": 3602,
      "å¹¶æī¿è¯º": 3603,
      "ä½łçľŁ": 3604,
      "çĲ´": 3605,
      "æ¼«": 3606,
      "æ¢¦æĥ³": 3607,
      "æīĵæī«": 3608,
      "çļĦæŃĮ": 3609,
      "å°ıçĿ¡": 3610,
      "ä¸Ģä¸ªçī¹åĪ«çļĦ": 3611,
      "æĦŁåĪ°é«ĺåħ´": 3612,
      "å½ķ": 3613,
      "å¥¹çļĦçĪ¶æ¯į": 3614,
      "ä¸ĭå±±": 3615,
      "çº·": 3616,
      "è±Ĩ": 3617,
      "èĩªå·±çļĦçİ©åħ·": 3618,
      "å´": 3619,
      "ç±»": 3620,
      "éĻĮçĶŁ": 3621,
      "éĽĦ": 3622,
      "æ²¡æľīåĲ¬": 3623,
      "çĥĪ": 3624,
      "ä¼¸åĩº": 3625,
      "è§¦ç¢°": 3626,
      "å°ıåŃ©": 3627,
      "åİļ": 3628,
      "ç±³èİī": 3629,
      "ç«Ł": 3630,
      "åĸľæ¬¢åľ¨å¤ĸéĿ¢": 3631,
      "åĽŀåĪ°äºĨå®¶": 3632,
      "æĦŁåıĹåĪ°": 3633,
      "æ°¸è¿ľä¸įä¼ļå¿ĺè®°": 3634,
      "å¿įä¸įä½ı": 3635,
      "Ĩåĵ": 3636,
      "å¥¹æľīä¸Ģ": 3637,
      "å°ıè·¯": 3638,
      "è¿Ļç§į": 3639,
      "åĴĨåĵ": 3640,
      "çĿĢæīĭ": 3641,
      "ç¬¼": 3642,
      "çĶ¨æīĭ": 3643,
      "å®ĮåĲİ": 3644,
      "èĽĩ": 3645,
      "åĭĩæķ¢çļĦ": 3646,
      "é¢ľåħŃ": 3647,
      "æ¶Īéĺ²": 3648,
      "éĢĤåĲĪ": 3649,
      "åľ¨å¤ĸéĿ¢çİ©èĢį": 3650,
      "äºĶé¢ľåħŃ": 3651,
      "åĴĨåĵ®": 3652,
      "Fl": 3653,
      "æ½": 3654,
      "è¿Ļå°±æĺ¯": 3655,
      "ç¬¨": 3656,
      "åıĭå¥½çļĦ": 3657,
      "å¯¼": 3658,
      "è°ħ": 3659,
      "æĪĲäºĨæľĭåıĭ": 3660,
      "éĢĥè·ĳ": 3661,
      "å¢Ļä¸Ĭ": 3662,
      "åĩ¯èĴĤ": 3663,
      "éģĩåĪ°äºĨä¸Ģåıª": 3664,
      "éĺħè¯»": 3665,
      "ä¸ĵ": 3666,
      "åħ¹": 3667,
      "è¿Ļè®©": 3668,
      "ä¸įåºĶè¯¥": 3669,
      "èİīèİīçľĭåĪ°": 3670,
      "æłª": 3671,
      "å¥¹çļĦå°ı": 3672,
      "éķ¿æ¤ħ": 3673,
      "è¢«åĽ°": 3674,
      "åĵįäº®": 3675,
      "å¼ĹéĽ·": 3676,
      "éĿŀå¸¸çĶŁæ°Ķ": 3677,
      "å§ĳ": 3678,
      "äºĨä¸ĢæĿ¡": 3679,
      "ä¹Łåĸľæ¬¢": 3680,
      "çľŁæŃ£": 3681,
      "è¿ľç¦»": 3682,
      "éħį": 3683,
      "åĿļæŀľ": 3684,
      "å«": 3685,
      "å¥¹å¾®ç¬ĳçĿĢ": 3686,
      "å·«": 3687,
      "å¾ĹåĪ°äºĨ": 3688,
      "äºĨä¸Ģéĺµ": 3689,
      "ä½łå¿ħé¡»": 3690,
      "è½¦éĩĮ": 3691,
      "éĺĶ": 3692,
      "å®īæħ°": 3693,
      "æĬ±æŃī": 3694,
      "åĽ´çĿĢ": 3695,
      "ä¸ĢçĽ´åľ¨": 3696,
      "éº¦åħĭæĸ¯": 3697,
      "æĸĳçĤ¹": 3698,
      "çļĦæľĭåıĭä»¬": 3699,
      "ä»ĸå¿ħé¡»": 3700,
      "ä¼ŀ": 3701,
      "åĨµ": 3702,
      "å¹¶åĨ³å®ļ": 3703,
      "è¦ģæ±Ĥ": 3704,
      "è·³åĪ°": 3705,
      "è·³äºĨèµ·æĿ¥": 3706,
      "èī¾èİī": 3707,
      "é£İæļ´": 3708,
      "åĭĩæ°Ķ": 3709,
      "èĮ¶": 3710,
      "æĤĦ": 3711,
      "æ¥ļ": 3712,
      "æĩĴ": 3713,
      "¬ī": 3714,
      "å¬ī": 3715,
      "çļĦä¸»äºº": 3716,
      "ä»ĸæŃ£åľ¨": 3717,
      "å¥¹æ³¨æĦıåĪ°": 3718,
      "çĽ¯": 3719,
      "åºĦ": 3720,
      "åıĪä¸Ģæ¬¡": 3721,
      "åĪĨäº«äºĨ": 3722,
      "æ¹ĸè¾¹": 3723,
      "åĽŀåĪ°å®¶åĲİ": 3724,
      "é½Ĳ": 3725,
      "çļĦèĽĭ": 3726,
      "å¸ķ": 3727,
      "å¤§çĨĬ": 3728,
      "æĥ³çľĭçľĭ": 3729,
      "åĲĳå¥¹": 3730,
      "é£ŀåĪ°": 3731,
      "å°¼èİ«": 3732,
      "ä¹Ķä¼Ĭ": 3733,
      "æĤ¨": 3734,
      "æ¡ĮåŃĲ": 3735,
      "æ¯ĽèĮ¸èĮ¸çļĦ": 3736,
      "æĭĴç»ĿäºĨ": 3737,
      "ä¸ĬåºĬçĿ¡è§ī": 3738,
      "å¥¹åĳĬè¯ī": 3739,
      "åĸĤ": 3740,
      "æĬĬçĲĥ": 3741,
      "äºĨä¸Ģä¸ªå¤§": 3742,
      "ä¸ĢäºĽçī¹åĪ«çļĦä¸ľè¥¿": 3743,
      "è§īå¾Ĺèĩªå·±": 3744,
      "åıĺå¾ĹæĽ´": 3745,
      "åĻª": 3746,
      "æķ°åŃĹ": 3747,
      "è½®æµģ": 3748,
      "å®¢åİħ": 3749,
      "äºĨä¸ĢåĿĹ": 3750,
      "æ²¡èĥ½": 3751,
      "åģľä¸ĭ": 3752,
      "éħĴ": 3753,
      "è´Ŀå£³": 3754,
      "åİŁè°ħ": 3755,
      "éĢģç»Ļ": 3756,
      "èĳ¡èĲĦ": 3757,
      "æľºåĻ¨äºº": 3758,
      "çıŃå°¼": 3759,
      "ä»ħ": 3760,
      "è¯į": 3761,
      "æĿİ": 3762,
      "æĦŁåĪ°æĹłæ¯Ķ": 3763,
      "é©¾": 3764,
      "æĶ¾æĿ¾": 3765,
      "è¿ĻåıªçĮ«": 3766,
      "æ¯Ľçº¿": 3767,
      "éĤ£å¤©æĻļäºĽæĹ¶åĢĻ": 3768,
      "è¿½éĢĲ": 3769,
      "èŀĥèŁ¹": 3770,
      "èł¢": 3771,
      "«çĳ": 3772,
      "å¥¹åıªæľīä¸īå²ģ": 3773,
      "çİ«çĳ": 3774,
      "æĺ¯ä¸į": 3775,
      "å°ıé¸ŃåŃĲ": 3776,
      "è¿ĻæĹ¶": 3777,
      "éĿŀå¸¸æ¿ĢåĬ¨": 3778,
      "çĽĽ": 3779,
      "èĬ±çĵ¶": 3780,
      "æĶ¾åĽŀ": 3781,
      "ä»¥åīįä»İæľªè§ģè¿ĩ": 3782,
      "å¥ĸåĬ±": 3783,
      "æĿĳåºĦ": 3784,
      "çİ«çĳ°": 3785,
      "äºķ": 3786,
      "çļĦé£Łçī©": 3787,
      "ä¸Ģåº§": 3788,
      "è¯¯": 3789,
      "åľ¨åħ¬åĽŃ": 3790,
      "åı«çĿĢ": 3791,
      "æ²ĻåŃĲ": 3792,
      "æŀķ": 3793,
      "è·ĳåĪ°å¤ĸéĿ¢": 3794,
      "ä¸Ģå¤©ç»ĵæĿŁæĹ¶": 3795,
      "æĳĩæĻĥ": 3796,
      "åº¦è¿ĩäºĨä¸Ģæ®µ": 3797,
      "å®Įç¾İçļĦ": 3798,
      "äºĨè§£": 3799,
      "å°ıèĪ¹": 3800,
      "å¿§": 3801,
      "ç±³èĬ±": 3802,
      "ä»İåīįæľīä¸Ģ": 3803,
      "åĲĳä»ĸ": 3804,
      "é¡º": 3805,
      "èº«ä¸Ĭ": 3806,
      "ç®±åŃĲéĩĮ": 3807,
      "åĪ°è¾¾äºĨ": 3808,
      "å°½åı¯èĥ½": 3809,
      "åı¦ä¸Ģè¾¹": 3810,
      "è¡Ĺéģĵ": 3811,
      "çĪĨç±³èĬ±": 3812,
      "uffy": 3813,
      "æī§": 3814,
      "çİ©äºĨä¸Ģæķ´å¤©": 3815,
      "æĹ¶åĪ»": 3816,
      "åĲĥæİī": 3817,
      "ä¸ŃçļĦ": 3818,
      "æħ¨": 3819,
      "åĵŃæ³£": 3820,
      "æ¸ħæ¥ļ": 3821,
      "æį¡èµ·æĿ¥": 3822,
      "éĤ£å¤©æĻļä¸Ĭ": 3823,
      "Fluffy": 3824,
      "å¥¹åĴĮ": 3825,
      "ä»ĸä»¬åı¯ä»¥": 3826,
      "æĪĳåıªæĺ¯": 3827,
      "æ±¤å§Ĩè¯´": 3828,
      "è®°æľ¬": 3829,
      "å·¨å¤§": 3830,
      "èĨĿçĽĸ": 3831,
      "·æħ¨": 3832,
      "äºĨå®ĥ": 3833,
      "äºĨæĥ³": 3834,
      "æľīä¸¤ä¸ª": 3835,
      "è¿ĻæĬĬ": 3836,
      "æĹ¶èµ·": 3837,
      "éģĵæŃī": 3838,
      "å±Ģ": 3839,
      "æħ·æħ¨": 3840,
      "åĮħè£¹": 3841,
      "ä¸Ģæ£µ": 3842,
      "éĿŀå¸¸çī¹åĪ«çļĦ": 3843,
      "ä»İæĿ¥": 3844,
      "åİ»å¯»æī¾": 3845,
      "ä½łä¼ļ": 3846,
      "æ³¼": 3847,
      "åį«": 3848,
      "è·ĳå¾Ĺ": 3849,
      "è£Ĥ": 3850,
      "æ¸¸è¡Į": 3851,
      "è¿ĻåıªçĭĹ": 3852,
      "éªĮ": 3853,
      "æĥĬè®¶åľ°": 3854,
      "æİ¥åıĹ": 3855,
      "å°½åħ¨åĬĽ": 3856,
      "è§Ĥçľĭ": 3857,
      "éĴ±åĮħ": 3858,
      "éº»çĥ¦": 3859,
      "æĬ«": 3860,
      "æĪĳè¦ģ": 3861,
      "ç»Ļå®ĥ": 3862,
      "å¯¹èĩªå·±": 3863,
      "å°±ä¸įä¼ļ": 3864,
      "éĺ´": 3865,
      "æĸ¹å¼ı": 3866,
      "ä»İéĤ£æĹ¶èµ·": 3867,
      "çľŁçļĦå¾Ī": 3868,
      "ä½łèĥ½å¸®æĪĳ": 3869,
      "ĥåľ": 3870,
      "å¥¹æŃ£åľ¨": 3871,
      "æĪĳå¾Ī": 3872,
      "èĬ¬": 3873,
      "æīĭå¥Ĺ": 3874,
      "æ¯Ķå°Ķ": 3875,
      "èĢģå¤ªå¤ª": 3876,
      "å®īåħ¨çļĦ": 3877,
      "ä¹Ķæ²»": 3878,
      "æŁ¥çľĭ": 3879,
      "åŀĥåľ": 3880,
      "é²ľèī³": 3881,
      "å®łçī©": 3882,
      "åŀĥåľ¾": 3883,
      "ä¸Ģç¬ĳ": 3884,
      "æĦļ": 3885,
      "äºĨä¸Ģå¤§": 3886,
      "åį·": 3887,
      "æıĲä¾Ľ": 3888,
      "çĥĽ": 3889,
      "çĲĨåıĳ": 3890,
      "å®Ŀè´Ŀ": 3891,
      "æĦŁåĪ°å¾ĪæĥĬè®¶": 3892,
      "å°Ĩå®ĥ": 3893,
      "çļ®çī¹": 3894,
      "åº¦è¿ĩäºĨæĦīå¿«": 3895,
      "èĶ¬èıľ": 3896,
      "æĶ¹åıĺ": 3897,
      "ļåŃĲ": 3898,
      "å¥¹ä¹Ł": 3899,
      "å¥¹çļĦæĸ°": 3900,
      "éĢĶ": 3901,
      "çľĭåĪ°äºĨè®¸å¤ļ": 3902,
      "èľĤèľľ": 3903,
      "çĶľç¾İ": 3904,
      "é¡¹éĵ¾": 3905,
      "å§Ĳå§Ĳ": 3906,
      "é«ĺäºĨ": 3907,
      "çŃĳ": 3908,
      "ä¿Ŀè¯ģ": 3909,
      "æĳĩäºĨæĳĩå¤´": 3910,
      "ly": 3911,
      "çļĦæ¸¸æĪı": 3912,
      "ä»ĸéĹ®å¦Īå¦Ī": 3913,
      "èİ±": 3914,
      "çĶ²": 3915,
      "æĬĢ": 3916,
      "åı¯æĺ¯": 3917,
      "è·ĳåĽŀå®¶": 3918,
      "æ£Ģ": 3919,
      "çĦ¶åĲİè¯´": 3920,
      "åĴĮæľĭåıĭä»¬ä¸Ģèµ·": 3921,
      "åĨħçĸļ": 3922,
      "æĿĸ": 3923,
      "æĥ³çİ©": 3924,
      "æľīä¸Ģåıªåı«": 3925,
      "æĿ¥è¯´å¤ª": 3926,
      "æ´Ľæĭī": 3927,
      "å®ģéĿĻ": 3928,
      "æĦļèł¢": 3929,
      "ä¸Ģè·¯": 3930,
      "ä»ĸæĦŁåĪ°éĿŀå¸¸": 3931,
      "å°ıäºĨ": 3932,
      "éĿŀå¸¸å¥½å¥ĩ": 3933,
      "ï¼ģ\"": 3934,
      "æĬĬä»ĸ": 3935,
      "æ¯ıå¤©æĹ©æĻ¨": 3936,
      "èºģ": 3937,
      "çİ©å¾Ĺå¼Ģå¿ĥ": 3938,
      "åĩłå¤©": 3939,
      "è¯ļå®ŀ": 3940,
      "åĻªéŁ³": 3941,
      "æ£ĢæŁ¥": 3942,
      "ä¸Ģå¤§": 3943,
      "ä¸Ģä¸ªå°ıçĶ·åŃ©": 3944,
      "åĴĮèİīèİī": 3945,
      "æĪĳå¾Īé«ĺåħ´": 3946,
      "å¾Ĺå¥½": 3947,
      "çļĦè´": 3948,
      "æľīä¸Ģä¸ªåĲįåı«æıĲç±³çļĦå°ıçĶ·åŃ©": 3949,
      "æľīè¶£äºĨ": 3950,
      "æĪĳåı¯ä»¥å¸®ä½ł": 3951,
      "åĹ¨": 3952,
      "æ¡ĮåŃĲä¸Ĭ": 3953,
      "åĴ¬äºĨä¸Ģåı£": 3954,
      "äºļåİĨ": 3955,
      "è¹¦è¹¦è·³è·³åľ°": 3956,
      "é«ĺé«ĺçļĦ": 3957,
      "è¿Īåħĭ": 3958,
      "æł·åŃĲ": 3959,
      "æĥħåĨµ": 3960,
      "éĴ¢": 3961,
      "çĪ¬ä¸ĬäºĨ": 3962,
      "å®īåħ¨åľ°": 3963,
      "åĵŃäºĨèµ·æĿ¥": 3964,
      "æīĢä»¥å¥¹": 3965,
      "çļĦäººä»¬": 3966,
      "æ´Ĺæ¾¡": 3967,
      "ç¾İå¥½çļĦæĹ¶åħī": 3968,
      "èģļä¼ļ": 3969,
      "å¯ĴåĨ·": 3970,
      "çļĦèĽĭç³ķ": 3971,
      "å¥¹åıĳçİ°äºĨä¸Ģ": 3972,
      "å¿Ĩ": 3973,
      "å¿ĥæĥħ": 3974,
      "è¿Ļä¸ªäºº": 3975,
      "çĪ¬åĪ°": 3976,
      "æĺŁæľŁ": 3977,
      "æīĺæ¯Ķ": 3978,
      "èŀį": 3979,
      "è§¦æĳ¸": 3980,
      "åĳ¨åĽ´çļĦä¸ĸçķĮ": 3981,
      "æŀķå¤´": 3982,
      "ä»ĸä¹Ł": 3983,
      "ä»ĸéĿŀå¸¸å¼Ģå¿ĥ": 3984,
      "æľīä¸ª": 3985,
      "å¤§æµ·": 3986,
      "éĻį": 3987,
      "çĽ´åĪ°å®ĥ": 3988,
      "èĻĳ": 3989,
      "é¾Ł": 3990,
      "æĳĶåĢĴäºĨ": 3991,
      "çļĦéĹ¨": 3992,
      "å°¤": 3993,
      "æĪĳä¸įçŁ¥éģĵ": 3994,
      "åĩĮ": 3995,
      "çĦ¶åĲİå¼Ģå§ĭ": 3996,
      "è¿Ľå±ĭ": 3997,
      "åŃ¦åĪ°äºĨä¸Ģä¸ª": 3998,
      "æİ¨è½¦": 3999,
      "æĻ¯è±¡": 4000,
      "æĳ©æīĺ": 4001,
      "im": 4002,
      "å®ĥå¤ª": 4003,
      "æĪĳæĿ¥": 4004,
      "åİĮ": 4005,
      "å¥¹çļĦæīĭ": 4006,
      "åıĳäº®": 4007,
      "çĭĤ": 4008,
      "æĸ°ä¸ľè¥¿": 4009,
      "çī¹åĪ«çļĦäºĭæĥħ": 4010,
      "éĢŁåº¦": 4011,
      "ç¼ĵ": 4012,
      "çķĻåľ¨": 4013,
      "åĲĪéĢĤ": 4014,
      "æĽ´åĬłå°ıå¿ĥ": 4015,
      "åİ»åħ¬åĽŃçİ©": 4016,
      "ç¯®åŃĲ": 4017,
      "æĬĵä½ıå®ĥ": 4018,
      "ä»¤äººåħ´å¥ĭ": 4019,
      "è¡Ĺä¸Ĭ": 4020,
      "æĳ©æīĺè½¦": 4021,
      "¦é¹": 4022,
      "å°ĳ": 4023,
      "æĥ³èµ·": 4024,
      "åįļ": 4025,
      "é¹¦é¹": 4026,
      "åĪ°è¾¾æĹ¶": 4027,
      "åĽĽå¤Ħå¯»æī¾": 4028,
      "é¡¶ç«¯": 4029,
      "éĹ»èµ·æĿ¥": 4030,
      "çļĦèĦ¸": 4031,
      "é¹¦é¹ī": 4032,
      "¡èĽ": 4033,
      "å°ıä¸ĳ": 4034,
      "ä¸įèĪĴæľį": 4035,
      "çī¡èĽ": 4036,
      "éĽķ": 4037,
      "çľĭè§ģäºĨä¸Ģåıª": 4038,
      "æĬ¬èµ·": 4039,
      "çī¡èĽİ": 4040,
      "çĻ": 4041,
      "éĩįäºĨ": 4042,
      "é¥±": 4043,
      "ä»İåīįæľīä¸Ģä¸ªå°ıçĶ·åŃ©": 4044,
      "éĽ¨ä¸Ń": 4045,
      "ç¼Ŀ": 4046,
      "å°½åĬĽ": 4047,
      "å¥¹è¿ħéĢŁ": 4048,
      "æĿĨ": 4049,
      "å¤§åĪ©": 4050,
      "æĥ³åĪ°äºĨä¸Ģä¸ª": 4051,
      "ä»ĸçļĦçĪ¶æ¯į": 4052,
      "æĦıå¤§åĪ©": 4053,
      "çŃīçĿĢ": 4054,
      "é¢ľæĸĻ": 4055,
      "åľ¨åħ¬åĽŃéĩĮçİ©èĢį": 4056,
      "ä¸Ģä»½": 4057,
      "å¥¹éĹ®éģĵ": 4058,
      "æĺ¯æľĭåıĭ": 4059,
      "å°ıå°ıçļĦ": 4060,
      "åľ°æ¯¯": 4061,
      "çĶ¨åĬĽ": 4062,
      "æĻķ": 4063,
      "æīĢæľīäºº": 4064,
      "è¿Ļæĺ¯ä»Ģä¹Ī": 4065,
      "éĤ£éĩĮæĹ¶": 4066,
      "ç¡®å®ļ": 4067,
      "ç¡®å®ŀ": 4068,
      "éĶĻè¯¯": 4069,
      "æµ´ç¼¸": 4070,
      "çļĦèĵĿèī²": 4071,
      "it": 4072,
      "äºĨåı£æ°Ķ": 4073,
      "å¥¹æĺİçĻ½äºĨ": 4074,
      "å¥¹æ¯ıå¤©éĥ½": 4075,
      "åĴĮæľĭåıĭ": 4076,
      "åĴĮåħ¶ä»ĸ": 4077,
      "æĥ³åİ»": 4078,
      "æĭĸ": 4079,
      "è§Ħ": 4080,
      "é«ĺå¤§çļĦ": 4081,
      "å¯¹èĩªå·±çļĦ": 4082,
      "é£ŀåĲĳ": 4083,
      "åħ¶ä»ĸçļĦ": 4084,
      "å®¹æĺĵ": 4085,
      "æį¡èµ·äºĨ": 4086,
      "æĪĲåĬŁäºĨ": 4087,
      "ä»ĵ": 4088,
      "çļĦæ°´": 4089,
      "ä»ĸä¸ĢçĽ´": 4090,
      "å¥¹æĦŁåĪ°éĿŀå¸¸": 4091,
      "èµ·æĿ¥äºĨ": 4092,
      "è·³çĿĢ": 4093,
      "è¡ĮæĿİ": 4094,
      "æħ§": 4095,
      "é²įæ¯Ķ": 4096,
      "æīĢæľīçļĦæľĭåıĭ": 4097,
      "è¡¨æĥħ": 4098,
      "åĵįå£°": 4099,
      "çĭ¬ç«ĭ": 4100,
      "éķľåŃĲ": 4101,
      "çĶ°éĩİéĩĮ": 4102,
      "æ©Ļèī²": 4103,
      "çīĻé½¿": 4104,
      "ä»ĸçľĭåĪ°äºĨä¸Ģ": 4105,
      "âĢĿãĢĤ": 4106,
      "å¹¶æĦŁè°¢äºĨ": 4107,
      "æĬĬå¥¹": 4108,
      "çŁ¿": 4109,
      "å¯¹æĸ¹": 4110,
      "å¤ªæ£ĴäºĨ": 4111,
      "åĳĬè¯īäºĨ": 4112,
      "çľĭè§ģäºĨä¸Ģ": 4113,
      "çĭ¬çī¹": 4114,
      "åıĮæīĭ": 4115,
      "éľ²åĩºäºĨå¾®ç¬ĳ": 4116,
      "æĦıå¤§åĪ©éĿ¢": 4117,
      "äºĨå¾Īä¹ħ": 4118,
      "æĪĳä¸įæĥ³": 4119,
      "åĨ»": 4120,
      "æĬĬçİ©åħ·": 4121,
      "å®īè¿ª": 4122,
      "æĭ¿èµ°": 4123,
      "åĽ¾ä¹¦": 4124,
      "æ¢³": 4125,
      "æĬĵèµ·": 4126,
      "å·²ç»ıå¤ª": 4127,
      "èĤī": 4128,
      "æ²Ļæ»©": 4129,
      "å¾Ĺå¾Īé«ĺ": 4130,
      "åľ¨å¤ĸéĿ¢çİ©": 4131,
      "æ©¡çļ®": 4132,
      "çļ±": 4133,
      "çļĦæĦŁè§ī": 4134,
      "ä»ĸè¿ħéĢŁ": 4135,
      "æīŃ": 4136,
      "ä»ĸä»¬äºĴçĽ¸": 4137,
      "å®ĥå¼Ģå§ĭ": 4138,
      "åī§": 4139,
      "è¿ĩä¸ĬäºĨ": 4140,
      "æ°ĳ": 4141,
      "èµ°åĬ¨": 4142,
      "åģļä¸Ģä¸ª": 4143,
      "èĻļ": 4144,
      "éľ²è¥¿çļĦå°ıå¥³åŃ©": 4145,
      "èģĬå¤©": 4146,
      "æķ´å¤©éĥ½åľ¨": 4147,
      "æīĵå¼ĢéĹ¨": 4148,
      "èī¾ç±³èİī": 4149,
      "æ¢¯åŃĲ": 4150,
      "çķĻä¸ĭ": 4151,
      "åĽŀæĿ¥äºĨ": 4152,
      "æ²³è¾¹": 4153,
      "åĽŀå®¶çļĦè·¯ä¸Ĭ": 4154,
      "èĦĨå¼±": 4155,
      "ä¸ĺ": 4156,
      "å¾Īéļ¾": 4157,
      "è¿Ļå¼ł": 4158,
      "åľ°çĶŁæ´»": 4159,
      "éģ¿": 4160,
      "èĩªç§": 4161,
      "é£ŀæĿ¥": 4162,
      "ä½Ĩæĺ¯åĲİæĿ¥": 4163,
      "æİ¨çī¹": 4164,
      "åĨĻçĿĢ": 4165,
      "åģĩè£ħèĩªå·±": 4166,
      "åıĹä¼¤äºĨ": 4167,
      "åĢ¾åĲ¬": 4168,
      "ħç¬Ķ": 4169,
      "å¥¹æľĢåĸľæ¬¢çļĦ": 4170,
      "åħµ": 4171,
      "é¸¦": 4172,
      "æĻ¶": 4173,
      "çĮľ": 4174,
      "å¸®åĬ©äºĨ": 4175,
      "éĶ¤åŃĲ": 4176,
      "éĵħç¬Ķ": 4177,
      "æĪ´å¤«": 4178,
      "æłĳæŀĹéĩĮ": 4179,
      "çļĦèĭ¹æŀľ": 4180,
      "æī¶": 4181,
      "è·³è¿Ľ": 4182,
      "èĬ±çĶŁ": 4183,
      "æıĲç±³åĸľæ¬¢": 4184,
      "é¢Ĩ": 4185,
      "åĮĨ": 4186,
      "çģ«å±±": 4187,
      "åıĳçĶŁäºĨä¸Ģä»¶": 4188,
      "èĤ©": 4189,
      "è§ĨçĿĢ": 4190,
      "é¡¹åľĪ": 4191,
      "æ¸´æľĽ": 4192,
      "å¬īæĪı": 4193,
      "äºļåİĨåħĭæĸ¯": 4194,
      "çļĦä¸Ģä¸ª": 4195,
      "èİīæĭī": 4196,
      "æĪ³": 4197,
      "å¥¹çļĦåĲįåŃĹåı«": 4198,
      "å½ĵå®ĥ": 4199,
      "ä¹Łä¸į": 4200,
      "å®īåħ¨äºĨ": 4201,
      "åĨįä¹Łä¸įä¼ļ": 4202,
      "è¿·è·¯äºĨ": 4203,
      "my": 4204,
      "çļĦæĸ°": 4205,
      "äºĨè¿Ľåİ»": 4206,
      "å¥¹çŁ¥éģĵèĩªå·±": 4207,
      "ä¸įå·²": 4208,
      "å¥½åĩłä¸ªå°ıæĹ¶": 4209,
      "åģļäºĽ": 4210,
      "è·³ä¸Ĭ": 4211,
      "æīĵäºĨä¸ª": 4212,
      "åĬªåĬĽå·¥ä½ľ": 4213,
      "å¥ĩæĢªçļĦäºĭæĥħ": 4214,
      "ä¸¾åĬŀ": 4215,
      "äºĶé¢ľåħŃèī²çļĦ": 4216,
      "ä»ĸåıĪ": 4217,
      "åħĦ": 4218,
      "çİ©çĿĢ": 4219,
      "è¿ĺèĥ½": 4220,
      "åŁĭ": 4221,
      "åĩºåİ»æķ£æŃ¥": 4222,
      "æĵħ": 4223,
      "èİīèİīåĴĮå¥¹çļĦå¦Īå¦Ī": 4224,
      "ä¼ĳæģ¯ä¸Ģä¸ĭ": 4225,
      "æĮĳéĢī": 4226,
      "æĻºæħ§": 4227,
      "æ¯Ľæ¯ĽèĻ«": 4228,
      "©¹": 4229,
      "æ¦": 4230,
      "è©¹": 4231,
      "å¾Īåĭĩæķ¢": 4232,
      "èĢ¸": 4233,
      "ä»İåīįæľīä¸Ģä½į": 4234,
      "è°¦": 4235,
      "æ¸Ķ": 4236,
      "éĻ·": 4237,
      "é£ŀåİ»": 4238,
      "çĮİ": 4239,
      "æīĵæĭĽåĳ¼": 4240,
      "è¿ĻåıªçĨĬ": 4241,
      "ç´¢èı²": 4242,
      "æ¯Ľå·¾": 4243,
      "å¼Ħå¾Ĺ": 4244,
      "è®¤è¯Ĩ": 4245,
      "æļ´é£İ": 4246,
      "åĢ¼å¾Ĺ": 4247,
      "å¾Īéķ¿æĹ¶éĹ´": 4248,
      "æľĪäº®": 4249,
      "å°¤åħ¶": 4250,
      "æĵħéķ¿": 4251,
      "çļĦçĨĬ": 4252,
      "ä»ĸä»¬çĶ¨": 4253,
      "ä»İæłĳä¸Ĭ": 4254,
      "åıªèĥ½": 4255,
      "èµ°åİ»": 4256,
      "æĪĳä»¬åºĶè¯¥": 4257,
      "åĽłä¸ºä»ĸä»¬": 4258,
      "çļĦèĤ": 4259,
      "æĭįäºĨ": 4260,
      "çĽ¯çĿĢ": 4261,
      "å¿ł": 4262,
      "ç»´": 4263,
      "æĬ½": 4264,
      "æĬļ": 4265,
      "æĢĴ": 4266,
      "åĬ¨äºĨ": 4267,
      "åĬ¨ä½ľ": 4268,
      "è¿Ļä¸ªå°ıå¥³åŃ©": 4269,
      "åĲ¬äºĨ": 4270,
      "èİīèİīçļĦæľĭåıĭ": 4271,
      "å¹²ä»Ģä¹Ī": 4272,
      "è¿Ļæł·åģļ": 4273,
      "èººåľ¨": 4274,
      "åĩºåıĳäºĨ": 4275,
      "åħ½åĮ»": 4276,
      "¤çº·": 4277,
      "åħ°": 4278,
      "æĺ¯å¤ļä¹Ī": 4279,
      "å®ĥæĥ³": 4280,
      "éĤ£æĬĬ": 4281,
      "èİīèİīæĺİçĻ½äºĨ": 4282,
      "ä¼ļåıĳçĶŁ": 4283,
      "æĬĬå¥¹çļĦ": 4284,
      "çĦ¶åĲİç»§ç»Ń": 4285,
      "çĲª": 4286,
      "æĭ¿åĪ°": 4287,
      "çļĦèº": 4288,
      "æĻļäºĨ": 4289,
      "ç¼¤çº·": 4290,
      "çĬ¯": 4291,
      "æĪ·å¤ĸ": 4292,
      "æĬ¬å¤´çľĭçĿĢ": 4293,
      "ä¹Įé¾Ł": 4294,
      "è°·ä»ĵ": 4295,
      "èĭ±éĽĦ": 4296,
      "ä¸¹": 4297,
      "çļĦåĬ¨çī©": 4298,
      "å¥¹çľĭåĪ°äºĨä¸Ģ": 4299,
      "æīĳ": 4300,
      "çİ©ä»ĸçļĦ": 4301,
      "åĴĮçĪ¸çĪ¸": 4302,
      "åİī": 4303,
      "å¥½äºĭ": 4304,
      "å¯Ħ": 4305,
      "åĩºéĹ¨": 4306,
      "åħ¬åĽŃæĹ¶": 4307,
      "èİīèİīåĴĮæľ¬": 4308,
      "æŁ¥çĲĨ": 4309,
      "èĪĴéĢĤçļĦ": 4310,
      "çĽĺåŃĲ": 4311,
      "åļı": 4312,
      "ä»ĸè¿ĺ": 4313,
      "å¤ı": 4314,
      "éĿŀå¸¸åĭĩæķ¢": 4315,
      "æĬ¢": 4316,
      "èİīèİīéĿŀå¸¸åħ´å¥ĭ": 4317,
      "ä½Ĩä¹Ł": 4318,
      "é£ĺ": 4319,
      "é£ŀè¿ĩ": 4320,
      "è¡Įèµ°": 4321,
      "å¾®ç¬ĳçĿĢè¯´éģĵ": 4322,
      "éļıæĹ¶": 4323,
      "åĪ°å¤Ħéĥ½æĺ¯": 4324,
      "æĴĴ": 4325,
      "çļĦèº«": 4326,
      "ä»¿": 4327,
      "å¾Īæľī": 4328,
      "ä¼Ļ": 4329,
      "å¿ĥçļĦ": 4330,
      "èİīèİīåĸľæ¬¢": 4331,
      "å¹¶ä¸įæĺ¯": 4332,
      "æĥ³è¦ģå¸®åĬ©": 4333,
      "è§īå¾Ĺè¿Ļ": 4334,
      "åĲīä»ĸ": 4335,
      "æ£Ĵæ£Ĵ": 4336,
      "å±ķç¤ºäºĨ": 4337,
      "åĲĵåĪ°äºĨ": 4338,
      "çĹĴ": 4339,
      "éĹªéĹªåıĳäº®": 4340,
      "èľ¡çĥĽ": 4341,
      "æ£Ĵæ£Ĵç³ĸ": 4342,
      "ĺæ°Ķ": 4343,
      "å¾ĪçĶŁæ°Ķ": 4344,
      "ä¸ºæŃ¢": 4345,
      "çľĭåĪ°ä»ĸ": 4346,
      "çľĭåĪ°äºĨä¸ĢäºĽ": 4347,
      "æĪĳä»¬ä¼ļ": 4348,
      "è®©èĩªå·±": 4349,
      "é¢¤": 4350,
      "åĳĬè¯īå¦Īå¦Ī": 4351,
      "çĻ½èī²": 4352,
      "èº«åĲİ": 4353,
      "æľīä¸Ģä¸ªåı«æıĲç±³çļĦå°ıçĶ·åŃ©": 4354,
      "å®īåħ¨çļĦåľ°æĸ¹": 4355,
      "è½¬è¿ĩ": 4356,
      "å·¨äºº": 4357,
      "äº¤è°Ī": 4358,
      "èµ°åĪ°åĵªéĩĮ": 4359,
      "å¸ĥæľĹ": 4360,
      "éĴ»çŁ³": 4361,
      "çŀ": 4362,
      "çļĤ": 4363,
      "çļĦæłĳ": 4364,
      "ä¸Ģä¸ªæĭ¥æĬ±": 4365,
      "ä»ĸä»¬ç»§ç»Ń": 4366,
      "æĹĹ": 4367,
      "å®ĥåıĪ": 4368,
      "èīĩ": 4369,
      "ä¹Łèĥ½": 4370,
      "åĲĥæİīäºĨ": 4371,
      "åħīæ»ĳ": 4372,
      "æĶ¾åĪ°": 4373,
      "æ¸¸ä¹Ĳ": 4374,
      "è´Ń": 4375,
      "ç«ł": 4376,
      "è¿Ļæĺ¯ä¸Ģ": 4377,
      "åºĹä¸»": 4378,
      "æĹ¥åŃĲ": 4379,
      "èŃ¦åĳĬ": 4380,
      "è®¾è®¡": 4381,
      "åħ±": 4382,
      "æľīäºĨ": 4383,
      "æľīçĿĢ": 4384,
      "å¾Īå¥½å¥ĩ": 4385,
      "äºĨä¸Ģå¼ł": 4386,
      "ä½łä¸įèĥ½": 4387,
      "è¶ħ": 4388,
      "æĭ¿åĩºäºĨ": 4389,
      "çĨŁ": 4390,
      "æĦŁè§īèĩªå·±": 4391,
      "ç¥·": 4392,
      "ä¸¤ä½į": 4393,
      "åĩĨå¤ĩå¥½äºĨ": 4394,
      "è½»æĿ¾": 4395,
      "èĢĮæĦŁåĪ°èĩªè±ª": 4396,
      "åĺ´éĩĮ": 4397,
      "å¤¹åħĭ": 4398,
      "è§ĴèĲ½éĩĮ": 4399,
      "èĩªç§ģ": 4400,
      "¹é¼ł": 4401,
      "ä»ĸæľīä¸Ģ": 4402,
      "å¥¹åİ»": 4403,
      "åħľ": 4404,
      "æľīæĹ¶": 4405,
      "æĺ¯æľĢå¥½çļĦæľĭåıĭ": 4406,
      "ä»ĸä»¬æĢ»æĺ¯": 4407,
      "åīĳ": 4408,
      "é¼¹é¼ł": 4409,
      "æķĳäºĨ": 4410,
      "è¿«ä¸įåıĬå¾ħåľ°æĥ³è¦ģ": 4411,
      "éĹªéĹªåıĳåħīçļĦ": 4412,
      "åĸľæ¬¢çİ©ä»ĸçļĦçİ©åħ·": 4413,
      "éľ²åĩºäºĨç¬ĳå®¹": 4414,
      "ä¹Įé¸¦": 4415,
      "çļĦæĸ¹å¼ı": 4416,
      "èĥ¶æ°´": 4417,
      "æ¶Īéĺ²åĳĺ": 4418,
      "çļĦçĶ»": 4419,
      "åĲ¼": 4420,
      "è¿ĻæľµèĬ±": 4421,
      "åĴĮä¸ĢäºĽ": 4422,
      "èİīèİīåľ¨": 4423,
      "æĸĵ": 4424,
      "å¥½åķĬ": 4425,
      "çº³": 4426,
      "é£ŀèµ°": 4427,
      "åıĳçİ°éĩĮéĿ¢": 4428,
      "åĢ¦": 4429,
      "æĸ¹æ³ķ": 4430,
      "å£«åħµ": 4431,
      "å»ºçŃĳ": 4432,
      "å¥¹çľĭåĪ°ä¸Ģåıª": 4433,
      "éªĳå£«": 4434,
      "æĸĳæĸĵ": 4435,
      "ä½łåľ¨åģļä»Ģä¹Ī": 4436,
      "ä»ĸåĸľæ¬¢åľ¨": 4437,
      "åı¼": 4438,
      "å¥¹è¿ĺ": 4439,
      "å¥¹æĭ¿èµ·": 4440,
      "å¾Īæ£ĴçļĦ": 4441,
      "éĿŀå¸¸æ¼Ĥäº®": 4442,
      "éģ¥": 4443,
      "åĸľæ¬¢æİ¢ç´¢": 4444,
      "ä¹Łåı¯ä»¥": 4445,
      "å¤´ä¸Ĭ": 4446,
      "åģļçļĦäºĭæĥħ": 4447,
      "çĤī": 4448,
      "åĲĳå¦Īå¦Ī": 4449,
      "çļĦèĻ": 4450,
      "éĵĽ": 4451,
      "åº§ä½į": 4452,
      "æĮ¥åĬ¨": 4453,
      "å¥ĩæĢªçļĦä¸ľè¥¿": 4454,
      "åį³å°Ĩ": 4455,
      "è®¤çľŁ": 4456,
      "æ¹¿äºĨ": 4457,
      "å¹´è½»": 4458,
      "è´µçļĦ": 4459,
      "éĵĥéĵĽ": 4460,
      "ä»ĸæĺİçĻ½äºĨ": 4461,
      "æľ¯": 4462,
      "å°Ħ": 4463,
      "åľ¨åĵªéĩĮ": 4464,
      "æĺ¯ä»İ": 4465,
      "å¼Ģå¿ĥäºĨ": 4466,
      "åĨ³å®ļåİ»": 4467,
      "çĥĺ": 4468,
      "æ»¡æĺ¯": 4469,
      "æ·ĺæ°Ķ": 4470,
      "ç²ĺ": 4471,
      "çıĬ": 4472,
      "çģ«ç®Ń": 4473,
      "è½¬åľĪ": 4474,
      "ä»İåīįæľīä¸Ģä¸ªçĶ·åŃ©": 4475,
      "æ±ĤåĬ©": 4476,
      "æīĺå°¼": 4477,
      "è¸©": 4478,
      "åĸ·åļı": 4479,
      "ä½łæĥ³åĴĮæĪĳ": 4480,
      "çĮ©çĮ©": 4481,
      "ä¸ĭéĽ¨äºĨ": 4482,
      "åĩłåĪĨéĴŁåĲİ": 4483,
      "åĽ¾ä¹¦é¦Ĩ": 4484,
      "æĪĳéľĢè¦ģ": 4485,
      "ä¸Ĭä¸ĭ": 4486,
      "æ³ª": 4487,
      "ä»Ģä¹Īéĥ½": 4488,
      "å®īå¦®": 4489,
      "éĤ£ä¸ªçĶ·åŃ©": 4490,
      "ä¸½èİİ": 4491,
      "è´£": 4492,
      "åŃ¦åĪ°": 4493,
      "çľĭçĿĢå®ĥ": 4494,
      "åķĨåºĹéĩĮ": 4495,
      "åĪ¶éĢł": 4496,
      "æĹ©é¤Ĳ": 4497,
      "è¶³çĲĥ": 4498,
      "åīªåĪĢ": 4499,
      "éŀ": 4500,
      "çĦ¦": 4501,
      "èĥ½çľĭåĪ°": 4502,
      "åģļåĩº": 4503,
      "çŃı": 4504,
      "éĺ»": 4505,
      "å¸®åĬ©ä½ł": 4506,
      "ä¹Ĳäºİ": 4507,
      "åħ¨éĥ½": 4508,
      "é²¸": 4509,
      "æ¢¨": 4510,
      "ä¸Ģèµ·çİ©åĲĹ": 4511,
      "æ»ĳæĿ¿": 4512,
      "ä¹ĭéĹ´": 4513,
      "éĵ¶": 4514,
      "çģ«é¸¡": 4515,
      "åĩºæĿ¥äºĨ": 4516,
      "è¡£æŁľ": 4517,
      "æĶ¶æĭ¾å¥½": 4518,
      "é¦ĸåħĪ": 4519,
      "äºĨä¸Ģå£°å·¨åĵį": 4520,
      "å¹¸ç¦ıçļĦçĶŁæ´»": 4521,
      "æī£": 4522,
      "å¾Īéħ·": 4523,
      "éĤ¦": 4524,
      "éĤ£å¼ł": 4525,
      "å¤§çŁ³å¤´": 4526,
      "å¿«è¦ģ": 4527,
      "çĤ«": 4528,
      "çķª": 4529,
      "èĬ±åĽŃéĩĮçİ©èĢį": 4530,
      "çĩ¥": 4531,
      "ĬåŃĲ": 4532,
      "ä»ĸæĺ¯": 4533,
      "ä»ĸåıĳçİ°äºĨä¸Ģ": 4534,
      "åľ¨ç©ºä¸Ń": 4535,
      "ç»Ħ": 4536,
      "ç»Ĭ": 4537,
      "æľīä¸Ģä¸ªéĿŀå¸¸": 4538,
      "åıĳæĬĸ": 4539,
      "è®©äºº": 4540,
      "æŀľéħ±": 4541,
      "çĥ§": 4542,
      "åĮº": 4543,
      "è·¯è¿ĩ": 4544,
      "èĩªè±ªåľ°": 4545,
      "æ¤Ĵ": 4546,
      "æĮīçħ§": 4547,
      "ç´§ç´§åľ°æĬ±ä½ıäºĨ": 4548,
      "åºķä¸ĭ": 4549,
      "æ·±åĲ¸äºĨä¸Ģåı£æ°Ķ": 4550,
      "é²¸é±¼": 4551,
      "ä»·": 4552,
      "äº¨": 4553,
      "å¥¹æĦıè¯ĨåĪ°": 4554,
      "å¥¹å¾Īåĸľæ¬¢": 4555,
      "çľĭåĲĳ": 4556,
      "å¦Īå¦Īè¯´éģĵ": 4557,
      "åĸµ": 4558,
      "å¿ĥéĩĮ": 4559,
      "éĹ²": 4560,
      "æĦŁåĪ°æĹ¢": 4561,
      "çĶ·åŃĲ": 4562,
      "æŃ£å¸¸": 4563,
      "æ¼ī": 4564,
      "æµ·éĩĮ": 4565,
      "ç¥Ī": 4566,
      "æ´»æ³¼": 4567,
      "æ³¢æ³¢": 4568,
      "ç®¡åŃĲ": 4569,
      "éªĳçĿĢ": 4570,
      "ç¯·": 4571,
      "èŀįåĮĸ": 4572,
      "ä»ĸæ¯ıå¤©éĥ½": 4573,
      "åĪ°å®¶": 4574,
      "éĿŀå¸¸ç¾İåĳ³": 4575,
      "å¹ķ": 4576,
      "æĥ³äºĨæĥ³": 4577,
      "äºĨä¸Ģæł¹": 4578,
      "è·ĳåĽŀäºĨå®¶": 4579,
      "åħ´å¥ĭæŀģäºĨ": 4580,
      "è¡Įä¸º": 4581,
      "é¥®": 4582,
      "æ£®æŀĹä¸Ń": 4583,
      "ä½Ĩä»ĸçŁ¥éģĵ": 4584,
      "åį¡çīĩ": 4585,
      "èĤ¥": 4586,
      "è¿½èµ¶": 4587,
      "äºĳæľµ": 4588,
      "èķ¾": 4589,
      "è¿Ļæĺ¯ä¸ªå¥½ä¸»æĦı": 4590,
      "éĻĮçĶŁäºº": 4591,
      "é©¾é©¶": 4592,
      "Kit": 4593,
      "Tim": 4594,
      "«åŃĲ": 4595,
      "äºĨåĩł": 4596,
      "è·ª": 4597,
      "å¤ļæ±ģ": 4598,
      "åģļçĤ¹": 4599,
      "éĹªèĢĢ": 4600,
      "åħ³å¿ĥ": 4601,
      "å»Ĭ": 4602,
      "å®īå¨ľåĴĮæľ¬": 4603,
      "åĲĵäºº": 4604,
      "èŀº": 4605,
      "çļĦæĸ¹æ³ķ": 4606,
      "èĢ³æľµ": 4607,
      "éĽķåĥı": 4608,
      "Kitty": 4609,
      "¾æ°Ķ": 4610,
      "ä¸ĢåĽ¢": 4611,
      "ä»ĸä»İ": 4612,
      "ä»ĸæ²¡æľī": 4613,
      "ä»ĸçİ¯é¡¾åĽĽåĳ¨": 4614,
      "å®«": 4615,
      "è¿Ļè®©å¥¹": 4616,
      "éĿŀå¸¸æľīè¶£": 4617,
      "åİ»æĭ¿": 4618,
      "å¸®å¦Īå¦Ī": 4619,
      "å¸¦åĪ°": 4620,
      "æ°´æĻ¶": 4621,
      "æľīä¸Ģä¸ªåı«èĴĤç±³çļĦå°ıçĶ·åŃ©": 4622,
      "ä½Ĩå¥¹çŁ¥éģĵ": 4623,
      "åĪļåĪļ": 4624,
      "æģĲé¾Ļ": 4625,
      "ç«ŁçĦ¶": 4626,
      "å¥¹ä¸ºèĩªå·±": 4627,
      "åĲ»": 4628,
      "åľ¨ä»ĸä»¬": 4629,
      "å°ıæºª": 4630,
      "åĴķ": 4631,
      "ä¸įå¤ª": 4632,
      "å¤§é¸Ł": 4633,
      "ä»ĸçļĦæĸ°": 4634,
      "å¼Ģå§ĭåľ¨": 4635,
      "é£ŀèĪŀ": 4636,
      "æĦŁåĪ°éĿŀå¸¸éªĦåĤ²": 4637,
      "æĭīèı²": 4638,
      "æģ¼": 4639,
      "ä¹°ä¸Ģä¸ª": 4640,
      "å®ŀåľ¨": 4641,
      "æµ·æ»©ä¸Ĭ": 4642,
      "ä¸įå°ıå¿ĥæĬĬ": 4643,
      "ä¼ĺéĽħ": 4644,
      "å°¤åħ¶æĺ¯": 4645,
      "çļĦè¡¨æĥħ": 4646,
      "ä»ĸæĦıè¯ĨåĪ°": 4647,
      "èµŀ": 4648,
      "æĿ¥çļĦ": 4649,
      "ä»ĸä»¬åĲ¬åĪ°": 4650,
      "çİ©çļĦæĹ¶åĢĻ": 4651,
      "æĥ³åĲĥ": 4652,
      "å¥³äºº": 4653,
      "è·ĳçĿĢ": 4654,
      "è·ĳåĽŀ": 4655,
      "å¸¦åĽŀäºĨå®¶": 4656,
      "æīĭä¸Ń": 4657,
      "ç¬ĳçĿĢè¯´éģĵ": 4658,
      "æł·çļĦ": 4659,
      "æįķ": 4660,
      "ç®Ģåįķ": 4661,
      "é²įåĭĥåĴĮ": 4662,
      "ä¿®å¤į": 4663,
      "ä»»ä½ķäºº": 4664,
      "īç±³": 4665,
      "ä¸ĢæŃ¥": 4666,
      "ä»ĸçľĭçĿĢ": 4667,
      "å¥¹éĥ½": 4668,
      "çİīç±³": 4669,
      "åĴĮä¸Ģåıª": 4670,
      "çĽĹ": 4671,
      "æ±ª": 4672,
      "çĪ±ä½ł": 4673,
      "å±±ä¸ĺ": 4674,
      "å¹²çĩ¥": 4675,
      "æ¸©åĴĮ": 4676,
      "ä»ĸçľĭåĪ°ä¸Ģä¸ª": 4677,
      "åĲĪä½ľ": 4678,
      "æ¶Īæģ¯": 4679,
      "åĺ¿": 4680,
      "ä»»ä½ķä¸ľè¥¿": 4681,
      "éģĩåĪ°äºĨä¸Ģä¸ª": 4682,
      "åĲ¸å¼ķ": 4683,
      "åıĤè§Ĥ": 4684,
      "ç´«èī²çļĦ": 4685,
      "äºĨä¸Ĭåİ»": 4686,
      "ä»ĸäºº": 4687,
      "ä»ĸæľīä¸Ģä¸ª": 4688,
      "ä¸ªåŃĲ": 4689,
      "å°ıæ±½è½¦": 4690,
      "è¿Ļå®¶äºº": 4691,
      "ä»ĸä»¬åıĪ": 4692,
      "å®ĥçľĭèµ·æĿ¥": 4693,
      "ä¸įåı¯ä»¥": 4694,
      "å¦Īå¦Īç¬ĳçĿĢè¯´": 4695,
      "åīįè¡Į": 4696,
      "æĦŁåĪ°å¾Īé«ĺåħ´": 4697,
      "çĦ°": 4698,
      "åĽŀå¿Ĩ": 4699,
      "åģļåĪ°äºĨ": 4700,
      "åıĳçİ°äºĨä¸ĢäºĽ": 4701,
      "æĭīéĵ¾": 4702,
      "åĦ¿åŃĲ": 4703,
      "èĩªå·±çļĦæĪ¿éĹ´": 4704,
      "è´¹": 4705,
      "çģ«çĦ°": 4706,
      "éĩįè¦ģæĢ§": 4707,
      "èĦļæŃ¥": 4708,
      "çĪ¬ä¸Ĭåİ»": 4709,
      "çļĦæĹ¥åŃĲéĩĮ": 4710,
      "ç¥ŀç§ĺçļĦ": 4711,
      "ä¸Ģå£°å·¨åĵį": 4712,
      "èİ·å¾Ĺ": 4713,
      "å²¸è¾¹": 4714,
      "æļ´é£İéĽ¨": 4715,
      "ä»ĸæĭ¿èµ·": 4716,
      "å°ıæĪ¿åŃĲéĩĮ": 4717,
      "æĿ¥çľĭ": 4718,
      "æĬĽ": 4719,
      "èĩªçĦ¶": 4720,
      "è·ĳè¿ĩæĿ¥": 4721,
      "é£ŀå¿«åľ°": 4722,
      "æŀľçĦ¶": 4723,
      "çģŃ": 4724,
      "ä½įç½®": 4725,
      "åģľåľ¨": 4726,
      "åıĹæ¬¢è¿İ": 4727,
      "èĥŀ": 4728,
      "çħ¤": 4729,
      "æĺ¯ä¸Ģä¸ªéĿŀå¸¸": 4730,
      "åı¦ä¸Ģ": 4731,
      "ç«Ļèµ·æĿ¥": 4732,
      "å¾Ĺå¾Īå¥½": 4733,
      "æĦīå¿«åľ°": 4734,
      "è½®èĥİ": 4735,
      "å¼Ĺæĭīèı²": 4736,
      "æµ·è±¹": 4737,
      "æīĭéĩĮæĭ¿çĿĢ": 4738,
      "éĺ»æŃ¢": 4739,
      "æĨ": 4740,
      "ä»ĸæĦŁè°¢": 4741,
      "éĤ£ä»¶": 4742,
      "åī©": 4743,
      "æĦŁåĪ°åįģåĪĨ": 4744,
      "åħĭæĭī": 4745,
      "é¸£": 4746,
      "éļĲ": 4747,
      "ç§ĥ": 4748,
      "èĲĿåįľ": 4749,
      "çĥģ": 4750,
      "ç»ĵå®ŀ": 4751,
      "èĦ¾æ°Ķ": 4752,
      "éĹªçĥģ": 4753,
      "éľ²åĩº": 4754,
      "å²Ľ": 4755,
      "åĸĦæĦı": 4756,
      "åĽ´å·¾": 4757,
      "èįīèİĵ": 4758,
      "åħ¶ä»ĸåŃ©åŃĲ": 4759,
      "æĥĬè®¶çļĦæĺ¯": 4760,
      "åĸľæ¬¢åľ¨åħ¬åĽŃéĩĮ": 4761,
      "åĲ¹åı£åĵ¨": 4762,
      "æ£ķèī²": 4763,
      "æŃ£ç¡®çļĦ": 4764,
      "æĬ¬èµ·å¤´": 4765,
      "é£ŀæĿ¥é£ŀåİ»": 4766,
      "éģ¥è¿ľ": 4767,
      "åĲĲ": 4768,
      "åħ®": 4769,
      "åħ»": 4770,
      "å°ıèĻ«åŃĲ": 4771,
      "æĿ¥åĽŀ": 4772,
      "çİ©çİ©åħ·": 4773,
      "ä½Ĩæ²¡æľī": 4774,
      "å¥½èµ·æĿ¥": 4775,
      "æ³ī": 4776,
      "éĢĬ": 4777,
      "æłĳé¡¶": 4778,
      "å¤ªå¤ļ": 4779,
      "å¸¦æľī": 4780,
      "æıĲç±³çļĦ": 4781,
      "èĢĮæĺ¯": 4782,
      "ä¸ĢäºĽä¸ľè¥¿": 4783,
      "åĬ¨çī©éĥ½": 4784,
      "ç»ĵæĿŁäºĨ": 4785,
      "æĮ¥äºĨ": 4786,
      "æ·±åĪ»": 4787,
      "é¼ĵåĬ±": 4788,
      "çĩĥ": 4789,
      "åĩīçĪ½": 4790,
      "åļ¼": 4791,
      "æĿ°åħĭåĴĮåĲīå°Ķ": 4792,
      "Tweet": 4793,
      "åº¦è¿ĩäºĨæĦīå¿«çļĦä¸Ģå¤©": 4794,
      "çĶ²èĻ«": 4795,
      "è¿ĩä¸ĬäºĨå¹¸ç¦ıçļĦçĶŁæ´»": 4796,
      "å¿łè¯ļ": 4797,
      "çļĦèĻ«åŃĲ": 4798,
      "±ç¿Ķ": 4799,
      "å¥¹åıĪ": 4800,
      "å¥¹å¿ħé¡»": 4801,
      "æĺ¯å¯¹çļĦ": 4802,
      "æĦ¤": 4803,
      "çľĭäºĨä¸Ģ": 4804,
      "ä»ĸä»¬çİ©å¾ĹéĿŀå¸¸å¼Ģå¿ĥ": 4805,
      "éĿŀå¸¸çī¹åĪ«": 4806,
      "éĿŀå¸¸æĥĬè®¶": 4807,
      "åĴĮå¿«ä¹Ĳ": 4808,
      "å¹¶æĥ³": 4809,
      "ä¸ºä½ł": 4810,
      "æĦıåĳ³": 4811,
      "æ»´": 4812,
      "ç©¶": 4813,
      "ç¿±ç¿Ķ": 4814,
      "è¡ĮåĬ¨": 4815,
      "æķĻå¥¹": 4816,
      "éĺ³åħīæĺİåªļçļĦæĹ¥åŃĲ": 4817,
      "ç¢İçīĩ": 4818,
      "åħĦå¼Ł": 4819,
      "æĬļæĳ¸": 4820,
      "ä»°": 4821,
      "ä»ĸéĹ®éģĵ": 4822,
      "è¿Ļä¼ļ": 4823,
      "å¾®å¾®": 4824,
      "éĤ£ä¸ªçİ©åħ·": 4825,
      "å¾Īå¿«ä¹Ĳ": 4826,
      "æµ·æµª": 4827,
      "åĽ´æłı": 4828,
      "æĭħå¿§": 4829,
      "åĽĽå¤Ħèµ°åĬ¨": 4830,
      "ç¯±": 4831,
      "åĸ·æ³ī": 4832,
      "ç¾ŀæĦ§": 4833,
      "éĻªä¼´": 4834,
      "ä¸įçĶ¨è°¢": 4835,
      "ä»ĻåŃĲ": 4836,
      "æĺĨ": 4837,
      "æĿ¥èĩª": 4838,
      "ä¸įæĦ¿æĦı": 4839,
      "çĿĢä¸Ģä¸ª": 4840,
      "åľ°åĽ¾": 4841,
      "æĥ³å¿µ": 4842,
      "äººæİĮ": 4843,
      "æłĭ": 4844,
      "åı¯åı¯": 4845,
      "ç»Ļä»ĸä»¬": 4846,
      "æ¯ıä¸Ģä¸ª": 4847,
      "é£ŀåĪ°äºĨ": 4848,
      "èĥ¡": 4849,
      "è¿Ļæĺ¯æĪĳçļĦ": 4850,
      "è¿Ļæł·çļĦ": 4851,
      "éĩĮéĿ¢æľīä»Ģä¹Ī": 4852,
      "åŁİå¸Ĥ": 4853,
      "è¿ĻåĿĹçŁ³å¤´": 4854,
      "ä»ĻäººæİĮ": 4855,
      "ä¸įæĸŃåľ°": 4856,
      "å¹ħçĶ»": 4857,
      "åį°è±¡": 4858,
      "è½¬è¿ĩèº«": 4859,
      "ç¥Īç¥·": 4860,
      "çį": 4861,
      "çļĦäºĭçī©": 4862,
      "å¥¹ä¸ĢçĽ´": 4863,
      "åľ¨ä»ĸçļĦ": 4864,
      "éĿ´åŃĲ": 4865,
      "æĪĳæŃ£åľ¨": 4866,
      "ä¼Ĺ": 4867,
      "å¸¦æĿ¥äºĨ": 4868,
      "èĤ¡": 4869,
      "æ¸ħæ´Ĺ": 4870,
      "ä¸ĸçķĮä¸Ĭ": 4871,
      "çĪ¸çĪ¸å¦Īå¦Īä¸Ģèµ·": 4872,
      "è¯»ä¹¦": 4873,
      "åģ·åģ·": 4874,
      "èĢĮæĦŁåĪ°é«ĺåħ´": 4875,
      "é¥¿äºĨ": 4876,
      "å¸Ĥåľº": 4877,
      "æĦ¤æĢĴ": 4878,
      "ĭåĪ©": 4879,
      "ä»ĸåĴĮ": 4880,
      "ä»ĸæľĢåĸľæ¬¢çļĦ": 4881,
      "å¥¹ä»İ": 4882,
      "ä½Ĩå¾Īå¿«": 4883,
      "å¥½åĲĹ": 4884,
      "ç¬ĳå¾Ĺ": 4885,
      "åģļå¥½": 4886,
      "ï¼Ł\"": 4887,
      "æĸ°çļĦä¸ľè¥¿": 4888,
      "æµĩ": 4889,
      "æľ¬è¯´": 4890,
      "éĶĭåĪ©": 4891,
      "åıĳçĶŁçļĦäºĭæĥħ": 4892,
      "å¥¹çľĭåĪ°ä¸Ģä¸ª": 4893,
      "èļĬåŃĲ": 4894,
      "ç¦»å¼ĢæĹ¶": 4895,
      "åı¹äºĨåı£æ°Ķ": 4896,
      "æ£ķèī²çļĦ": 4897,
      "æĻ®éĢļçļĦ": 4898,
      "±æ¡ĥ": 4899,
      "ľåŃĲ": 4900,
      "äºĨè¿ĩæĿ¥": 4901,
      "ä¸Ģä¸ªæľĭåıĭ": 4902,
      "è¿Ļä¸Ģ": 4903,
      "è¿Ļä¸Ģæ¬¡": 4904,
      "çİ©è¿Ļä¸ª": 4905,
      "åĴĮä¸Ģ": 4906,
      "æľīä¸Ģåº§": 4907,
      "åĨł": 4908,
      "æĢľ": 4909,
      "å¿«çľĭ": 4910,
      "è·³ä¸ĭ": 4911,
      "åĲ¬å¦Īå¦ĪçļĦè¯Ŀ": 4912,
      "æĭ¿èµ°äºĨ": 4913,
      "è¯¥åĽŀå®¶äºĨ": 4914,
      "æįŁ": 4915,
      "æľ¨æ£į": 4916,
      "èĹıåľ¨": 4917,
      "èĤļåŃĲ": 4918,
      "æļĸåĴĮ": 4919,
      "èĲ½å±±": 4920,
      "å¥ĩæĢªçļĦå£°éŁ³": 4921,
      "ä¼łæĿ¥ä¸Ģéĺµ": 4922,
      "æ¤ħåŃĲä¸Ĭ": 4923,
      "æ¬¢åĳ¼èµ·æĿ¥": 4924,
      "é¸¡èĽĭ": 4925,
      "èĢĥè¯ķ": 4926,
      "æ¨±æ¡ĥ": 4927,
      "éĤ£åĿĹçŁ³å¤´": 4928,
      "éĤ£ä½įå¥³å£«": 4929,
      "è°ĥçļ®": 4930,
      "¨Ģ": 4931,
      "è¨Ģ": 4932,
      "ä»ĸä¸ºèĩªå·±": 4933,
      "åĪ·": 4934,
      "å¥¹æĦŁè°¢": 4935,
      "è¿Ļä¸¤ä¸ªæľĭåıĭ": 4936,
      "å¼Ģåħ³": 4937,
      "ç¬Ľ": 4938,
      "ä»ĸçļĦæīĭ": 4939,
      "çĽ¾": 4940,
      "å¤´æĻķ": 4941,
      "éĽı": 4942,
      "ä¸Ģåıªå°ıé¸Ł": 4943,
      "éĤ£åıªçĨĬ": 4944,
      "é¹¤": 4945,
      "è¡£è£Ļ": 4946,
      "çĸ¯": 4947,
      "å¤ªéĺ³å¼Ģå§ĭ": 4948,
      "å¹¸ç¦ıåľ°çĶŁæ´»": 4949,
      "é»Ħæ²¹": 4950,
      "æ²³æµģ": 4951,
      "æĻ¯èī²": 4952,
      "èĶĵ": 4953,
      "åĪĽéĢłåĬĽ": 4954,
      "æĿĲæĸĻ": 4955,
      "ç£¨": 4956,
      "è®¨è®º": 4957,
      "ä¹ĲäºİåĬ©": 4958,
      "æ»ĳæĿ¿è½¦": 4959,
      "Ĳç¯·": 4960,
      "ä»ĸæĦŁè°¢äºĨ": 4961,
      "å¥¹è¯ķåĽ¾": 4962,
      "å¾ĭ": 4963,
      "æľīä¸ľè¥¿": 4964,
      "å¸Ĳç¯·": 4965,
      "åĴĮæĿ°åħĭ": 4966,
      "ä¸įä¸Ģæł·": 4967,
      "æľīä¸Ģé¢Ĺ": 4968,
      "èİīèİīæĢ»æĺ¯": 4969,
      "èİīèİīå¾Īé«ĺåħ´": 4970,
      "å¹¶å¯¹": 4971,
      "ä»¥ä¸º": 4972,
      "çº¹": 4973,
      "è¿Ļä¸ªçĶ·åŃ©": 4974,
      "éĻĭ": 4975,
      "åĲĥçĿĢ": 4976,
      "èİīèİīçļĦå¦Īå¦Īè¯´": 4977,
      "ä¸Ģå¤©æĻļä¸Ĭ": 4978,
      "éĤ£ä¸ªçĲĥ": 4979,
      "æĥĬå¥ĩ": 4980,
      "ä½Ĩæĺ¯æľīä¸Ģå¤©": 4981,
      "åłĤ": 4982,
      "è½¬åĬ¨": 4983,
      "æĪĲåĬŁåľ°": 4984,
      "çĶļèĩ³è¿ĺ": 4985,
      "ä¸¢å¤±": 4986,
      "ä¸¾èµ·": 4987,
      "æĮĤåľ¨": 4988,
      "æ¥¼æ¢¯": 4989,
      "è¿ŀè¡£è£Ļ": 4990,
      "åıĶåıĶ": 4991,
      "åİ»åķĨåºĹä¹°": 4992,
      "ä»Ĭ": 4993,
      "ä»ĸéľĢè¦ģ": 4994,
      "å¤®": 4995,
      "æĥ§": 4996,
      "çİ©å¥¹çļĦ": 4997,
      "çİ©äºĨä¸Ģä¼ļåĦ¿": 4998,
      "å¼ĢçĿĢ": 4999,
      "å¦Īå¦Īå¾®ç¬ĳçĿĢè¯´": 5000,
      "èİīèİīéĹ®éģĵ": 5001,
      "èµ°è·¯": 5002,
      "éĿ¢åħ·": 5003,
      "åıĳçİ°èĩªå·±": 5004,
      "çļĦå°ıçĮ«": 5005,
      "ç»ĵå©ļ": 5006,
      "æĹłåĬ©": 5007,
      "åģľä¸ĭäºĨ": 5008,
      "å¿«ä¹Ĳåľ°": 5009,
      "åĶ±çĿĢ": 5010,
      "çŃīå¾ħçĿĢ": 5011,
      "ç®ĢçĽ´ä¸įæķ¢çĽ¸ä¿¡èĩªå·±çļĦ": 5012,
      "åı¤èĢģçļĦ": 5013,
      "çĿģå¼Ģ": 5014,
      "çĤ«èĢĢ": 5015,
      "ä¸Ģæ®µ": 5016,
      "ä»ĸåİ»": 5017,
      "å¥¹å¸ĮæľĽ": 5018,
      "ä¸ªä¸įåģľ": 5019,
      "å®ĥè¯´": 5020,
      "åĴĮæ±¤å§Ĩ": 5021,
      "æĦŁåĪ°åħ´å¥ĭ": 5022,
      "ç¬ĳè¯Ŀ": 5023,
      "è¿ĩçļĦæľĢ": 5024,
      "çĽĶ": 5025,
      "åºĵ": 5026,
      "çĶŁçĹħ": 5027,
      "æµ®": 5028,
      "çļĦèħ": 5029,
      "èį·": 5030,
      "æĦŁåĪ°å¾Īä¼¤å¿ĥ": 5031,
      "ä¸įçŁ¥éģĵè¯¥": 5032,
      "æĬ¤å£«": 5033,
      "ä¸Ģå®ļä¼ļ": 5034,
      "å¾ĹéĿŀå¸¸å¿«": 5035,
      "æľīä¸Ģä¸ªçĶ·åŃ©åı«": 5036,
      "å¼¯ä¸ĭ": 5037,
      "æĬ«èĲ¨": 5038,
      "çĲĨåıĳå¸Ī": 5039,
      "æĦıåĳ³çĿĢ": 5040,
      "æĺĨèĻ«": 5041,
      "¥èľ": 5042,
      "ķæĸ¯": 5043,
      "çļĦèĢģ": 5044,
      "ä»ĸå¾®ç¬ĳçĿĢ": 5045,
      "ä»ĸè¿«ä¸įåıĬå¾ħåľ°æĥ³": 5046,
      "å®ĥåĸľæ¬¢": 5047,
      "éĤ£æľµèĬ±": 5048,
      "ç±³æ»": 5049,
      "åı¯æĢľ": 5050,
      "æĸ°é²ľ": 5051,
      "æ°´ç®¡": 5052,
      "éĿŀå¸¸åħ´å¥ĭåľ°": 5053,
      "éĵ²": 5054,
      "ç¨Ģ": 5055,
      "èĤ¤": 5056,
      "èıĬ": 5057,
      "ç»ĻäºĨå¥¹ä¸Ģä¸ªå¤§å¤§çļĦæĭ¥æĬ±": 5058,
      "æ»ļåĬ¨": 5059,
      "çĵ¶åŃĲ": 5060,
      "ç¢ĹéĩĮ": 5061,
      "è¿Ļè¾Ĩè½¦": 5062,
      "å¾Ĺè¶ĬæĿ¥è¶Ĭé«ĺ": 5063,
      "¥èľ´": 5064,
      "ç±³æ»ķæĸ¯": 5065,
      "ĹæĺŁ": 5066,
      "çļĦç¾İä¸½": 5067,
      "å¥¹å¸¦çĿĢ": 5068,
      "æī®": 5069,
      "ç»ĳ": 5070,
      "éĤ£çīĩ": 5071,
      "å¿ĥæĥ³": 5072,
      "åīįå¾Ģ": 5073,
      "ä½łåºĶè¯¥": 5074,
      "å½ĹæĺŁ": 5075,
      "è½®åŃĲ": 5076,
      "åįı": 5077,
      "éĺ±": 5078,
      "åħīäºĨ": 5079,
      "æīĵåį°": 5080,
      "éķ¿å¤§": 5081,
      "æ£µæłĳä¸Ĭ": 5082,
      "çĶŁæ°ĶäºĨ": 5083,
      "è§ģè¿ĩçļĦæľĢ": 5084,
      "ç²¾çģµ": 5085,
      "æĪĸèĢħ": 5086,
      "éĻ·éĺ±": 5087,
      "éĽıèıĬ": 5088,
      "ä»ĸä¸įæĥ³": 5089,
      "è¯´äºĨ": 5090,
      "å¤§éĹ¨": 5091,
      "çº§": 5092,
      "ä»Ģä¹Īä¹Ł": 5093,
      "çĶŁéķ¿": 5094,
      "æĸ°å¥ĩ": 5095,
      "æĭ¿åĩºæĿ¥": 5096,
      "è´Ł": 5097,
      "æ³¨è§ĨçĿĢ": 5098,
      "èĹ¤": 5099,
      "æ³°å¾·": 5100,
      "ä¹İä¹İ": 5101,
      "åįĪé¥Ń": 5102,
      "æļ´èºģ": 5103,
      "å¹¸è¿ĲçļĦæĺ¯": 5104,
      "éĤ®ç¥¨": 5105,
      "é¢¤æĬĸ": 5106,
      "äº¨åĪ©": 5107,
      "åī©ä¸ĭ": 5108,
      "ä¸Ģéģį": 5109,
      "ä»ĸå¾Īé«ĺåħ´": 5110,
      "æĥľ": 5111,
      "æĬķ": 5112,
      "ä¼Ł": 5113,
      "èİīèİīéĹ®": 5114,
      "éģµ": 5115,
      "æĭ¯": 5116,
      "å¥¹çļĦçĪ¸çĪ¸å¦Īå¦Ī": 5117,
      "éĥ½å¾Ī": 5118,
      "ä¸ĭåįĪ": 5119,
      "å¼Ģå§ĭäºĨ": 5120,
      "å¤´çĽĶ": 5121,
      "æ°´éĿ¢": 5122,
      "èĴĤç±³åĸľæ¬¢": 5123,
      "éĴĵ": 5124,
      "å¾Īå¿«ä¼ļ": 5125,
      "å¤Łä¸įåĪ°": 5126,
      "å½ĵå¥¹åĪ°è¾¾": 5127,
      "æĿ¾é¥¼": 5128,
      "åĮħéĩĮ": 5129,
      "å¤«é¥¼": 5130,
      "å·´è¿ª": 5131,
      "æ±łå¡ĺè¾¹": 5132,
      "éģĩåĪ°äºĨ": 5133,
      "åĲĦèĩª": 5134,
      "æºħ": 5135,
      "ä¸Ģå®ļè¦ģ": 5136,
      "æ¸Ĳæ¸Ĳ": 5137,
      "ç¾İå¦ĻçļĦ": 5138,
      "ç£ģ": 5139,
      "åįİå¤«é¥¼": 5140,
      "å·²ç»ıå¤ªæĻļäºĨ": 5141,
      "å¾®å¾®ä¸Ģç¬ĳ": 5142,
      "¨é±¼": 5143,
      "çĺ": 5144,
      "īå¦": 5145,
      "æĺ¯è°ģ": 5146,
      "çİ©åĲ§": 5147,
      "ä¸įé«ĺåħ´": 5148,
      "ä¸įå¥½çļĦ": 5149,
      "æĦŁåĪ°å®īåħ¨": 5150,
      "ç¬ĳå£°": 5151,
      "ä»ĸçļĦåĲįåŃĹåı«": 5152,
      "äºİæĺ¯å®ĥ": 5153,
      "æĶĢ": 5154,
      "è½¦åºĵ": 5155,
      "æĿ°åħĭè¯´": 5156,
      "ç»ĵå±Ģ": 5157,
      "æ¯ıå¤©ä»ĸéĥ½ä¼ļ": 5158,
      "é²¨é±¼": 5159,
      "è¶Ĭé«ĺ": 5160,
      "å¡«": 5161,
      "çĶµçŃĴ": 5162,
      "åıĳçİ°äºĨä¸Ģåıª": 5163,
      "åĵªåĦ¿": 5164,
      "æĭįæīĵ": 5165,
      "æ²Ļåł¡": 5166,
      "ä»Ķç»Ĩåľ°": 5167,
      "éķĩä¸Ĭ": 5168,
      "ä¸ĳéĻĭ": 5169,
      "çļĦå¸®åĬ©ä¸ĭ": 5170,
      "å¥¥åĪ©": 5171,
      "åĴ¯åĴ¯åľ°": 5172,
      "äºĶå½©ç¼¤çº·": 5173,
      "ä¼¸åĩºæīĭ": 5174,
      "å«īå¦": 5175,
      "æ¸Ķå¤«": 5176,
      "å«īå¦Ĵ": 5177,
      "Sa": 5178,
      "İçĥŃ": 5179,
      "åľ¨å®¶éĩĮ": 5180,
      "åĴĮåħ´å¥ĭ": 5181,
      "èİīèİīæĬĬ": 5182,
      "å¹¶çĶ¨": 5183,
      "éģĵäºĨ": 5184,
      "äºĨä¸Ģé¦ĸ": 5185,
      "æĦŁåĪ°æľīäºĽ": 5186,
      "ä¹Łä¼ļ": 5187,
      "å±ī": 5188,
      "çĤİçĥŃ": 5189,
      "å¤ªå°ıäºĨ": 5190,
      "æĭ¿ç»Ļ": 5191,
      "æī¾åĪ°çļĦ": 5192,
      "æī¾åĪ°äºĨä¸ĢäºĽ": 5193,
      "èľ·": 5194,
      "æľºä¼ļ": 5195,
      "å¥¹åĸľæ¬¢çİ©å¥¹çļĦçİ©åħ·": 5196,
      "æĦŁè§īåĪ°": 5197,
      "ç§ĭåįĥä¸Ĭ": 5198,
      "éĢĴç»ĻäºĨ": 5199,
      "æłĩå¿Ĺ": 5200,
      "åı¯æĢķçļĦ": 5201,
      "ä¸ĽæŀĹéĩĮ": 5202,
      "ç¯®çĲĥ": 5203,
      "åĹ¡åĹ¡": 5204,
      "éķ¿æ¤ħä¸Ĭ": 5205,
      "æĬ½å±ī": 5206,
      "åİīå®³": 5207,
      "èĤ¥çļĤ": 5208,
      "åį°è±¡æ·±åĪ»": 5209,
      "æľ±": 5210,
      "å¸Ĩ": 5211,
      "è¿Ļè®©ä»ĸ": 5212,
      "éĿŀå¸¸å¤§": 5213,
      "æĪĳæĥ³è¦ģ": 5214,
      "äºĨä¸Ģåº§": 5215,
      "åıĭè°": 5216,
      "é¥¥": 5217,
      "èĮī": 5218,
      "åĪ°å¤ĸéĿ¢çİ©èĢį": 5219,
      "é¾Ļå¤´": 5220,
      "æĴŃ": 5221,
      "æ¹ĸéĩĮ": 5222,
      "å¼¹çıł": 5223,
      "æłĳæľ¨åĴĮ": 5224,
      "æ²¡äºĭçļĦ": 5225,
      "åıĭè°Ĭ": 5226,
      "çļĦä¸ĸçķĮ": 5227,
      "ä¸Ģæ£µå¤§æłĳ": 5228,
      "å¤©ä½¿": 5229,
      "å¹½": 5230,
      "æĪĳè§īå¾Ĺ": 5231,
      "è¿ĩç¨ĭ": 5232,
      "ç©·": 5233,
      "æľīä¸Ģä¸ªåĲįåı«èĴĤç±³çļĦå°ıçĶ·åŃ©": 5234,
      "åĭĩæķ¢åľ°": 5235,
      "çĶµæ±ł": 5236,
      "æľįè£ħ": 5237,
      "æ³¨æĦıåĪ°äºĨ": 5238,
      "åħ¶ä»ĸäºº": 5239,
      "å¼ºå¤§": 5240,
      "æĳĺä¸ĭ": 5241,
      "è¿½çĿĢ": 5242,
      "åĪĽæĦı": 5243,
      "åĲµéĹ¹": 5244,
      "éĢĴç»Ļ": 5245,
      "çĥŁèĬ±": 5246,
      "åĲ¬ä»İäºĨ": 5247,
      "æĸĩä»¶": 5248,
      "å¼ĹéĽ·å¾·": 5249,
      "çľŁæŃ£çļĦ": 5250,
      "å¸ĥæľĹå°¼": 5251,
      "çļĦèĬ±": 5252,
      "åıł": 5253,
      "å¥¹ä¸º": 5254,
      "åľ¨æĪ¿éĹ´éĩĮ": 5255,
      "çľī": 5256,
      "æīİ": 5257,
      "ä»ĸä»¬çŁ¥éģĵ": 5258,
      "åĬ²": 5259,
      "èİīèİīå¯¹": 5260,
      "ç±³é¡¿": 5261,
      "å¥³å·«": 5262,
      "å½ĵå¤©": 5263,
      "è¡¥": 5264,
      "å¯¹å¥¹è¯´": 5265,
      "è¿Ļä¸ªå®¶åºŃ": 5266,
      "ç³Ĭ": 5267,
      "æ¸¸æĿ¥": 5268,
      "æīĢæľīä¸ľè¥¿": 5269,
      "æ¯ıå¤©å¥¹éĥ½ä¼ļ": 5270,
      "æİ¥ä¸ĭæĿ¥": 5271,
      "å°½æĥħ": 5272,
      "ä¸įåĨįæĦŁåĪ°": 5273,
      "æĵį": 5274,
      "ä»¤äººæĥĬåı¹": 5275,
      "åľĨåľĪ": 5276,
      "éĹŃä¸ĬäºĨ": 5277,
      "éħ¸å¥¶": 5278,
      "æģĲæĥ§": 5279,
      "è®¨åİĮ": 5280,
      "äºĪ": 5281,
      "ä¸Ģåı£": 5282,
      "ä¸Ģç¾¤": 5283,
      "ä¸Ģä¸ªæĥĬåĸľ": 5284,
      "å®ĥéĥ½ä¼ļ": 5285,
      "ä¸įéĶĻ": 5286,
      "è·Ŀ": 5287,
      "èİīèİīä¸įæĥ³": 5288,
      "ä½łåĸľæ¬¢": 5289,
      "å½Ĵ": 5290,
      "ä»ĸçļĦçĪ¸çĪ¸å¦Īå¦Ī": 5291,
      "å¸¦ä¸Ĭ": 5292,
      "æıĲç±³è¯´": 5293,
      "çļĦå°ıåŃ©": 5294,
      "å¥¹çļĦå¦Īå¦Īå¾®ç¬ĳçĿĢè¯´": 5295,
      "èĭį": 5296,
      "ä¸īè§Ĵ": 5297,
      "æ¯Ľè¡£": 5298,
      "çļ®èĤ¤": 5299,
      "åĺİ": 5300,
      "åĴĮæľĭåıĭä»¬ä¸Ģèµ·çİ©": 5301,
      "ä¼łæĿ¥çļĦ": 5302,
      "æ³¥å·´": 5303,
      "åİŁæĿ¥æĺ¯": 5304,
      "æĬ¥çº¸": 5305,
      "æ¡ĥåŃĲ": 5306,
      "çĽ¾çīĮ": 5307,
      "çĿģå¼Ģçľ¼çĿĽ": 5308,
      "èľ·ç¼©": 5309,
      "å¥¹å¾Īé«ĺåħ´": 5310,
      "å¥¹æĦŁåĪ°å¾Ī": 5311,
      "å¥¹çľĭåĪ°äºĨä¸Ģåıª": 5312,
      "å¥¹æį¡èµ·": 5313,
      "çľĭä¸įåĪ°": 5314,
      "å¹¶åĳĬè¯ī": 5315,
      "å¹¶æĬĬå®ĥä»¬": 5316,
      "æĢ¨": 5317,
      "èĩªå·±æľĢåĸľæ¬¢çļĦ": 5318,
      "åıĪå®³æĢķ": 5319,
      "å¼Ģå§ĭæĦŁåĪ°": 5320,
      "çĶ¨ä»ĸçļĦ": 5321,
      "åĲĥä¸ľè¥¿": 5322,
      "èĲ¥": 5323,
      "èĢĮä¸įæĺ¯": 5324,
      "è¿ĺåľ¨": 5325,
      "æ·¡": 5326,
      "ç¤ģ": 5327,
      "æĬĬå®ĥæĶ¾åľ¨": 5328,
      "æľ¨çŃı": 5329,
      "ä¸īå²ģçļĦåŃ©åŃĲ": 5330,
      "æķ´å¤©éĥ½": 5331,
      "è¯¥æĢİä¹Īåģļ": 5332,
      "æ²³éĩĮ": 5333,
      "åĹ¯": 5334,
      "è¸ıä¸Ĭ": 5335,
      "åĲĲåı¸": 5336,
      "çįŃ": 5337,
      "ç£ģéĵģ": 5338,
      "ä¸īè§Ĵå½¢": 5339,
      "ä»ĸå·²ç»ı": 5340,
      "åĪĹ": 5341,
      "å¤©ä¸Ĭ": 5342,
      "å¾Īæ£Ĵ": 5343,
      "éĤ£åº§": 5344,
      "å¥½çİ©": 5345,
      "äºĨä¸ĢæĬĬ": 5346,
      "çľĭåĪ°çļĦ": 5347,
      "çİ°ä»£": 5348,
      "æĪĳä»¬èĥ½": 5349,
      "æ°´é¾Ļå¤´": 5350,
      "åĲ¬åĪ°äºĨä¸Ģä¸ª": 5351,
      "éĤ£åıªå°ıé¸Ł": 5352,
      "é£İæīĩ": 5353,
      "ä¹°äºĨ": 5354,
      "ä¿¡ä»»": 5355,
      "åĬªåĬĽåľ°": 5356,
      "ç¬Ķè®°æľ¬": 5357,
      "åĿļå¼º": 5358,
      "æľīä¸Ģä¸ªå°ıå¥³åŃ©åı«": 5359,
      "çĥ¦æģ¼": 5360,
      "è¿Ľåħ¥äºĨ": 5361,
      "è¿Ļä»¶äºĭ": 5362,
      "çľĭäºĨä¸Ģçľ¼": 5363,
      "çĴ": 5364,
      "çļĦäºĭ": 5365,
      "çļĦéĩįè¦ģæĢ§": 5366,
      "äºĨä»ĸä»¬": 5367,
      "ä»ĸç»§ç»Ń": 5368,
      "åĪ°æĿ¥": 5369,
      "å¦ĩ": 5370,
      "å°Ĭ": 5371,
      "åĴĸ": 5372,
      "éĿŀå¸¸å¿«ä¹Ĳ": 5373,
      "å¹¶ä¸º": 5374,
      "åĸľæ¬¢åĲĥ": 5375,
      "æ¸¯": 5376,
      "åģļé¥Ń": 5377,
      "æĬ±æĢ¨": 5378,
      "æ¸¸åİ»": 5379,
      "é»ı": 5380,
      "çľŁæ¼Ĥäº®": 5381,
      "çº¦ç¿°åĴĮ": 5382,
      "åĳ¼åĲ¸": 5383,
      "å¼ºå¤§çļĦ": 5384,
      "åĲ¸åıĸ": 5385,
      "å·¢éĩĮ": 5386,
      "åľ°éĿ¢ä¸Ĭ": 5387,
      "ä½İå¤´": 5388,
      "çļĦèĥĮ": 5389,
      "è¶³å¤ŁçļĦ": 5390,
      "è·Ŀç¦»": 5391,
      "ä¸´": 5392,
      "çļĦæĪ¿éĹ´": 5393,
      "äºĨèĩªå·±çļĦ": 5394,
      "ä»ĸå¸¦çĿĢ": 5395,
      "ä¹ĸ": 5396,
      "è¿Ļåľº": 5397,
      "è¿ĻèīĺèĪ¹": 5398,
      "ä»ĸä»¬éľĢè¦ģ": 5399,
      "ä¸įéľĢè¦ģ": 5400,
      "éĤ£åĦ¿": 5401,
      "æ¯ģäºĨ": 5402,
      "æĬĬä»ĸçļĦ": 5403,
      "æŃ»": 5404,
      "èµ°æĿ¥": 5405,
      "æµĵ": 5406,
      "è¿ĺä¼ļ": 5407,
      "èĴĤç±³çļĦ": 5408,
      "åķ¡": 5409,
      "å¹²èįī": 5410,
      "è¯¥åĽŀå®¶çļĦæĹ¶åĢĻ": 5411,
      "ä¸¤äºº": 5412,
      "ä¿¡å°ģ": 5413,
      "æ´»åĬĽ": 5414,
      "åĽŀæĿ¥æĹ¶": 5415,
      "æķĳæĬ¤": 5416,
      "æ¢¦è§ģ": 5417,
      "åľŁè±Ĩ": 5418,
      "çĹĽèĭ¦": 5419,
      "æľīä¸Ģä¸ªå°ıçĶ·åŃ©åı«": 5420,
      "ä¹ĺåĿĲ": 5421,
      "éĹŃä¸ĬäºĨçľ¼çĿĽ": 5422,
      "åĴĸåķ¡": 5423,
      "§éģĵ": 5424,
      "Ħæ¦": 5425,
      "ä»ĸå°±": 5426,
      "ä»ĸå¸ĮæľĽ": 5427,
      "çİ©ä¸Ģä¸ª": 5428,
      "åİĤ": 5429,
      "æľīä¸Ģå¼ł": 5430,
      "æľīä¸Ģæł¹": 5431,
      "ä½Ĩæİ¥çĿĢ": 5432,
      "ä¸ºå¥¹çļĦ": 5433,
      "åįĬ": 5434,
      "éļ§éģĵ": 5435,
      "é£ŀå¾Ĺ": 5436,
      "ç®Ĺ": 5437,
      "æĭ¿äºĨä¸ĢäºĽ": 5438,
      "æĬ±äºĨ": 5439,
      "åħ¨èº«": 5440,
      "çĽ´åĪ°ä»ĸ": 5441,
      "åĽŀåĪ°å±ĭéĩĮ": 5442,
      "å¼Ħä¸¢äºĨ": 5443,
      "æ©Ħæ¦": 5444,
      "æķħäºĭç»ĵæĿŁäºĨ": 5445,
      "åı¦ä¸Ģåıª": 5446,
      "ä¼łæĿ¥ä¸Ģä¸ªå£°éŁ³": 5447,
      "çĿ¡è§īäºĨ": 5448,
      "ä½Ĩå®ĥå¤ª": 5449,
      "æ¹¿éĢı": 5450,
      "åı¯çĪ±çļĦ": 5451,
      "åĲĦç§įåĲĦ": 5452,
      "èµ¢äºĨ": 5453,
      "èĻļå¼±": 5454,
      "è°¦éĢĬ": 5455,
      "ä¸¤ä½įæľĭåıĭ": 5456,
      "æ©Ħæ¦Ħ": 5457,
      "³èĨ": 5458,
      "ä»ĭ": 5459,
      "ä¸Ģé¦ĸ": 5460,
      "å¾Īè¿ľ": 5461,
      "åĴĮå°ı": 5462,
      "èİīèİīè§īå¾Ĺ": 5463,
      "ä½ĨæĪĳ": 5464,
      "è·ĳåĪ°äºĨ": 5465,
      "å¯¹å¾ħ": 5466,
      "è¿Ļä¸ªå¥³åŃ©": 5467,
      "æĸ°å®¶": 5468,
      "èĴĤå§Ĩè¯´": 5469,
      "æħİ": 5470,
      "çĶ»äºĨä¸Ģ": 5471,
      "çĻ½èī²çļĦ": 5472,
      "å¤«äºº": 5473,
      "è¢ĭé¼ł": 5474,
      "æĺ¯åĲ¦æĥ³": 5475,
      "åĲĵäºĨä¸Ģ": 5476,
      "ä¼¸å±ķ": 5477,
      "å¾Īå¤§çļĦå£°éŁ³": 5478,
      "çģ¯æ³¡": 5479,
      "ä½Ĩè¿ĻæĹ¶": 5480,
      "³èĨĬ": 5481,
      "ie": 5482,
      "½æĶ¾": 5483,
      "ä»ĸéĥ½": 5484,
      "å¥¹è¿«ä¸įåıĬå¾ħåľ°æĥ³": 5485,
      "åľ¨æĦı": 5486,
      "åľ¨éĻ¢åŃĲéĩĮ": 5487,
      "ä»ĸä»¬çľĭåĪ°äºĨ": 5488,
      "éĿŀå¸¸çĪ±": 5489,
      "ç»½æĶ¾": 5490,
      "éĤ£æľµ": 5491,
      "ä¸ĬåŃ¦": 5492,
      "æľīä¸ĢæĬĬ": 5493,
      "èİīèİīåĨ³å®ļ": 5494,
      "ä»ĸçļĦä¸»äºº": 5495,
      "é«ĺå¤§": 5496,
      "å¿«çĤ¹": 5497,
      "è°¨": 5498,
      "å¯¹çĿĢ": 5499,
      "é¢ĳ": 5500,
      "å¥¹çļĦå¦Īå¦ĪåĳĬè¯īå¥¹": 5501,
      "éķ¿éķ¿çļĦ": 5502,
      "å¯»æī¾ä¸Ģä¸ª": 5503,
      "è¾¾å¥ĩ": 5504,
      "è½»å£°": 5505,
      "ç¨³": 5506,
      "åĿıæİī": 5507,
      "å°½å¤´": 5508,
      "çķĻä¸ĭæĿ¥": 5509,
      "åıĮèĥŀ": 5510,
      "ç²¾å½©": 5511,
      "ç²¾ç¥ŀ": 5512,
      "æľīä»Ģä¹Īä¸ľè¥¿": 5513,
      "ä»İåīįæľīä¸Ģä¸ªå°ıå¥³åŃ©åı«": 5514,
      "æīĵæī°": 5515,
      "ä¿®å¥½å®ĥ": 5516,
      "éĴ¢çĲ´": 5517,
      "æĥ³åĪ°äºĨä¸Ģä¸ªä¸»æĦı": 5518,
      "æ¸¸ä¹Ĳåľº": 5519,
      "åĲĵäºĨä¸Ģè·³": 5520,
      "åıĮèĥŀèĥİ": 5521,
      "çļĦçī¹åĪ«": 5522,
      "çļĦå¿«ä¹Ĳ": 5523,
      "ä»ĸå°ıå¿ĥç¿¼ç¿¼åľ°": 5524,
      "ä»ĸçľĭåĪ°äºĨä¸Ģåıª": 5525,
      "å¥¹å°ıå¿ĥç¿¼ç¿¼åľ°": 5526,
      "åľ¨æłĳä¸Ĭ": 5527,
      "å°ıå±ĭ": 5528,
      "æĿ¥åĲ§": 5529,
      "éĿŀå¸¸å°ıå¿ĥ": 5530,
      "èĩªå·±çļĦä¸ľè¥¿": 5531,
      "åı¯ä»¥çİ©": 5532,
      "ä¹Łå¾Īå¼Ģå¿ĥ": 5533,
      "ä¹Łå¾Īé«ĺåħ´": 5534,
      "å¯¹ä»ĸè¯´": 5535,
      "æĪĲçļĦ": 5536,
      "ä¸Ńå¤®": 5537,
      "åĲįåı«èİīèİī": 5538,
      "æĭ¿èµ·äºĨ": 5539,
      "çļĦè¢": 5540,
      "å®ĥä»¬éĥ½": 5541,
      "æĹłå®³": 5542,
      "éĴ©": 5543,
      "éª¡åŃĲ": 5544,
      "åĥıæĺ¯": 5545,
      "çĪ¬æłĳ": 5546,
      "è·ĳåİ»æī¾": 5547,
      "çĳļ": 5548,
      "çļĦèĥ¡èĲĿåįľ": 5549,
      "å®¢æ°Ķ": 5550,
      "éĩĩæĳĺ": 5551,
      "äº«çĶ¨äºĨ": 5552,
      "å¹¿éĺĶ": 5553,
      "åħľé£İ": 5554,
      "çıĬçĳļ": 5555,
      "é¥¥é¥¿": 5556,
      "è°¨æħİ": 5557,
      "å¥¹çľĭçĿĢ": 5558,
      "å®ĩ": 5559,
      "å®ľ": 5560,
      "åľ¨åĽŀå®¶çļĦè·¯ä¸Ĭ": 5561,
      "èµĭ": 5562,
      "ä»ĸä»¬æĥ³è¦ģ": 5563,
      "å®ĥåı¯ä»¥": 5564,
      "éĿŀå¸¸éĩįè¦ģ": 5565,
      "ä¸įå¹¸": 5566,
      "æĪĳçİ°åľ¨": 5567,
      "æĥ³åĩºäºĨä¸Ģä¸ª": 5568,
      "ä¸Ģèµ·åĪĨäº«": 5569,
      "è·ĳåĽŀäºĨ": 5570,
      "æ£ĭ": 5571,
      "çĦ¶åĲİä»ĸä»¬ä¸Ģèµ·": 5572,
      "çĶ¨å¥¹çļĦ": 5573,
      "æĮ¤": 5574,
      "åĨįåĽŀæĿ¥": 5575,
      "åĲ¬çĿĢ": 5576,
      "èĴĤç±³è¯´": 5577,
      "éĤ£ä¸ªå¤§": 5578,
      "é©¬åħĭæĸ¯åĴĮ": 5579,
      "æĢ»ä¼ļ": 5580,
      "åķ¾": 5581,
      "æİīäºĨä¸ĭæĿ¥": 5582,
      "æ¿ĢåĩĮ": 5583,
      "ç¢Į": 5584,
      "åĨ°æ¿ĢåĩĮ": 5585,
      "å¼ĦåĿı": 5586,
      "åĲĵå¾Ĺ": 5587,
      "çŁ¥éģĵèĩªå·±å¿ħé¡»": 5588,
      "è¿ĲåĬ¨": 5589,
      "æĪĳä¼ļå¸®ä½ł": 5590,
      "æīĵå¼ĢäºĨéĹ¨": 5591,
      "å¾Īå¿«å°±ä¼ļ": 5592,
      "åĽ½å®¶": 5593,
      "çļĦèĦļ": 5594,
      "ï¼ĮâĢĻ": 5595,
      "æĺ¯æľĢ": 5596,
      "ä¸įå®ī": 5597,
      "æ¬ł": 5598,
      "èİīèİīæĦŁåĪ°": 5599,
      "ä½Ĩå¦Īå¦Ī": 5600,
      "æĸ§": 5601,
      "åı«å£°": 5602,
      "åĳĨ": 5603,
      "æ°´çįŃ": 5604,
      "çļĦå°ıèĢģé¼ł": 5605,
      "è¢ľåŃĲ": 5606,
      "æŁ´": 5607,
      "éĹªçĶµ": 5608,
      "èľ¥èľ´": 5609,
      "æ¯Ľç»Ĵ": 5610,
      "å¿ĻçĿĢ": 5611,
      "è½¬èº«": 5612,
      "çĶµèĦĳ": 5613,
      "å½ĵä»ĸåĪ°è¾¾": 5614,
      "åĴĮä»ĸçļĦæľĭåıĭ": 5615,
      "èĥ½å¤Łå¸®åĬ©": 5616,
      "ä»»ä½ķäºĭæĥħ": 5617,
      "ç²īç¬Ķ": 5618,
      "ç²¾èĩ´": 5619,
      "æĶ¯æĮģ": 5620,
      "åĨ²æµª": 5621,
      "èµ¢å¾ĹäºĨ": 5622,
      "æ²Ļæ»©ä¸Ĭ": 5623,
      "æķĳæĬ¤è½¦": 5624,
      "ä¸Ģè¯ķ": 5625,
      "å¾Īåį±éĻ©": 5626,
      "è¿Ļå¯¹": 5627,
      "æĿ¥åĪ°äºĨä¸Ģ": 5628,
      "éĿŀå¸¸æ»¡æĦı": 5629,
      "è¯´ä»ĸ": 5630,
      "æĸ½": 5631,
      "è½¨": 5632,
      "èµ°åĲ§": 5633,
      "æĪĳä»¬å¿ħé¡»": 5634,
      "æľĢå¥½": 5635,
      "åħ¬äº¤": 5636,
      "é©¯": 5637,
      "ä»İéĤ£ä¸Ģå¤©": 5638,
      "åıĺåĮĸ": 5639,
      "å°ıå¿ĥçĤ¹": 5640,
      "æľĽåĲĳ": 5641,
      "åĲĮæĥħ": 5642,
      "å¿Ļç¢Į": 5643,
      "æĶ¶åĪ°": 5644,
      "èĪ¹ä¸Ĭ": 5645,
      "æķĻå®¤": 5646,
      "åĴĮä»ĸçļĦçĪ¸çĪ¸": 5647,
      "ä¸Ģæ¬¡åıĪä¸Ģæ¬¡": 5648,
      "åĪ°å¤ĸéĿ¢çİ©": 5649,
      "åĿļåĽº": 5650,
      "æĪĲä¸ºæľĭåıĭ": 5651,
      "éªĳèĩªè¡Įè½¦": 5652,
      "å¹²åĩĢäºĨ": 5653,
      "æ©¡æłĳ": 5654,
      "æĺ¾å¾Ĺ": 5655,
      "æµ´å®¤": 5656,
      "èĸĦèį·": 5657,
      "å¼¯ä¸ĭèħ°": 5658,
      "æ¸¸æĿ¥æ¸¸åİ»": 5659,
      "ä»ĸè·³": 5660,
      "ä»ĸä¸įåģľåľ°": 5661,
      "ä»ĸæį¡èµ·": 5662,
      "æľ«": 5663,
      "è¯¢": 5664,
      "éĿŀå¸¸èģªæĺİ": 5665,
      "æľīä¸ĢåĿĹ": 5666,
      "æĥ³åĴĮ": 5667,
      "äºĨä¸Ģä»½": 5668,
      "æĬĬæīĢæľīçļĦ": 5669,
      "è¦Ĩ": 5670,
      "åıĪå¼Ģå§ĭ": 5671,
      "å¤ªå¤§äºĨ": 5672,
      "ï¼ģâĢĿâĢľ": 5673,
      "æľīä¸Ģåıªå°ıé¸Ł": 5674,
      "è´©": 5675,
      "æħķ": 5676,
      "æķ´é½Ĳ": 5677,
      "çľĭçĿĢä»ĸ": 5678,
      "æµ·çĽĹ": 5679,
      "çĪ¬åĪ°äºĨ": 5680,
      "ä½Ĩä»ĸè¿ĺæĺ¯": 5681,
      "ä¿ĿæĮģå®īåħ¨": 5682,
      "ä¿ĿæĮģå¹³è¡¡": 5683,
      "åİ»åħ¬åĽŃæķ£æŃ¥": 5684,
      "çıįæĥľ": 5685,
      "æĳĶåĢĴ": 5686,
      "éĩĳå±ŀ": 5687,
      "æŁĲä¸ª": 5688,
      "çĶ¨å®ĥæĿ¥": 5689,
      "åĸĦèī¯çļĦå¥³å£«": 5690,
      "æģ¶å¿ĥ": 5691,
      "æı¡ä½ı": 5692,
      "å°ıéķĩä¸Ĭ": 5693,
      "çĮİäºº": 5694,
      "ä»°æľĽ": 5695,
      "å¹½çģµ": 5696,
      "»çĴ": 5697,
      "äºĨè¿Ļä¸ª": 5698,
      "åĲ¯": 5699,
      "çİ»çĴ": 5700,
      "çľĭåİ»": 5701,
      "ä¸įå®¢æ°Ķ": 5702,
      "ï¼ģâĢľ": 5703,
      "éĩĮçİ©": 5704,
      "å¥½å¿ĥ": 5705,
      "ä¸ĭå®ļ": 5706,
      "é«ĺåıĪ": 5707,
      "å½ĵä½ł": 5708,
      "æĪĳä»¬è¦ģ": 5709,
      "é«ĺåħ´å¾Ĺ": 5710,
      "ä»Ģä¹Īä¸ľè¥¿": 5711,
      "çĤ¹ä¸ľè¥¿": 5712,
      "æ°´èĬ±": 5713,
      "è¿ĺç»ĻäºĨ": 5714,
      "æ¼Ĩ": 5715,
      "é©¬åħĭæĸ¯çļĦ": 5716,
      "å®ĥä»¬çļĦ": 5717,
      "çĽ¸æľº": 5718,
      "å·¥åİĤ": 5719,
      "å·´åħ¹": 5720,
      "çĶľçĤ¹": 5721,
      "çİĽä¸½äºļ": 5722,
      "åĨħå¿ĥ": 5723,
      "åľ¨ä¸Ģçīĩ": 5724,
      "æł¼èķ¾": 5725,
      "èĢĲå¿ĥåľ°": 5726,
      "æīĩéĹ¨": 5727,
      "åĵĪåĪ©": 5728,
      "æĲŃå»º": 5729,
      "æ²Ļåıĳä¸Ĭ": 5730,
      "æ©±æŁľ": 5731,
      "é²ľèī³çļĦ": 5732,
      "çĻ»": 5733,
      "ä¸ĢåĽ¢ç³Ł": 5734,
      "ç§ĥå¤´": 5735,
      "ä¹ĲäºİåĬ©äºº": 5736,
      "åħ¬äº¤è½¦": 5737,
      "ä»İéĤ£ä¸Ģå¤©èµ·": 5738,
      "çİ»çĴĥ": 5739,
      "ä»ĸä¸º": 5740,
      "å¥¹èĥ½": 5741,
      "å¥¹ç»§ç»Ń": 5742,
      "å¥¹ä¸įæĥ³": 5743,
      "å¾Īçī¹åĪ«": 5744,
      "å®ĥæĥ³è¦ģ": 5745,
      "ä¸įåı¯": 5746,
      "ä¸įç¡®å®ļ": 5747,
      "å¹¶å°Ĩ": 5748,
      "æľīä¸Ģä¸ªå°ı": 5749,
      "æĪĳä»¬çİ°åľ¨": 5750,
      "åĬ¨çĿĢ": 5751,
      "è¿Ļä¸ªçĲĥ": 5752,
      "è¶¾": 5753,
      "æīĭæľº": 5754,
      "åĲĥæĻļé¥Ń": 5755,
      "æ°´æīĭ": 5756,
      "é¡µ": 5757,
      "è¯ķä¸Ģè¯ķ": 5758,
      "æŀľå®ŀ": 5759,
      "æł·ä¸ľè¥¿": 5760,
      "æ°Ķåĳ³": 5761,
      "åĽŀå®¶çļĦæĹ¶éĹ´": 5762,
      "æ¼Ĥäº®çļĦè£ĻåŃĲ": 5763,
      "æ¤°": 5764,
      "è¡¨è¾¾": 5765,
      "æį¡äºĨèµ·æĿ¥": 5766,
      "æ£®æŀĹéĩĮæķ£æŃ¥": 5767,
      "è¿Ļä¹Īåģļ": 5768,
      "éĿłè¿ĳæĹ¶": 5769,
      "çĽ®æłĩ": 5770,
      "æłĩè®°": 5771,
      "åĵĪæ¬ł": 5772,
      "ç®ĢçĽ´ä¸įæķ¢çĽ¸ä¿¡èĩªå·±çļĦçľ¼çĿĽ": 5773,
      "é©¯é¹¿": 5774,
      "Li": 5775,
      "ĢçīĽ": 5776,
      "çļĦçľ¼çĿĽ": 5777,
      "ä¸ĢåĲį": 5778,
      "åıīåŃĲ": 5779,
      "å¥¹ç»ĻäºĨ": 5780,
      "å¥¹çİ¯é¡¾åĽĽåĳ¨": 5781,
      "å¤©èĬ±": 5782,
      "è¿Ļæŀļ": 5783,
      "ä»ĸä»¬ç¬ĳçĿĢ": 5784,
      "èİīèİīåĴĮå¥¹çļĦ": 5785,
      "éģĹ": 5786,
      "æĥ³åĪ°ä¸Ģä¸ª": 5787,
      "å¾Ĺå¤ļ": 5788,
      "çľĭåĪ°å¥¹": 5789,
      "åĩºçİ°åľ¨": 5790,
      "æľĢå¤§çļĦ": 5791,
      "åĲĥé¥Ń": 5792,
      "æ²¡æľīæĶ¾å¼ĥ": 5793,
      "çļĦèģ": 5794,
      "éĩįçļĦ": 5795,
      "éĴīåŃĲ": 5796,
      "çŃĶæ¡Ī": 5797,
      "å¹²å¾Ĺå¥½": 5798,
      "ç®±éĩĮ": 5799,
      "æ³¢èİī": 5800,
      "çĵ£": 5801,
      "æĮ¥æīĭéģĵåĪ«": 5802,
      "çĬĢçīĽ": 5803,
      "ä¾¿å®ľ": 5804,
      "çģµæ´»": 5805,
      "æ½ľ": 5806,
      "èĮīèİī": 5807,
      "ä»ĸèĥ½": 5808,
      "ä»ĸèµ°åĪ°": 5809,
      "éĿŀå¸¸åıĭå¥½": 5810,
      "èİīèİīå¾Ī": 5811,
      "èµ°åĪ°äºĨ": 5812,
      "å¿«çļĦ": 5813,
      "æĪĳä»¬ä¸įèĥ½": 5814,
      "å¾®é£İ": 5815,
      "æĶ¾ä¸ĭ": 5816,
      "éĩįå¤į": 5817,
      "å¤ĦçĲĨ": 5818,
      "å±±ç¾Ĭ": 5819,
      "ç¥ĸ": 5820,
      "çħ®": 5821,
      "èĭıèĮľ": 5822,
      "çĶµæ¢¯": 5823,
      "éĽ¨æ°´": 5824,
      "åĮħè£ħ": 5825,
      "åĴĮä»ĸçļĦå®¶äºº": 5826,
      "å¼ĦåĿıäºĨ": 5827,
      "æĳĩçĿĢ": 5828,
      "æ¸ħæ´ģ": 5829,
      "ä»ĸçľĭåĪ°ä¸Ģåıª": 5830,
      "èİīèİīçļĦå¦Īå¦Īè®©å¥¹": 5831,
      "ç»ĻäºĨä»ĸä¸Ģä¸ªå¤§å¤§çļĦæĭ¥æĬ±": 5832,
      "æģ¢å¤įäºĨ": 5833,
      "åģļäºĽä»Ģä¹Ī": 5834,
      "Timmy": 5835,
      "åħĭæĭīæĭī": 5836,
      "éĵ²åŃĲ": 5837,
      "èĹ¤èĶĵ": 5838,
      "å¤©èĬ±æĿ¿": 5839,
      "¡æħķ": 5840,
      "ä¸Ģé¡¶": 5841,
      "ä»ĸä¸įçŁ¥éģĵ": 5842,
      "å¿½": 5843,
      "è¿Ļæľ¬ä¹¦": 5844,
      "ä»ĸä»¬å¾Īå¼Ģå¿ĥ": 5845,
      "åĴĮèĩªè±ª": 5846,
      "ä¸įäºĨ": 5847,
      "èİīèİīçŁ¥éģĵ": 5848,
      "ä½Ĩå½ĵå¥¹": 5849,
      "éĿ¢åĽ¢": 5850,
      "æĦıå¤ĸ": 5851,
      "ç¾¡æħķ": 5852,
      "å¸®åĬ©å®ĥ": 5853,
      "è¿Ļåıªå°ıçĭĹ": 5854,
      "åı£é¦Ļ": 5855,
      "ä¸īä¸ª": 5856,
      "å¤ŁåĪ°": 5857,
      "æİīä¸ĭæĿ¥": 5858,
      "æĪĳçļĦæľĭåıĭ": 5859,
      "æīĵå¼ĢçĽĴåŃĲ": 5860,
      "éĩİçĶŁ": 5861,
      "ç²īèī²çļĦ": 5862,
      "æī¾åĪ°äºĨä¸Ģæł¹": 5863,
      "æĺ¯ä»Ģä¹ĪæĦıæĢĿ": 5864,
      "æ¡¶éĩĮ": 5865,
      "å½±åŃĲ": 5866,
      "èµ°è¿ĽæĪ¿éĹ´": 5867,
      "æĸĳé©¬": 5868,
      "åĩ¯çī¹": 5869,
      "æĩĤ": 5870,
      "æ©Ļèī²çļĦ": 5871,
      "åĸľæ¬¢åľ¨å¤ĸéĿ¢çİ©èĢį": 5872,
      "æµĩæ°´": 5873,
      "ç±³é¡¿æĸ¯": 5874,
      "æ¤°èıľ": 5875,
      "çļĦå»ºè®®": 5876,
      "ä¸Ģå¼Ģå§ĭ": 5877,
      "äºĨä¸įèµ·": 5878,
      "å¥¹éľĢè¦ģ": 5879,
      "å¥¹æĦŁè°¢äºĨ": 5880,
      "å¸ĺ": 5881,
      "æľīä¸Ģå¤´": 5882,
      "ç±³çī¹": 5883,
      "ä¼ļå¾Īæľīè¶£": 5884,
      "é«ĺçļĦ": 5885,
      "èµ°åķĬ": 5886,
      "éĿ¢å¸¦": 5887,
      "åĵİ": 5888,
      "çĶ¨èĩªå·±çļĦ": 5889,
      "çļĦå°ıçĨĬ": 5890,
      "éļ¾ä»¥": 5891,
      "é©¬åħĭæĸ¯è¯´": 5892,
      "ä¼¤åĪ°äºĨ": 5893,
      "åķ¦": 5894,
      "ä»ĸä»¬ä¸Ģèµ·çİ©å¾Ĺå¾Īå¼Ģå¿ĥ": 5895,
      "åĸĬåı«": 5896,
      "åĸĦèī¯åĴĮ": 5897,
      "åħ¥çĿ¡": 5898,
      "å¤ªéĺ³ä¸ĭå±±": 5899,
      "åĺ²": 5900,
      "è§£éĩĬéģĵ": 5901,
      "æ»ĳç¨½çļĦ": 5902,
      "åı²èĴĤ": 5903,
      "è¸ıä¸ĬäºĨ": 5904,
      "åįĩèµ·": 5905,
      "åĽºæī§": 5906,
      "å°ģä¿¡": 5907,
      "æĤĦæĤĦ": 5908,
      "çļĦèħ¿": 5909,
      "ç¨Ģæľī": 5910,
      "éģµå®Ī": 5911,
      "å°Ĭéĩį": 5912,
      "æ¸¯åı£": 5913,
      "è¯¢éĹ®": 5914,
      "åı£é¦Ļç³ĸ": 5915,
      "çļĦçĪ¶æ¯į": 5916,
      "çļĦæł·åŃĲ": 5917,
      "æĺ¯æĪĳ": 5918,
      "ä¹¡": 5919,
      "å°ıéĿĴèĽĻ": 5920,
      "ä»ĸä»¬åİ»": 5921,
      "æĥ°": 5922,
      "åĴĮå°ıé¸Ł": 5923,
      "æĪĳå¸ĮæľĽ": 5924,
      "ä¼į": 5925,
      "åīįè¿Ľ": 5926,
      "å¹¶æİ¢ç´¢": 5927,
      "å¹¶ä¸İ": 5928,
      "äºĨä¸Ģç§į": 5929,
      "ä¸Ģèµ·çİ©å¾Ĺå¾Īå¼Ģå¿ĥ": 5930,
      "åĿ¦": 5931,
      "è°ľ": 5932,
      "å¤´éª¨": 5933,
      "åĲĥåħīäºĨ": 5934,
      "é£ŀäºĨ": 5935,
      "å¾®éķľ": 5936,
      "æĿ°è¥¿": 5937,
      "ä¸ĢäºĽé£Łçī©": 5938,
      "å®ĮäºĨ": 5939,
      "æĬĬå®ĥå¸¦åĽŀå®¶": 5940,
      "æ¡ĳ": 5941,
      "å¹¶ä¸Ķåĸľæ¬¢": 5942,
      "å¸¦çĿĢå®ĥ": 5943,
      "çħ§èĢĢ": 5944,
      "å°Ŀè¯ķæĸ°äºĭçī©": 5945,
      "çĥŃæĥħ": 5946,
      "æŀ¶åŃĲä¸Ĭ": 5947,
      "èİīèİīåĴĮé©¬åħĭæĸ¯": 5948,
      "æĦŁè§īå¥½äºĽ": 5949,
      "è§Ĩé¢ĳ": 5950,
      "æµĭè¯ķ": 5951,
      "çģ¯åħī": 5952,
      "æĺ¾å¾®éķľ": 5953,
      "åħ¶ä¸Ńä¸Ģä¸ª": 5954,
      "å¸ĮæľĽèĩªå·±èĥ½": 5955,
      "çľ¨çľ¼": 5956,
      "æĩĴæĥ°": 5957,
      "Lily": 5958,
      "äº§": 5959,
      "çļĦåı¦ä¸Ģè¾¹": 5960,
      "ä»ĸè·ĳåĲĳ": 5961,
      "è¿°": 5962,
      "å¦Ĩ": 5963,
      "æĺ¯ä¸ºäºĨ": 5964,
      "ä»ĸä»¬ä¸¤ä¸ª": 5965,
      "åĴĮçİ©åħ·": 5966,
      "èİīèİīå¾Īä¼¤å¿ĥ": 5967,
      "æĥ³èµ·äºĨ": 5968,
      "ä½ĨæľĢç»Ī": 5969,
      "æĬĬè¿Ļä¸ª": 5970,
      "æĬĬè¿ĻäºĽ": 5971,
      "åı«ä»Ģä¹Ī": 5972,
      "å®¶éĹ¨": 5973,
      "æ¯ıå½ĵå¥¹": 5974,
      "ç§Ł": 5975,
      "æĽ´å¥½çļĦ": 5976,
      "æīĢæľīæľĭåıĭ": 5977,
      "çľĭçĿĢå¥¹": 5978,
      "ç»§ç»Ńçİ©": 5979,
      "è¿Ļæł·å¥¹": 5980,
      "çīĽæİĴ": 5981,
      "çªĹå¸ĺ": 5982,
      "çİĭåĽ½": 5983,
      "éĢĥè·ĳäºĨ": 5984,
      "å¥ĸæĿ¯": 5985,
      "èĳ±": 5986,
      "è°Īè®º": 5987,
      "åĪ°å¤ĸéĿ¢åİ»çİ©": 5988,
      "æ¨¡åŀĭ": 5989,
      "èĦ¾æ°Ķæļ´èºģ": 5990,
      "æĮ¥äºĨæĮ¥æīĭ": 5991,
      "è¦ĨçĽĸ": 5992,
      "en": 5993,
      "Ģåļ¼": 5994,
      "ä»ĸçĶļèĩ³": 5995,
      "ä»ĸåıªæľīä¸īå²ģ": 5996,
      "åı½": 5997,
      "å¦»åŃĲ": 5998,
      "åľ¨éĩĮéĿ¢": 5999,
      "åĴĢåļ¼": 6000,
      "ä»ĸä»¬ä¹Ł": 6001,
      "å®ĥäºĨ": 6002,
      "ç»ĩ": 6003,
      "åľ°è¯´éģĵ": 6004,
      "åİ»æİ¢éĻ©": 6005,
      "å¹¶éĹ®": 6006,
      "ä½łäºĨ": 6007,
      "å¥¹çļĦå¼Łå¼Ł": 6008,
      "æıī": 6009,
      "äºİæĺ¯ä»ĸåĨ³å®ļ": 6010,
      "æĪĳä»¬å¾Ĺ": 6011,
      "æĸ¯æ´¾": 6012,
      "åħ´å¥ĭäºĨ": 6013,
      "æľºåľº": 6014,
      "æ¡Ĩ": 6015,
      "å¼łå¼Ģ": 6016,
      "çľ¼æ³ª": 6017,
      "éĵº": 6018,
      "åĵŃäºĨ": 6019,
      "ç¡®ä¿¡": 6020,
      "åĨ°åĨ·": 6021,
      "åĿıäºº": 6022,
      "èĲ½åľ¨": 6023,
      "çº¸ä¸Ĭ": 6024,
      "è¿Ļä¹Īå¤ļ": 6025,
      "å®ĮæĪĲæĹ¶": 6026,
      "éĽªåľ°éĩĮ": 6027,
      "æ´ŀç©´éĩĮ": 6028,
      "ä¸įæĺİçĻ½ä¸ºä»Ģä¹Ī": 6029,
      "éļĲèĹı": 6030,
      "å¦ĩäºº": 6031,
      "æĸ§å¤´": 6032,
      "er": 6033,
      "·é«": 6034,
      "çļĦåħĶåŃĲ": 6035,
      "ä»ĸåĸĬéģĵ": 6036,
      "ä½Ľ": 6037,
      "å°ıçĮª": 6038,
      "å¼ĵ": 6039,
      "æĿ¥æī¾": 6040,
      "ä»ĸä»¬æ¯ıå¤©éĥ½": 6041,
      "å¦Īå¦Īåľ¨": 6042,
      "æĪĳåı«": 6043,
      "æľīä¸Ģå¤§": 6044,
      "èİīèİīåĴĮå¥¹çļĦæľĭåıĭä»¬": 6045,
      "æĭĻ": 6046,
      "å¹¶ä¸ºèĩªå·±": 6047,
      "ä¸ĭä¸Ģæ¬¡": 6048,
      "åıĳåĬ¨": 6049,
      "å¼Ģå§ĭåĲĥ": 6050,
      "çİ©åħ·åĴĮ": 6051,
      "æīĭæĮĩ": 6052,
      "åĲ¬è¯´": 6053,
      "çĽ´åįĩ": 6054,
      "åıĺæĪĲäºĨ": 6055,
      "éĤ£åıªèĿ´èĿ¶": 6056,
      "éª·é«": 6057,
      "å¥¹åĸľæ¬¢åľ¨éĺ³åħīä¸ĭ": 6058,
      "ç½ļ": 6059,
      "æł¹æľ¬": 6060,
      "æĳĩæĳĨ": 6061,
      "æĳĶäºĨä¸ĭæĿ¥": 6062,
      "åı°ä¸Ĭ": 6063,
      "éĹªéĹªåıĳåħīçļĦä¸ľè¥¿": 6064,
      "å¾Ĺå¤ªå¿«äºĨ": 6065,
      "æł¼å¤ĸ": 6066,
      "æĮĳæĪĺ": 6067,
      "çľ¨äºĨ": 6068,
      "æĿĤå¿Ĺ": 6069,
      "ç¬¨æĭĻ": 6070,
      "ä»¿ä½Ľ": 6071,
      "è´Ńçī©": 6072,
      "çĦ¦èĻĳ": 6073,
      "ä¸įå¹¸çļĦæĺ¯": 6074,
      "åı«ä»Ģä¹ĪåĲįåŃĹ": 6075,
      "çĽ´åįĩæľº": 6076,
      "éª·é«ħ": 6077,
      "ķéº¦": 6078,
      "ï¼Ľ": 6079,
      "çļĦçĲĥ": 6080,
      "çļĦåĳ³éģĵ": 6081,
      "è¿Ł": 6082,
      "å¾ĪåĨ·": 6083,
      "ä»ĸä»¬éĥ½ä¼ļ": 6084,
      "ä»ĸä»¬ä¸ĢçĽ´": 6085,
      "éĤ£æ£µ": 6086,
      "éģĵçĲĨ": 6087,
      "ä½łæĥ³è¦ģ": 6088,
      "è·ĳè¿Ľ": 6089,
      "å¼Ģå§ĭçİ©": 6090,
      "æīĭçĶµçŃĴ": 6091,
      "çŃ¾": 6092,
      "äº®äºĨèµ·æĿ¥": 6093,
      "èĴĤå§ĨçļĦå¦Īå¦Ī": 6094,
      "çİ©å¾Ĺå¤ª": 6095,
      "åģľäºĨ": 6096,
      "è¿ľäºĨ": 6097,
      "è£ħè¿Ľ": 6098,
      "æ£ĴçĲĥ": 6099,
      "ä¹°ä¸ĭ": 6100,
      "çŃīåĪ°": 6101,
      "åıĳçİ°äºĨä¸ĢåĿĹ": 6102,
      "æ·±å¤Ħ": 6103,
      "æĮĩåĲĳ": 6104,
      "æīĺçĽĺ": 6105,
      "åıĳçİ°äºĨä¸Ģä¸ªå¤§": 6106,
      "åº¦è¿ĩäºĨç¾İå¥½çļĦä¸Ģå¤©": 6107,
      "çģ°èī²çļĦ": 6108,
      "çĩķéº¦": 6109,
      "çļĦåľ°": 6110,
      "å¥¹æĭ¥æĬ±äºĨ": 6111,
      "å¥¹è·ĳåĪ°": 6112,
      "åľ£": 6113,
      "åĴĮé©¬åħĭæĸ¯": 6114,
      "åİ»æķ£æŃ¥": 6115,
      "å¥¹çļĦåĵ¥åĵ¥": 6116,
      "å®¶ä¼Ļ": 6117,
      "åĩºç§Ł": 6118,
      "èµ°å¼Ģ": 6119,
      "å±ı": 6120,
      "å¤´é¡¶": 6121,
      "é«ĺåħ´æŀģäºĨ": 6122,
      "æ¯ıæĻļ": 6123,
      "æĮ£": 6124,
      "åĨįçİ©": 6125,
      "åĲĳä»ĸä»¬": 6126,
      "æ°´æ¯į": 6127,
      "æĽ¿": 6128,
      "é©¬æĸ¯": 6129,
      "æ¯Ķä»¥åīį": 6130,
      "æĿ°åħĭçļĦå°ıçĶ·åŃ©": 6131,
      "çļĦäºĭæĥħåıĳçĶŁäºĨ": 6132,
      "èµ°äºĨè¿Ľåİ»": 6133,
      "å°Ķå¤«": 6134,
      "ç¼ĸ": 6135,
      "æķĻä»ĸ": 6136,
      "çļĦå¤§æłĳ": 6137,
      "é¡¶éĥ¨": 6138,
      "æīĺé©¬æĸ¯": 6139,
      "åĪ°å¤Ħæī¾": 6140,
      "å¼Ģå§ĭåĵŃäºĨ": 6141,
      "å½ĵä»ĸä»¬åĪ°è¾¾æĹ¶": 6142,
      "åĨľåľºéĩĮ": 6143,
      "æĴŀåĪ°äºĨ": 6144,
      "åº¦è¿ĩäºĨä¸Ģæ®µç¾İå¥½çļĦæĹ¶åħī": 6145,
      "æĬĢå·§": 6146,
      "çļĦè´Ŀ": 6147,
      "è¶ħçº§": 6148,
      "æł¼èķ¾ä¸Ŀ": 6149,
      "æĳĩçĿĢå°¾å·´": 6150,
      "äºĨæķĻè®Ń": 6151,
      "åĪ®": 6152,
      "å¥¹è·ĳåĲĳ": 6153,
      "å°ĺ": 6154,
      "å¾Īæ¼Ĥäº®": 6155,
      "ä»ĸä»¬çİ©": 6156,
      "åĸ³": 6157,
      "å¿ĥä¸Ń": 6158,
      "çī§": 6159,
      "ä½Ĩå¦Īå¦Īè¯´": 6160,
      "æ¬¢å¿«åľ°": 6161,
      "ä½łæĦ¿æĦı": 6162,
      "çĽĨ": 6163,
      "èĴ¸": 6164,
      "åĿĬ": 6165,
      "æıĲåĩº": 6166,
      "çĦ¶åĲİé£ŀèµ°äºĨ": 6167,
      "æŃ£åĩĨå¤ĩ": 6168,
      "éķ¯": 6169,
      "ä¸Ģåıªå¤§": 6170,
      "ç»ĵäº¤": 6171,
      "ä»ĸçļĦå¦Īå¦Īå¾®ç¬ĳçĿĢè¯´": 6172,
      "å±ķå¼Ģ": 6173,
      "æĤĶ": 6174,
      "æ©ĻåŃĲ": 6175,
      "æīĵå¼Ģå®ĥ": 6176,
      "å¥½å¥ĩå¿ĥ": 6177,
      "èĿ´èĿ¶ç»ĵ": 6178,
      "éĻĦè¿ĳçļĦä¸Ģ": 6179,
      "éĤ£å¤©ç¨į": 6180,
      "æ¬£åĸľ": 6181,
      "åıĭåĸĦçļĦ": 6182,
      "éĤ£è¾Ĩè½¦": 6183,
      "è¾£æ¤Ĵ": 6184,
      "å¨ģå°Ķ": 6185,
      "å¸ķçī¹": 6186,
      "å®ŀåľ¨å¤ª": 6187,
      "å¹¸ç¦ıåľ°çĶŁæ´»åľ¨ä¸Ģèµ·": 6188,
      "æĵįåľº": 6189,
      "ä¸ĭå®ļåĨ³å¿ĥ": 6190,
      "åĺ²ç¬ĳ": 6191,
      "åı²èĴĤå¤«": 6192,
      "©ç½ļ": 6193,
      "ĳèı": 6194,
      "ĺĳèı": 6195,
      "ä¸Ģæľµ": 6196,
      "å¥¹åĴĮå¦Īå¦Ī": 6197,
      "æĺ¯æĪĳçļĦ": 6198,
      "æĺ¯å¦ĤæŃ¤": 6199,
      "è¿Ļæ£µ": 6200,
      "è¿Ļåı°": 6201,
      "è¿Ļä»½": 6202,
      "ä»ĸä»¬æŃ£åľ¨": 6203,
      "å®ĥåıĪå¤§åıĪ": 6204,
      "æĥ©ç½ļ": 6205,
      "æĪĳä¸įä¼ļ": 6206,
      "èİīèİīç¬ĳçĿĢè¯´": 6207,
      "ä½Ĩå½ĵä»ĸ": 6208,
      "ç¬ĳä¸ªä¸įåģľ": 6209,
      "åģİ": 6210,
      "èīº": 6211,
      "å®¶éĻĦè¿ĳçļĦ": 6212,
      "åı¯ä»¥çļĦ": 6213,
      "çī©ä½ĵ": 6214,
      "å±Ĥ": 6215,
      "èİīèİīçļĦå¥³åŃ©": 6216,
      "çī¹åĪ«åĸľæ¬¢": 6217,
      "è¡Įé©¶": 6218,
      "ä¿Ŀç½Ĺ": 6219,
      "éķ¿ç¬Ľ": 6220,
      "åĽŀå®¶æĹ¶": 6221,
      "èī¾æ¯Ķ": 6222,
      "è®°å½ķ": 6223,
      "è¿Ļæł·ä»ĸ": 6224,
      "å¾Īå¤ļä¸ľè¥¿": 6225,
      "æĮ¥èĪŀ": 6226,
      "æĪ´ä¸ĬäºĨ": 6227,
      "ä¸İä¼Ĺ": 6228,
      "åľ¨åħ¬åĽŃéĩĮæķ£æŃ¥": 6229,
      "äº«åıĹä¹Ĳè¶£": 6230,
      "å¢¨": 6231,
      "æ»ĳæ¢¯ä¸Ĭ": 6232,
      "å¯Ĩæĸ¯": 6233,
      "äºĴçĽ¸å¸®åĬ©": 6234,
      "åıĮèĩĤ": 6235,
      "ä½ıåľ¨ä¸Ģåº§": 6236,
      "ä»İæŃ¤ä»¥åĲİ": 6237,
      "åı²å¯Ĩæĸ¯": 6238,
      "çļĦèľ¡": 6239,
      "åĩ¶æģ¶": 6240,
      "åĩ¶çĮĽ": 6241,
      "çļĦèº«ä½ĵ": 6242,
      "èµ°åķĬèµ°": 6243,
      "çļĦè´Ŀå£³": 6244,
      "ĺĳèıĩ": 6245,
      "µå£«": 6246,
      "å¥¹æĬĬå®ĥ": 6247,
      "è¿¹": 6248,
      "åľ¨è·¯ä¸Ĭ": 6249,
      "å¤©èµĭ": 6250,
      "è¿Ļæľµ": 6251,
      "æĿ¥å¸®å¿Ļ": 6252,
      "ä»ĸä»¬å¯¹": 6253,
      "ä¸įå¼Ģå¿ĥ": 6254,
      "åĨ¬": 6255,
      "åİ»åģļ": 6256,
      "ä½Ĩæ²¡æľīäºº": 6257,
      "åıªéľĢè¦ģ": 6258,
      "çĪµå£«": 6259,
      "äºĨä¸ĢåľĪ": 6260,
      "ä½łå¾Ĺ": 6261,
      "æľīä¸Ģå¤©æĻļä¸Ĭ": 6262,
      "å¼Ģå¿ĥåıĪ": 6263,
      "åı¯ä»¥åĲĥ": 6264,
      "ç»Ļå¥¹çļĦ": 6265,
      "äºİæĺ¯å¼Ģå§ĭ": 6266,
      "åģļæľĭåıĭ": 6267,
      "åħ¬å¹³": 6268,
      "æīĭèĩĤ": 6269,
      "æĿ°çĳŀ": 6270,
      "åħ¨éĥ¨": 6271,
      "å±±è°·": 6272,
      "åĲĮæł·": 6273,
      "æĢİä¹Īæł·": 6274,
      "èİīèİīçļĦå¦Īå¦ĪåĳĬè¯īå¥¹": 6275,
      "æ³³æ±ł": 6276,
      "èĦļè¶¾": 6277,
      "ä»Ķç»Ĩè§Ĥå¯Ł": 6278,
      "éŁ³ä¹Ĳå®¶": 6279,
      "ä¾Ŀåģİ": 6280,
      "ç½ĲåŃĲéĩĮ": 6281,
      "éģĩåĪ°äºĨä¸Ģä½į": 6282,
      "æ··åĲĪåľ¨ä¸Ģèµ·": 6283,
      "åĩłå¤©åĲİ": 6284,
      "åıĳåĬ¨æľº": 6285,
      "çļĦè¡£æľį": 6286,
      "ä»ĸè¯´éģĵ": 6287,
      "å¥¹èµ°åĪ°": 6288,
      "å®Ļ": 6289,
      "è¿Ļå¤´": 6290,
      "ä»ĸä»¬æī¾åĪ°äºĨ": 6291,
      "å®ĥåĨ³å®ļ": 6292,
      "ä¼¯": 6293,
      "æĭĶ": 6294,
      "åĲİæĤĶ": 6295,
      "çĦĻ": 6296,
      "ä¸ĭèµ·äºĨ": 6297,
      "èµ°è¿ĩ": 6298,
      "çº±": 6299,
      "èĬ±çĵ£": 6300,
      "âĢĻãĢĤ": 6301,
      "ä¹ĲæĦı": 6302,
      "ä½Ĩæĺ¯éļıåĲİ": 6303,
      "å®Ŀçī©": 6304,
      "å®Ŀç®±": 6305,
      "æĪĳçļĦçİ©åħ·": 6306,
      "å½©èī²": 6307,
      "å¤±åİ»äºĨ": 6308,
      "åºĬåºķä¸ĭ": 6309,
      "æľªçŁ¥": 6310,
      "åİŁåľ°": 6311,
      "ç²īçº¢èī²": 6312,
      "é¦Ļåĳ³": 6313,
      "æĭ¼åĳ½": 6314,
      "æ±¤å§ĨåĴĮèİīèİī": 6315,
      "æĢĢéĩĮ": 6316,
      "éĺŁä¼į": 6317,
      "èľĺèĽĽç½ĳ": 6318,
      "é£ŀè¡Įåĳĺ": 6319,
      "å¥½å¥½çħ§é¡¾": 6320,
      "æľŁå¾ħçĿĢ": 6321,
      "å°½åı¯èĥ½å¿«åľ°": 6322,
      "çĥĺçĦĻ": 6323,
      "åĩºç§Łè½¦": 6324,
      "ĹåĲį": 6325,
      "çļĦçŁ³å¤´": 6326,
      "ä»ĸåıªæĺ¯": 6327,
      "åĲ±": 6328,
      "å¾ģ": 6329,
      "åľ¨æłĳ": 6330,
      "åĴĴ": 6331,
      "ä»ĸä»¬éĿŀå¸¸é«ĺåħ´": 6332,
      "åĴĮå°ıå¥³åŃ©": 6333,
      "ä½Ĩä»įçĦ¶": 6334,
      "å¹¶è®©": 6335,
      "å¥¹çļĦæĪ¿éĹ´": 6336,
      "çľĭåĪ°ä¸Ģä¸ªå¤§": 6337,
      "å°ıå¥³åŃ©è¯´": 6338,
      "çĶ¨çļĦ": 6339,
      "æĮł": 6340,
      "è·³èµ·æĿ¥": 6341,
      "éľį": 6342,
      "æ¼ı": 6343,
      "ä¿ĿåŃĺ": 6344,
      "ä»¥åīįä»İæľª": 6345,
      "åĬłæ²¹": 6346,
      "çĽ´åĪ°å¥¹": 6347,
      "åĿĲçĿĢ": 6348,
      "ä¹ĭæĹħ": 6349,
      "æĶ¶èĹı": 6350,
      "ç¼ĺ": 6351,
      "åķĬè·ĳ": 6352,
      "æ¼Ĥäº®çļĦèĬ±": 6353,
      "æĦŁè§īå¥½ä¸ĢäºĽ": 6354,
      "å¢ĥ": 6355,
      "éĩĳå¸ģ": 6356,
      "åŁİåł¡éĩĮ": 6357,
      "è®²è¿°": 6358,
      "é»ĳæļĹä¸Ń": 6359,
      "åı¯éĿłçļĦ": 6360,
      "ç£¨åĿĬ": 6361,
      "èĴ¸æ±½": 6362,
      "Bo": 6363,
      "¹è±": 6364,
      "ä¸ĩ": 6365,
      "çļĦé¸ŁåĦ¿": 6366,
      "ä¸Ģäºº": 6367,
      "ä»ĸåĳĬè¯ī": 6368,
      "ä»ĸæĦŁåĪ°å¾Ī": 6369,
      "å¥¹ä¸įçŁ¥éģĵ": 6370,
      "æĥ¹": 6371,
      "æĬĹ": 6372,
      "æĪĳæľīä¸Ģä¸ª": 6373,
      "ä½Ĩå·²ç»ıå¤ªæĻļäºĨ": 6374,
      "äºĨä¸ĢçĤ¹": 6375,
      "èī°": 6376,
      "çĽĲ": 6377,
      "åįł": 6378,
      "å¤ļå½©": 6379,
      "ä¿¯": 6380,
      "è·³ä¸ĬäºĨ": 6381,
      "èĬ±æ¤°èıľ": 6382,
      "å¸¦åĽŀ": 6383,
      "åħ¬çīĽ": 6384,
      "åħ´å¥ĭå¾Ĺ": 6385,
      "æĻ´": 6386,
      "è¿ĺåĸľæ¬¢": 6387,
      "ç³Ļ": 6388,
      "ä¸Ģå¤©æĹ©æĻ¨": 6389,
      "åĽ¾çĶ»": 6390,
      "æİ¢ç´¢è¿Ļä¸ªä¸ĸçķĮ": 6391,
      "æ¯Ľåıĳ": 6392,
      "å¸¦çĿĢçģ¿çĥĤçļĦç¬ĳå®¹": 6393,
      "å¥¹åľ¨åľ°ä¸Ĭ": 6394,
      "åĴĮå¥¹çļĦçĪ¸çĪ¸": 6395,
      "é»ĳäºĨ": 6396,
      "é»ĳèī²çļĦ": 6397,
      "è¢ĭåŃĲéĩĮ": 6398,
      "åĲįåŃĹæĺ¯": 6399,
      "ç§ĭåįĥåĴĮ": 6400,
      "çĬ¹è±": 6401,
      "èħ¾": 6402,
      "åĸ·æ°Ķ": 6403,
      "éº¦åħĭ": 6404,
      "ç©¿ä¸ĬéŀĭåŃĲ": 6405,
      "å¤§å£°åĸĬéģĵ": 6406,
      "åľ¨èĬ±åĽŃéĩĮçİ©èĢį": 6407,
      "çļĦè£ħ": 6408,
      "çģĮæľ¨ä¸Ľä¸Ń": 6409,
      "ç²Ĺç³Ļ": 6410,
      "éģįäºĨ": 6411,
      "èĪĶäºĨ": 6412,
      "å¼ĹéĽ·è¿ª": 6413,
      "ä»İæĿ¥æ²¡æľī": 6414,
      "çĬ¹è±«": 6415,
      "ä¸Ģå®¶äºº": 6416,
      "å°ıåı·": 6417,
      "åĴĮå¼Ģå¿ĥ": 6418,
      "ç»·": 6419,
      "æĪĳå°±": 6420,
      "å§¨": 6421,
      "å¤§é±¼": 6422,
      "èİīèİīå¾Īéļ¾è¿ĩ": 6423,
      "å·®": 6424,
      "åİ»çİ©": 6425,
      "åİ»åĮ»éĻ¢": 6426,
      "äºĨä¸Ģçīĩ": 6427,
      "æľīä¸Ģä¸ªå¥³åŃ©": 6428,
      "åºĻ": 6429,
      "é«ĺç©º": 6430,
      "èĴĤå¨ľ": 6431,
      "å¸¦åĪ°äºĨ": 6432,
      "çĽ´æİ¥": 6433,
      "æĶ¾åĽŀäºĨ": 6434,
      "éļ¾äºĨ": 6435,
      "æľ¬åĴĮ": 6436,
      "éķ¿çĿĢ": 6437,
      "ç»§ç»Ńçİ©èĢį": 6438,
      "æµ·è¾¹": 6439,
      "èĻ¾": 6440,
      "æĭ¥æĬ±åľ¨ä¸Ģèµ·": 6441,
      "åĲīæĻ®": 6442,
      "æİīè¿ĽäºĨ": 6443,
      "é»ĳèī²": 6444,
      "çķĻçĿĢ": 6445,
      "åĸĿäºĨ": 6446,
      "é¢ľèī²åĴĮ": 6447,
      "åįģåŃĹ": 6448,
      "ç½Ĺæĸ¯": 6449,
      "åĴĮå®¶äººä¸Ģèµ·": 6450,
      "Tweety": 6451,
      "ä¸Ģæ¬¡åıĪä¸Ģæ¬¡åľ°": 6452,
      "åĲīæĻ®è½¦": 6453,
      "ľä¼": 6454,
      "ä»ĸè¢«": 6455,
      "å¥¹çľĭè§ģ": 6456,
      "å¥¹ä¸įåģľåľ°": 6457,
      "æľīå¤ļä¹Ī": 6458,
      "âĢ¦": 6459,
      "ä½Ĳ": 6460,
      "æĺ¯å¥¹": 6461,
      "æĺ¯éĿŀå¸¸": 6462,
      "å°ıå®¶ä¼Ļ": 6463,
      "å®ĥæĹ¶": 6464,
      "æľīä¸Ģæ£µ": 6465,
      "å¤§åį¡è½¦": 6466,
      "åİ»çľĭçľĭ": 6467,
      "ä½Ĩå½ĵ": 6468,
      "åĽŀå¤´": 6469,
      "å§Ĩæĸ¯": 6470,
      "è·ĳå¼Ģ": 6471,
      "åıĪé«ĺåıĪ": 6472,
      "é©¬ä¸Ĭ": 6473,
      "æ±¤å§ĨçļĦ": 6474,
      "å¥¹çļĦå¦Īå¦Īç¬ĳçĿĢè¯´": 6475,
      "å¤ĸéĿ¢çİ©èĢį": 6476,
      "åŃ¦çĶŁ": 6477,
      "ç«ŀ": 6478,
      "è®°ä½ıäºĨ": 6479,
      "éĶļ": 6480,
      "ä»ĸæĥ³èµ·äºĨ": 6481,
      "å½ĵå¥¹åľ¨": 6482,
      "ä»ĸä»¬ä¸Ģèµ·çİ©èĢį": 6483,
      "ä½łçļĦçİ©åħ·": 6484,
      "ä¸ºä»Ģä¹Īä¸į": 6485,
      "èĤł": 6486,
      "æ·±æ·±": 6487,
      "ç¡®ä¿Ŀèĩªå·±": 6488,
      "éĩįè¦ģçļĦæĺ¯": 6489,
      "çĳľä¼": 6490,
      "ä¸ĢåĪĩéĥ½ä¼ļ": 6491,
      "èĦıäºĨ": 6492,
      "éĺ³åħīæĺİåªļçļĦæĹ¥åŃĲéĩĮ": 6493,
      "æ¨ª": 6494,
      "ç©¿è¿ĩæ£®æŀĹ": 6495,
      "ä¸Ģä¸ªåĲįåı«èİīèİīçļĦå°ıå¥³åŃ©": 6496,
      "å¸¦æĿ¥çļĦ": 6497,
      "å®Īåį«": 6498,
      "å§ĳå§ĳ": 6499,
      "æ¢³åŃĲ": 6500,
      "è©¹å§Ĩæĸ¯": 6501,
      "æķĻå¥¹å¦Ĥä½ķ": 6502,
      "æĸĩä»¶å¤¹": 6503,
      "çľīå¤´": 6504,
      "åĲ¸åıĸäºĨæķĻè®Ń": 6505,
      "çıĬçĳļç¤ģ": 6506,
      "å®ĩå®Ļ": 6507,
      "çĳľä¼½": 6508,
      "ģæ¥¼": 6509,
      "ä»ĸå¾Īåĸľæ¬¢": 6510,
      "åľ¨è¿Ļä¸ª": 6511,
      "å®ĥèĥ½": 6512,
      "ä¸įå±ŀäºİ": 6513,
      "ä¸įä»ħ": 6514,
      "åľ°ä¸ĭ": 6515,
      "å¥½åĥı": 6516,
      "ç±³å¥ĩ": 6517,
      "ä¸ºä»ĸä»¬": 6518,
      "çľĭåĪ°è®¸å¤ļ": 6519,
      "å¯¹ä»ĸçļĦ": 6520,
      "éĺģæ¥¼": 6521,
      "åĽłä¸ºå¥¹çļĦ": 6522,
      "çªĿ": 6523,
      "æ¯ıå¤©æĹ©ä¸Ĭ": 6524,
      "ä¼¤äºĨ": 6525,
      "èĦĸ": 6526,
      "ä»ĸçļĦå¦Īå¦ĪåĳĬè¯īä»ĸ": 6527,
      "èĿĩ": 6528,
      "å¥¹åĸľæ¬¢çİ©": 6529,
      "ä¸Ģèµ·çİ©åĲ§": 6530,
      "å¯»æī¾é£Łçī©": 6531,
      "æĦŁè§īéĿŀå¸¸": 6532,
      "ç»ĻäºĨå¦Īå¦Ī": 6533,
      "åħ³ä¸ĬäºĨ": 6534,
      "å°Ŀå°Ŀ": 6535,
      "èĤĥ": 6536,
      "è´ĿèĮľ": 6537,
      "éĹªäº®çļĦä¸ľè¥¿": 6538,
      "èĵĿèİĵ": 6539,
      "åĨ·éĿĻ": 6540,
      "å¦®å¨ľ": 6541,
      "é¼ĵèµ·": 6542,
      "æĺ¯ä¸Ģä½į": 6543,
      "å®ĥéĿŀå¸¸æ¼Ĥäº®": 6544,
      "æĸŃäºĨ": 6545,
      "çļĦè·¯ä¸Ĭ": 6546,
      "çĥŁéĽ¾": 6547,
      "åºĨå¹¸": 6548,
      "æķ²éĹ¨": 6549,
      "ä¸¥èĤĥ": 6550,
      "èĥľåĪ©": 6551,
      "ä¼Łå¤§çļĦ": 6552,
      "ä¸įå¥½çļĦäºĭæĥħ": 6553,
      "æĶĢçĪ¬": 6554,
      "çī§åľº": 6555,
      "ny": 6556,
      "ĽèĵĿ": 6557,
      "çļĦå·¥ä½ľ": 6558,
      "æĺ¯å®īåħ¨çļĦ": 6559,
      "å°ıè´©": 6560,
      "éĩĮçİ©èĢį": 6561,
      "åĬ¿": 6562,
      "æĥ³åĪ°": 6563,
      "ç¬¦": 6564,
      "åĪ«å®³æĢķ": 6565,
      "çº½": 6566,
      "æĪĲéķ¿": 6567,
      "æīĵç®Ĺ": 6568,
      "ä¼¤åı£": 6569,
      "æĹłæģ": 6570,
      "é¤Ĳå·¾": 6571,
      "ä½ıåľ¨æ£®æŀĹéĩĮ": 6572,
      "ä¸įèĥ½åĨį": 6573,
      "ä¸įåĨįéĤ£ä¹Ī": 6574,
      "æĢĿè®®": 6575,
      "è·ĳåĲĳäºĨ": 6576,
      "æĦīå¿«çļĦæĹ¶åħī": 6577,
      "ä»İåīįæľīä¸ĢåıªåĲįåı«": 6578,
      "ç´§ç´§åľ°æĬ±ä½ı": 6579,
      "èĬĤæĹ¥": 6580,
      "äºĶå½©æĸĳæĸĵ": 6581,
      "ä¼ļåıĳçĶŁä»Ģä¹Ī": 6582,
      "ä¸įåı¯æĢĿè®®": 6583,
      "æĹłæģĻ": 6584,
      "çļĦä¹¦": 6585,
      "çļĦåĽ¾çīĩ": 6586,
      "å¥¹è®©": 6587,
      "åľ¨æ±łå¡ĺéĩĮ": 6588,
      "å°ıæĿ¾é¼ł": 6589,
      "ä»ĸä»¬å¸ĮæľĽ": 6590,
      "å®ĥæŃ£åľ¨": 6591,
      "åĴĮåħĶåŃĲ": 6592,
      "å¤§äºº": 6593,
      "åīĥ": 6594,
      "å¹¶ä¸Ģèµ·": 6595,
      "å¥½å¤ļäºĨ": 6596,
      "å¥¹çļĦæ³°è¿ªçĨĬ": 6597,
      "åĽŀæĬ¥": 6598,
      "çĽ¹": 6599,
      "åħĭéĩĮ": 6600,
      "çŁĽ": 6601,
      "åģļä¸įåĪ°": 6602,
      "çĦ¶åĲİåıĪ": 6603,
      "èĬ±åĦ¿": 6604,
      "æŃ£åĿĲåľ¨": 6605,
      "æĭ¿ç»Ļå¦Īå¦Īçľĭ": 6606,
      "æīĵæŀ¶": 6607,
      "ä¸Ģåıªé¸Ł": 6608,
      "ä¸Ģèµ·çİ©äºĨ": 6609,
      "è¿Ļæĺ¯æĪĳ": 6610,
      "æ»ĳæ»ĳæ¢¯": 6611,
      "åİ»äºĨæµ·æ»©": 6612,
      "åĿĲä¸ĭ": 6613,
      "çģ«æŁ´": 6614,
      "ä½Ĩå¥¹è¿ĺæĺ¯": 6615,
      "éĩĮéĿ¢æľī": 6616,
      "èĹıèµ·æĿ¥": 6617,
      "è°¢è°¢å¦Īå¦Ī": 6618,
      "æĤ¬": 6619,
      "å°Ŀè¯ķä¸ĢäºĽ": 6620,
      "æĹłè®ºå¥¹": 6621,
      "éĤ£æĿ¡é±¼": 6622,
      "ä½łä¸ºä»Ģä¹Īä¸į": 6623,
      "æĳĩäºĨæĳĩå°¾å·´": 6624,
      "æŃ£åľ¨åħ¬åĽŃéĩĮæķ£æŃ¥": 6625,
      "çĽĽå¤§çļĦ": 6626,
      "è§ĦåĪĻ": 6627,
      "ä¸Ģæ£µæłĳ": 6628,
      "åħ¸": 6629,
      "åľ¨æ°´éĩĮ": 6630,
      "å¾Īå°ı": 6631,
      "è¿ĻçľŁæĺ¯å¤ª": 6632,
      "æĿ¥çİ©": 6633,
      "ç»µ": 6634,
      "å¦Īå¦ĪæĬĬ": 6635,
      "èİīèİīå¾Īå¼Ģå¿ĥ": 6636,
      "èİīèİīæĦŁåĪ°å¾Ī": 6637,
      "åİ»åĵªéĩĮ": 6638,
      "åİ»æµ·æ»©": 6639,
      "ä½Ĩåľ¨": 6640,
      "åĲİéĢĢ": 6641,
      "ä½łåı«ä»Ģä¹ĪåĲįåŃĹ": 6642,
      "çī¹å¨ģ": 6643,
      "é£ŀä¸ĭæĿ¥": 6644,
      "æĸ°çŁ¥è¯Ĩ": 6645,
      "è¿ĺè¦ģ": 6646,
      "èĥ¡åŃĲ": 6647,
      "å¯»æī¾ä¸ĢäºĽ": 6648,
      "ä»ĸæĥ³çŁ¥éģĵ": 6649,
      "ä¿¡æģ¯": 6650,
      "æ¶²": 6651,
      "æ¹ĽèĵĿ": 6652,
      "ç¬¬ä¸Ģä¸ª": 6653,
      "å¦Ĥæŀľå¥¹": 6654,
      "ç²īçº¢èī²çļĦ": 6655,
      "é¦ĻèĤł": 6656,
      "æĳ¸äºĨ": 6657,
      "æĺ¯ä¸Ģä»¶": 6658,
      "åľŁåľ°": 6659,
      "æºĲ": 6660,
      "æĹ§çļĦ": 6661,
      "å¾ĹæĽ´å¿«": 6662,
      "ç³Łç³ķçļĦ": 6663,
      "ä¸ĬåºĬçĿ¡è§īäºĨ": 6664,
      "éĢĶä¸Ń": 6665,
      "æī¶æīĭ": 6666,
      "é¥®æĸĻ": 6667,
      "æĬ±äºĨæĬ±": 6668,
      "ä¸ĢæĶ¯": 6669,
      "ä»ĸè¯ķçĿĢ": 6670,
      "ä»ĸä¸īå²ģäºĨ": 6671,
      "å¸ľ": 6672,
      "å¾Īå®īåħ¨": 6673,
      "è¿ĻæĦıåĳ³çĿĢ": 6674,
      "ä½Ĩçİ°åľ¨": 6675,
      "å¹¶è¯ķåĽ¾": 6676,
      "éģĵä¸Ĭ": 6677,
      "æĬĬèĩªå·±": 6678,
      "éĥ½è¦ģ": 6679,
      "ä»ĸçļĦå®¶äºº": 6680,
      "çī©é¦Ĩ": 6681,
      "åĲĳæĹ¥": 6682,
      "æĬ±èµ·": 6683,
      "è¾¹ç¼ĺ": 6684,
      "æĢ»èĥ½": 6685,
      "å¥½çļĦæľĭåıĭ": 6686,
      "å°ıé¸Łè¯´": 6687,
      "å¹²äºĨ": 6688,
      "å¥¹ä»¬éĥ½": 6689,
      "çº¢çĲĥ": 6690,
      "å¡ĳ": 6691,
      "å±ĭåŃĲ": 6692,
      "åŁĥ": 6693,
      "åĬŀåħ¬": 6694,
      "åĲ¦åĪĻ": 6695,
      "æĲŀ": 6696,
      "æŀ¶é£ŀæľº": 6697,
      "åĵģå°Ŀ": 6698,
      "æĪĳä»¬åı¯ä»¥ä¸Ģèµ·": 6699,
      "åģĩçļĦ": 6700,
      "ç¢°å®ĥ": 6701,
      "éĩĳæŀª": 6702,
      "èĬ±æľµåĴĮ": 6703,
      "æĦŁåıĹçĿĢ": 6704,
      "æĬ¬å¤´ä¸Ģçľĭ": 6705,
      "çģ¿çĥĤ": 6706,
      "èĳµ": 6707,
      "æ¬£èµıçĿĢ": 6708,
      "éĨĴæĿ¥åĲİ": 6709,
      "æĹĹå¸ľ": 6710,
      "ç»ĬåĢĴäºĨ": 6711,
      "çĺ¦": 6712,
      "åįģåŃĹæŀ¶": 6713,
      "éĩĳæŀªé±¼": 6714,
      "«ç©·": 6715,
      "å¥¹çĪ¸çĪ¸": 6716,
      "å¥¹åħ´å¥ĭåľ°": 6717,
      "åľ¨çİ©": 6718,
      "ä¸Ģä¸ªçİ©åħ·": 6719,
      "è¿Ļä¸ĢåĪĩ": 6720,
      "æĿ¥å¸®åĬ©": 6721,
      "ä»ĸä»¬æĺİçĻ½äºĨ": 6722,
      "æĪĳçľŁ": 6723,
      "å¤§èĢĮ": 6724,
      "æĭĲ": 6725,
      "å¹¶åĳĬè¯īå¥¹": 6726,
      "ä»¥æĿ¥": 6727,
      "åĸľæ¬¢åĴĮä»ĸçļĦæľĭåıĭä»¬": 6728,
      "å¼Ģå§ĭåĬ¨": 6729,
      "æı´": 6730,
      "åĪ°äºĨåľ°ä¸Ĭ": 6731,
      "è®©å¥¹çļĦ": 6732,
      "è¿Ļä¸ªçİ©åħ·": 6733,
      "è·³è¿ĽäºĨ": 6734,
      "ç§¤": 6735,
      "å°±è¿Ļæł·": 6736,
      "æŀľåĨ»": 6737,
      "æľ¬è¯´éģĵ": 6738,
      "å¥¶æ²¹": 6739,
      "å¥¹åĸľæ¬¢åľ¨å¤ĸéĿ¢çİ©èĢį": 6740,
      "ä¹°äºĨä¸ĢäºĽ": 6741,
      "åĸĬçĿĢ": 6742,
      "åĨ°åĿĹ": 6743,
      "ä¸īå²ģçļĦå°ıå¥³åŃ©": 6744,
      "èĪŀè¹": 6745,
      "ç¬¬ä¸Ģæ¬¡": 6746,
      "æŁĶåĴĮ": 6747,
      "é¾Ļåį·": 6748,
      "æĺ¯ä¸Ģç§į": 6749,
      "éĩįè¦ģçļĦæķĻè®Ń": 6750,
      "äºĴçĽ¸æĭ¥æĬ±": 6751,
      "åĪĽä½ľ": 6752,
      "çľŁæĺ¯ä¸ª": 6753,
      "éĹªäº®çļĦçŁ³å¤´": 6754,
      "èĳĹåĲį": 6755,
      "æ²¿çĿĢè¡Ĺéģĵ": 6756,
      "éĢīæĭ©äºĨ": 6757,
      "èµ°çĿĢçļĦæĹ¶åĢĻ": 6758,
      "éĶħéĩĮ": 6759,
      "èĦ¸ä¸Ĭå¸¦çĿĢçģ¿çĥĤçļĦç¬ĳå®¹": 6760,
      "åįļçī©é¦Ĩ": 6761,
      "éŀł": 6762,
      "åĴĴè¯Ń": 6763,
      "èĪŀè¹Ī": 6764,
      "é¾Ļåį·é£İ": 6765,
      "Bi": 6766,
      "çļĦä¸īå²ģ": 6767,
      "ä¸Ģéģĵ": 6768,
      "ä»ĸè·ĳåĪ°": 6769,
      "å¤º": 6770,
      "å¥¹çĶļèĩ³": 6771,
      "å¥¹åĴĮå¦Īå¦Īä¸Ģèµ·": 6772,
      "åľ¨ä¸ĬéĿ¢": 6773,
      "åľ¨éĽ¨ä¸Ń": 6774,
      "ä»ĸä»¬éĿŀå¸¸": 6775,
      "ä»ĸä»¬çľĭåĪ°äºĨä¸Ģ": 6776,
      "çī¢": 6777,
      "éĢĽ": 6778,
      "ä¹Łæ²¡æľī": 6779,
      "å¸®å¸®æĪĳ": 6780,
      "äºİæĺ¯å¥¹åĨ³å®ļ": 6781,
      "æĪĳä»¬ä¸Ģèµ·åİ»": 6782,
      "æ²¡åĬŀæ³ķ": 6783,
      "å¤ªå¥½": 6784,
      "èİīèİīçļĦçĪ¸çĪ¸": 6785,
      "è±¹": 6786,
      "è¢Ń": 6787,
      "èº¬": 6788,
      "æħĮ": 6789,
      "åıĹäºĨ": 6790,
      "åħ¶å®ŀ": 6791,
      "å¥¹æĥ³èµ·äºĨ": 6792,
      "è¿ĻäºĽçİ©åħ·": 6793,
      "å±ĭé¡¶": 6794,
      "èĤ¯": 6795,
      "å±±å§ĨåĴĮ": 6796,
      "åĪ»èĸĦ": 6797,
      "åĴĮæľĭåıĭä»¬ä¸Ģèµ·çİ©èĢį": 6798,
      "æĦīå¿«çļĦ": 6799,
      "éº¦çīĩ": 6800,
      "éŀĭå¸¦": 6801,
      "åĬłåħ¥äºĨ": 6802,
      "æŁĲäºĽ": 6803,
      "è¿ĻæĿ¡é±¼": 6804,
      "å¥½åĲĥçļĦ": 6805,
      "ä½Ĩè¿ĺæĺ¯æī¾ä¸įåĪ°": 6806,
      "éħ±æĸĻ": 6807,
      "çĸ¼çĹĽ": 6808,
      "åŃ¤åįķäºĨ": 6809,
      "å¥¹åĲĳå¦Īå¦Ī": 6810,
      "çıłå®Ŀ": 6811,
      "åģľæŃ¢äºĨåĵŃæ³£": 6812,
      "å°ıçĿ¡ä¸Ģä¼ļåĦ¿": 6813,
      "è¶ħçº§èĭ±éĽĦ": 6814,
      "èĪĶäºĨèĪĶ": 6815,
      "ç«ŀäºī": 6816,
      "åĲĳæĹ¥èĳµ": 6817,
      "æ§": 6818,
      "ĨĿçĽĸ": 6819,
      "åľ¨åķĨåºĹéĩĮ": 6820,
      "å°ıèļĤèļģ": 6821,
      "å¼Ĥ": 6822,
      "æĪĳå¤ª": 6823,
      "åĬ³": 6824,
      "å¤§çĮ©çĮ©": 6825,
      "èİīèİīåĽŀçŃĶéģĵ": 6826,
      "æĥ³æĬĬ": 6827,
      "ä½Ĩå¥¹çļĦå¦Īå¦Ī": 6828,
      "å¹¶æĥ³è¦ģ": 6829,
      "ä½łçŁ¥éģĵ": 6830,
      "åĩ³": 6831,
      "çľĭåĪ°åľ°ä¸Ĭ": 6832,
      "åĽŀä»¥": 6833,
      "å¤ļä¹ħ": 6834,
      "åıĳçİ°å®ĥ": 6835,
      "æ°´æ¡¶": 6836,
      "å¤ĸåĩº": 6837,
      "çļĦèĨĿçĽĸ": 6838,
      "è¢«åĲĵåĪ°äºĨ": 6839,
      "èģĭ": 6840,
      "èµ°äºĨè¿ĩæĿ¥": 6841,
      "èĭıçļĦå°ıå¥³åŃ©": 6842,
      "èĮĦ": 6843,
      "çļĦä¸Ģéĥ¨åĪĨ": 6844,
      "æ´Ĺç¢Ĺ": 6845,
      "è¿·äºº": 6846,
      "é¸ŁåĦ¿ä»¬": 6847,
      "åĪĴèīĩ": 6848,
      "æ²³é©¬": 6849,
      "çłĸ": 6850,
      "å©Ĩ": 6851,
      "åĨħå®¹": 6852,
      "åį±éĻ©äºĨ": 6853,
      "åŀĴ": 6854,
      "æ²¿çĿĢå°ıè·¯": 6855,
      "æľĿçĿĢ": 6856,
      "åģ¶çĦ¶": 6857,
      "å¤§ç¬ĳèµ·æĿ¥": 6858,
      "æĺ¯æĹ¶åĢĻåĽŀå®¶äºĨ": 6859,
      "å®¢åİħéĩĮ": 6860,
      "å¼Ħå¾Ĺä¸ĢåĽ¢ç³Ł": 6861,
      "æĭįäºĨæĭįæīĭ": 6862,
      "lly": 6863,
      "èĵ": 6864,
      "ä¸Ģæľ¬": 6865,
      "ä»ĸå¤ª": 6866,
      "å¥¹æĦŁåĪ°éĿŀå¸¸å¼Ģå¿ĥ": 6867,
      "æĺĤ": 6868,
      "å°ıè½¦": 6869,
      "è¿Ļå¾Ī": 6870,
      "ä»ĸä»¬è½®æµģ": 6871,
      "æĬµ": 6872,
      "å¤§èĩªçĦ¶": 6873,
      "ä¸Ģèµ·åİ»äºĨåħ¬åĽŃ": 6874,
      "æŀģ": 6875,
      "å°ıå¥³åŃ©åĴĮ": 6876,
      "åħĭèİ±": 6877,
      "éĢĹ": 6878,
      "æıĲçĲ´": 6879,
      "äºİæĺ¯å¥¹ä»¬": 6880,
      "çĲ¼": 6881,
      "èĬ±äºĨ": 6882,
      "å¸¦èµ°": 6883,
      "æıĲç±³åĸľæ¬¢åľ¨": 6884,
      "æıĲç±³çļĦçĶ·åŃ©": 6885,
      "ä¸ŃéĹ´": 6886,
      "é¢Ī": 6887,
      "æ¸¸åĬ¨": 6888,
      "èĴĤå§ĨçļĦçĶ·åŃ©": 6889,
      "æĹłç¤¼": 6890,
      "æī¾åĪ°å®ĥ": 6891,
      "éľ²æ¯Ķ": 6892,
      "éķ¿é¢Ī": 6893,
      "çĶ»ä½ľ": 6894,
      "è¿ĳäºĨ": 6895,
      "æį§": 6896,
      "åıĺå¾ĹæĽ´å¥½": 6897,
      "æĦŁè§īå¾Ī": 6898,
      "éĹ¨åı£": 6899,
      "éĹ¨å»Ĭ": 6900,
      "æİ¢ç´¢ä¸ĸçķĮ": 6901,
      "åĽ´è£Ļ": 6902,
      "èįīä¸Ľ": 6903,
      "å¥¹æĥ³çŁ¥éģĵ": 6904,
      "å¥¹å¦Īå¦Īç¬ĳçĿĢè¯´": 6905,
      "æķĻä½ł": 6906,
      "å¼Ħæ¸ħæ¥ļ": 6907,
      "åħ¥äºĨ": 6908,
      "åĽłä¸ºå¥¹çŁ¥éģĵ": 6909,
      "æĬ¤çħ§": 6910,
      "ä¸įåĨįå®³æĢķäºĨ": 6911,
      "æķ°åŃ¦": 6912,
      "çļĦçİ©åħ·è½¦": 6913,
      "åł¡åŀĴ": 6914,
      "åħħæ»¡äºĨåĸľæĤ¦": 6915,
      "ä¸ĬéĿ¢åĨĻçĿĢ": 6916,
      "åľ¨ä¸Ģä¸ªå°ıéķĩä¸Ĭ": 6917,
      "é½Ĳå¿ĥ": 6918,
      "è¿İæİ¥": 6919,
      "è¯ģæĺİ": 6920,
      "æ°´åĿĳéĩĮ": 6921,
      "ä»ĸä»¬ä¿©éĥ½": 6922,
      "ä½©å¦®": 6923,
      "çķªèĮĦ": 6924,
      "è¿ĩç¨ĭä¸Ń": 6925,
      "éº¦åħĭé£İ": 6926,
      "ç»·å¸¦": 6927,
      "åħĭèİ±å°Ķ": 6928,
      "ä»ĸå¦Īå¦Īè¯´": 6929,
      "ä»ĸæĹłæ³ķ": 6930,
      "å¥¹å°±": 6931,
      "å¥¹æīĵå¼Ģ": 6932,
      "å¥¹æĦŁåĪ°å®³æĢķ": 6933,
      "åľ¨èĩªå·±çļĦ": 6934,
      "ä¸Ģä¸ªæĸ°çļĦ": 6935,
      "æī¬": 6936,
      "å¾Īäº«åıĹ": 6937,
      "è¿ĻæĶ¯": 6938,
      "å®ĥæĢ»æĺ¯": 6939,
      "éĿŀå¸¸èĩªè±ª": 6940,
      "ä¸įå®īåħ¨": 6941,
      "å¦Īå¦Īèº«è¾¹": 6942,
      "å¤§åı«": 6943,
      "å·¦": 6944,
      "åīįéĿ¢": 6945,
      "å¹¶åĳĬè¯īä»ĸ": 6946,
      "æ¯«": 6947,
      "å°ıå¥³åŃ©éĿŀå¸¸åħ´å¥ĭ": 6948,
      "éĿ¢ç²ī": 6949,
      "ä»Ģä¹Īæĺ¯": 6950,
      "éĻħ": 6951,
      "åĽłä¸ºä»ĸçļĦ": 6952,
      "è¿ĺæ²¡": 6953,
      "æīĵåĸ·åļı": 6954,
      "èĢģåħĪçĶŁ": 6955,
      "èĢģå¦ĩäºº": 6956,
      "çī¹åĪ«å¼Ģå¿ĥ": 6957,
      "çĭĹçĭĹ": 6958,
      "åıĹåĪ°": 6959,
      "çľŁå¥½": 6960,
      "é£İæĻ¯": 6961,
      "æľ¨æĿĲ": 6962,
      "åĨĴéĻ©çļĦ": 6963,
      "åĨįä¹ŁæĹłæ³ķ": 6964,
      "çī¹åĪ«çļĦåľ°æĸ¹": 6965,
      "éĩĮéĿ¢æľīè®¸å¤ļ": 6966,
      "èĪŀèĢħ": 6967,
      "çļĦå¤§çĭĹ": 6968,
      "çļ®åĪĴèīĩ": 6969,
      "å¹²åĩĢçļĦ": 6970,
      "çİĭåĨł": 6971,
      "ä¸ĢçĤ¹ä¹Łä¸į": 6972,
      "èħĲ": 6973,
      "åľ¨ä¸Ģä¸ªéĺ³åħīæĺİåªļçļĦæĹ¥åŃĲéĩĮ": 6974,
      "ç½ĹèĮľ": 6975,
      "ä»ĸåĲ¬åĪ°ä¸Ģä¸ªå£°éŁ³": 6976,
      "æ©¡æŀľ": 6977,
      "çł´äºĨ": 6978,
      "åºķéĥ¨": 6979,
      "èĬĤå¥ı": 6980,
      "ä¸Ģåľºå¤§": 6981,
      "èĥ¶å¸¦": 6982,
      "åŀ«åŃĲ": 6983,
      "ç¬¼åŃĲ": 6984,
      "æĺ¯ä¸įå¥½çļĦ": 6985,
      "æĭĸæĬĬ": 6986,
      "ç«łé±¼": 6987,
      "ä»·åĢ¼": 6988,
      "åįıåĬĽ": 6989,
      "å¢¨æ°´": 6990,
      "ä½Ĳä¼Ĭ": 6991,
      "åħĭéĩĮæĸ¯": 6992,
      "çī¹å¨ģèĴĤ": 6993,
      "æĳ¸äºĨæĳ¸": 6994,
      "éķ¿é¢Īé¹¿": 6995,
      "é½Ĳå¿ĥåįıåĬĽ": 6996,
      "Ģèŀº": 6997,
      "çļĩ": 6998,
      "çļĦä¹Ĳè¶£": 6999,
      "çļĦçŁ¥è¯Ĩ": 7000,
      "ä»ĸå°Ĩ": 7001,
      "ä»ĸæĦŁåĪ°éĿŀå¸¸åħ´å¥ĭ": 7002,
      "åı¥": 7003,
      "å¥¹æĺ¯": 7004,
      "ä»ĸä»¬å¿ħé¡»": 7005,
      "éĤ£äºº": 7006,
      "æľīä¸Ģä»¶": 7007,
      "å¤§æłĳä¸Ĭ": 7008,
      "âĢĿï¼Į": 7009,
      "æ±ī": 7010,
      "æİ§": 7011,
      "åĬ¨å¼¹": 7012,
      "é¸Łå·¢": 7013,
      "å¤ªé«ĺäºĨ": 7014,
      "å¤ªéĩįäºĨ": 7015,
      "è¿Ļä¸ªä¸»æĦı": 7016,
      "éĻĢèŀº": 7017,
      "åĲĳåīį": 7018,
      "å®īçĦ¶": 7019,
      "äºĨä¸Ģä¸ªæĸ°æľĭåıĭ": 7020,
      "æ²¡æľīæ³¨æĦıåĪ°": 7021,
      "å¸®åĬ©å¦Īå¦Ī": 7022,
      "èĩªå·±çļĦå®¶": 7023,
      "æľĽçĿĢ": 7024,
      "å¥¹åĸľæ¬¢åĴĮå¥¹çļĦ": 7025,
      "è¿Ļæĺ¯ä»ĸ": 7026,
      "è¿Ļæĺ¯å¥¹": 7027,
      "ä¹ĭå¤Ħ": 7028,
      "æĹ¥è®°æľ¬": 7029,
      "å±ĭåŃĲéĩĮ": 7030,
      "æİ¨çĿĢ": 7031,
      "éĤ£æĺ¯ä¸ĢæĿ¡": 7032,
      "æĴķ": 7033,
      "çĶľçŃĴ": 7034,
      "åįĪçĿ¡": 7035,
      "éħ·äºĨ": 7036,
      "æľīäººåľ¨": 7037,
      "è·ĳäºĨè¿ĩåİ»": 7038,
      "èģªæĺİçļĦèĢģ": 7039,
      "æĪĲä¸ºäºĨæľĢå¥½çļĦæľĭåıĭ": 7040,
      "çļĦèįīåľ°ä¸Ĭ": 7041,
      "è¡¨ç¤ºæĦŁè°¢": 7042,
      "çīµçĿĢ": 7043,
      "æĿĳåºĦéĩĮ": 7044,
      "åı¼çĿĢ": 7045,
      "åģļçĤ¹ä»Ģä¹Ī": 7046,
      "éĴĵé±¼": 7047,
      "åĬŀåħ¬å®¤": 7048,
      "æ§½": 7049,
      "åĽŀä»¥å¾®ç¬ĳ": 7050,
      "ä»ĸåħ´å¥ĭåľ°": 7051,
      "å¥¹å·²ç»ı": 7052,
      "åľ¨äºĨä¸Ģ": 7053,
      "æĺ¯åķĬ": 7054,
      "çľĭä¸Ĭåİ»": 7055,
      "ä»ĸä»¬çľĭåĪ°ä¸Ģä¸ª": 7056,
      "ä¸įå¾Ĺ": 7057,
      "æĪĳçĪ±ä½ł": 7058,
      "ä½Ĩè¦ģå°ıå¿ĥ": 7059,
      "å¹¶ç»§ç»Ń": 7060,
      "å¥³çİĭ": 7061,
      "èĩªå·±èĥ½": 7062,
      "èµ°åĩºäºĨ": 7063,
      "å¼Ģå§ĭä¸ĭéĽ¨äºĨ": 7064,
      "è®©å¦Īå¦Ī": 7065,
      "è¿Ļä¸ªå°ı": 7066,
      "èĲĿ": 7067,
      "æīĵäºĨ": 7068,
      "æīĵçĶµè¯Ŀ": 7069,
      "æ¸¸èīĩ": 7070,
      "çĨ¨": 7071,
      "æ¼Ĥæµ®": 7072,
      "æįı": 7073,
      "é£İä¸Ń": 7074,
      "èµ°äºĨåĩºæĿ¥": 7075,
      "åĭĩæķ¢çļĦå°ıå¥³åŃ©": 7076,
      "ä¸īå²ģçļĦå°ıåŃ©": 7077,
      "å¸ĮæľĽèĥ½": 7078,
      "æ´Ĺæīĭ": 7079,
      "æķ°æķ°": 7080,
      "ç«Ļåľ¨éĤ£éĩĮ": 7081,
      "åįķè¯į": 7082,
      "éŃĶæĿĸ": 7083,
      "åıĳçİ°äºĨè®¸å¤ļ": 7084,
      "åĵ¦ä¸į": 7085,
      "éĽ·å£°": 7086,
      "çģ°ç¼¸": 7087,
      "çĥŁçģ°ç¼¸": 7088,
      "åľĨå½¢": 7089,
      "ä½ıåľ¨ä¸Ģåº§å¤§": 7090,
      "æĿĳæ°ĳ": 7091,
      "å¾Īå¥½çİ©": 7092,
      "ä¼¸æīĭåİ»": 7093,
      "èµ¢å¾Ĺæ¯ĶèµĽ": 7094,
      "å£ģçĤī": 7095,
      "åĮ¹é©¬": 7096,
      "åī§éĻ¢": 7097,
      "èĢ¸èĤ©": 7098,
      "æĭ¯æķĳ": 7099,
      "çļĦè¢ĭ": 7100,
      "éĿ¢å¸¦å¾®ç¬ĳ": 7101,
      "çº½æī£": 7102,
      "æī¶æīĭæ¤ħ": 7103,
      "Ĥç²": 7104,
      "çļĦé±¼": 7105,
      "çļĦå®¶äºº": 7106,
      "çļĦå°½å¤´": 7107,
      "äºĨä¸ĭåİ»": 7108,
      "åľ¨æ°´ä¸Ń": 7109,
      "æĺ¯åĽłä¸º": 7110,
      "å¼¥": 7111,
      "ä»ĸä»¬çļĦå¦Īå¦Ī": 7112,
      "ä»ĸä»¬åĸľæ¬¢åľ¨": 7113,
      "ä»ĸä»¬æĪĲäºĨæľĢå¥½çļĦæľĭåıĭ": 7114,
      "éĿŀå¸¸çī¹åĪ«çļĦä¸ľè¥¿": 7115,
      "åĴĮæ°´": 7116,
      "åİķ": 7117,
      "å¤§åĸĬéģĵ": 7118,
      "å¹¶ç¡®ä¿Ŀ": 7119,
      "æ¯Ĵ": 7120,
      "æķ¬": 7121,
      "è¿ĩåİ»äºĨ": 7122,
      "å½ĵä½ľ": 7123,
      "åĪ«çļĦä¸ľè¥¿": 7124,
      "å¯¹ä½ł": 7125,
      "è·³è¿ĩ": 7126,
      "æĪĲå°±": 7127,
      "é£ŀå¾Ĺå¾Īé«ĺ": 7128,
      "æĸ°çļĦåľ°æĸ¹": 7129,
      "åĨ³å®ļæĬĬ": 7130,
      "ä¹ĲéĺŁ": 7131,
      "ç¦ģ": 7132,
      "è¿ĻåıªåħĶåŃĲ": 7133,
      "ä½Ĩæĺ¯å½ĵå¥¹": 7134,
      "çĶ»ä¸Ģ": 7135,
      "åı£æ¸´": 7136,
      "ç©¿è¶Ĭ": 7137,
      "ç½Ĥç²": 7138,
      "ä¹°ä¸ĢäºĽ": 7139,
      "çģ«èĬ±": 7140,
      "åĨįä¹Łä¸įæĥ³": 7141,
      "åħħæ»¡æ´»åĬĽ": 7142,
      "å¥¹åľ¨åħ¬åĽŃéĩĮ": 7143,
      "æīĢæľīçļĦåĬ¨çī©": 7144,
      "åıĪå¤§åıĪçº¢": 7145,
      "åĴĮå¥¹çļĦæľĭåıĭ": 7146,
      "éĻ¢åŃĲ": 7147,
      "æ®¿": 7148,
      "èİīèİīåĴĮæ±¤å§Ĩ": 7149,
      "ç®¡éĹ²": 7150,
      "æ²Ļæĭī": 7151,
      "éŃĶæ³ķæ£Ĵ": 7152,
      "çĽ®çļĦåľ°": 7153,
      "éĽ·ç±³": 7154,
      "æĮĤçĿĢ": 7155,
      "æ¸ħçĲĨäºĨ": 7156,
      "æĪĲä¸ºäºĨæľĭåıĭ": 7157,
      "éĢıè¿ĩ": 7158,
      "æĦ§çĸļ": 7159,
      "ä¸¹å°¼": 7160,
      "Sam": 7161,
      "ç½Ĥç²Ł": 7162,
      "ç®¡éĹ²äºĭ": 7163,
      "Ben": 7164,
      "çļĦæĪ¿åŃĲ": 7165,
      "ä¸Ģå®¶": 7166,
      "å¥¹æĦŁåĪ°éĿŀå¸¸åħ´å¥ĭ": 7167,
      "å°º": 7168,
      "åľ¨åİ¨æĪ¿éĩĮ": 7169,
      "åľ¨è¡Ĺä¸Ĭ": 7170,
      "å°ıé©¬": 7171,
      "åĽ±": 7172,
      "ä»ĸä»¬åľ¨åħ¬åĽŃéĩĮ": 7173,
      "ä¸įå¤Ł": 7174,
      "éĤ£ç§į": 7175,
      "ä¸Ĭå¿Ļ": 7176,
      "èİīèİīæĦŁåĪ°å¾Īéļ¾è¿ĩ": 7177,
      "æĭŃ": 7178,
      "å¹¶æĭ¥æĬ±äºĨ": 7179,
      "äºĨä¸ĢæŃ¥": 7180,
      "ä½łè¿ĺ": 7181,
      "éĥ½è¢«": 7182,
      "ä»ĸçļĦå°ı": 7183,
      "ä»ĸçļĦçĲĥ": 7184,
      "èĬ¹": 7185,
      "åģļäºĨä¸ĢäºĽ": 7186,
      "åģļäºĨä¸Ģä»¶": 7187,
      "å¯¹å¥¹çļĦ": 7188,
      "æĮ¡": 7189,
      "æıĲç±³åĴĮ": 7190,
      "èĢĮæĦŁåĪ°éļ¾è¿ĩ": 7191,
      "æĶ¾äºĨ": 7192,
      "è¡Įè¿Ľ": 7193,
      "æľĭåıĭä»¬çľĭ": 7194,
      "æĸ¹åĿĹ": 7195,
      "æ¯ıå¤©æĻļä¸Ĭ": 7196,
      "è´«ç©·": 7197,
      "ç©ºéĹ´": 7198,
      "èĥ³èĨĬ": 7199,
      "æ»ĳåĢĴäºĨ": 7200,
      "åĸĦå¾ħ": 7201,
      "å®Ŀè´µçļĦ": 7202,
      "çħİ": 7203,
      "æĺŁçĲĥ": 7204,
      "çİĽåĲī": 7205,
      "åĳ¼æķĳ": 7206,
      "ä»ĸçľĭåĪ°äºĨä¸Ģä¸ª": 7207,
      "æĺ¯åĲ¦æĦ¿æĦı": 7208,
      "æķ°åĪ°": 7209,
      "å¥¶å¥¶å®¶": 7210,
      "å¾Ĺå¾Īè¿ľ": 7211,
      "æ´ĭèĳ±": 7212,
      "æ¹¿æ¼ī": 7213,
      "æįīå¼Ħ": 7214,
      "è¯·æ±Ĥå¦Īå¦Ī": 7215,
      "çĥŁåĽ±": 7216,
      "åĮĸå¦Ĩ": 7217,
      "çģĮæľ¨ä¸ĽéĩĮ": 7218,
      "å±ŀäºİèĩªå·±çļĦ": 7219,
      "åľ¨å¤©ç©ºä¸Ńé£ŀç¿Ķ": 7220,
      "ç¯®åŃĲéĩĮ": 7221,
      "æĪĺæĸĹ": 7222,
      "é£İåĲ¹è¿ĩ": 7223,
      "è´§è½¦": 7224,
      "åģľä¸ĭèĦļæŃ¥": 7225,
      "å¤ıå¤©": 7226,
      "å®«æ®¿": 7227,
      "çĶ»äºĨä¸Ģå¹ħ": 7228,
      "æĸ¯æ´¾åħĭ": 7229,
      "ä¸İä¼Ĺä¸įåĲĮ": 7230,
      "èī°éļ¾": 7231,
      "åİķæīĢ": 7232,
      "æ¹¿æ¼īæ¼ī": 7233,
      "äºĨåĲĹ": 7234,
      "ä»ĸåĽĽå¤Ħå¼łæľĽ": 7235,
      "è¯Ĺ": 7236,
      "åľ¨çİ©èĢį": 7237,
      "èµĸ": 7238,
      "çľĭçĶµè§Ĩ": 7239,
      "èµ·åºĬ": 7240,
      "ä»ĸä»¬åıĳçİ°": 7241,
      "ä»ĸä»¬æĪĲäºĨå¥½æľĭåıĭ": 7242,
      "å®ĥçľĭèµ·æĿ¥å¾Ī": 7243,
      "åİĭ": 7244,
      "å¤§èĪ¹": 7245,
      "èİīèİīéĿŀå¸¸åĸľæ¬¢": 7246,
      "èİīèİīæĦıè¯ĨåĪ°": 7247,
      "ä»¥å¾Ģ": 7248,
      "ä»¥ä¾¿": 7249,
      "ä½łæĺ¯ä¸ª": 7250,
      "æĦŁåĪ°å¹¸ç¦ı": 7251,
      "æĦŁåĪ°æĥĬåı¹": 7252,
      "åĸľæ¬¢æķ´å¤©": 7253,
      "ä¼ļè®®": 7254,
      "ç»ĻäºĪ": 7255,
      "åģļå¥½äºĨ": 7256,
      "çĦ¶åĲİæĬĬ": 7257,
      "è®©å®ĥä»¬": 7258,
      "è¿Ļä¸ªæ¸¸æĪı": 7259,
      "è·³åĪ°äºĨ": 7260,
      "è·³äºĨåĩºæĿ¥": 7261,
      "åĲĥåĪ°": 7262,
      "æĦŁåĪ°éĿŀå¸¸ä¼¤å¿ĥ": 7263,
      "æĭ¿äºĨ": 7264,
      "çļĦèŃ¦": 7265,
      "æĿ°åħĭçļĦ": 7266,
      "èĭ¥": 7267,
      "å¹¶ä¸ĶæĢ»æĺ¯": 7268,
      "ä½Ĩä»ĸä»įçĦ¶": 7269,
      "æ¿Ģåħī": 7270,
      "éĺ³åħīæ´Ĵ": 7271,
      "æĬĵåĪ°": 7272,
      "åĨįä¹Łä¸įèĥ½": 7273,
      "éļıèº«": 7274,
      "çľĭçľĭåĲ§": 7275,
      "ä½ıåľ¨ä¸Ģä¸ªå¤§": 7276,
      "å®ŀéªĮ": 7277,
      "èĤ²": 7278,
      "å¼Ħä¸¢": 7279,
      "è´Ŀå°¼": 7280,
      "åİŁåĽł": 7281,
      "åĿļå®ļ": 7282,
      "ä½ĵè´´": 7283,
      "æıĲå§ĨåĴĮ": 7284,
      "éªĳè½¦": 7285,
      "ä»¤å¥¹": 7286,
      "æĵ¦æĭŃ": 7287,
      "å¹¶ä¸įåľ¨æĦı": 7288,
      "è¿Ļä½įå¥³å£«": 7289,
      "åį±éĻ©çļĦ": 7290,
      "ä½ıåľ¨ä¸ĢéĹ´": 7291,
      "æķ²äºĨ": 7292,
      "åĲĥå®ĮåĲİ": 7293,
      "åĴĮå®ĥä¸Ģèµ·çİ©": 7294,
      "çīµçĿĢæīĭ": 7295,
      "æ¼«æŃ¥": 7296,
      "åĵįäº®çļĦ": 7297,
      "èĬ¹èıľ": 7298,
      "µé¸Ł": 7299,
      "ä¸ĢåĬ¨": 7300,
      "å¥¹æ²¡æľī": 7301,
      "å¥¹åİ»äºĨ": 7302,
      "å®ĺ": 7303,
      "åĲł": 7304,
      "è¯ŀ": 7305,
      "ä¹ī": 7306,
      "ä¸Ģä¸ªçĶ·åŃ©": 7307,
      "éĿŀå¸¸æĦŁè°¢": 7308,
      "åĴĮè®¸å¤ļ": 7309,
      "åĴĮå¥¹å¦Īå¦Ī": 7310,
      "åĴĮåĸĦèī¯": 7311,
      "åĴĮå®ĥçļĦ": 7312,
      "éĤ£å£°éŁ³": 7313,
      "ä¼¦": 7314,
      "èİīèİīå¾®ç¬ĳçĿĢ": 7315,
      "èİīèİīçľĭåĪ°ä¸Ģä¸ª": 7316,
      "äºĨä¸Ģè¾Ĩ": 7317,
      "ä½łæĺ¯ä¸Ģä¸ª": 7318,
      "æķĪ": 7319,
      "æķŀ": 7320,
      "è¿ĩçļĦ": 7321,
      "é«ĺå°Ķå¤«": 7322,
      "å½ĵèİīèİī": 7323,
      "é¸µé¸Ł": 7324,
      "éĿ¢å¯¹": 7325,
      "å¤ļå°ĳ": 7326,
      "çĦ¶åĲİå¥¹ä»¬": 7327,
      "è½¦åŃĲ": 7328,
      "æ²¡éĹ®é¢ĺ": 7329,
      "æıĲç±³éĿŀå¸¸é«ĺåħ´": 7330,
      "é¡½": 7331,
      "çļĦå°ıé±¼": 7332,
      "çļĦè±": 7333,
      "å¸®åĬ©ä»ĸä»¬": 7334,
      "çĥ«": 7335,
      "æĸ¹å½¢": 7336,
      "é¼»": 7337,
      "ç©ºçļĦ": 7338,
      "æī¾åĪ°åĽŀå®¶çļĦè·¯": 7339,
      "æİ¢ç´¢åĳ¨åĽ´çļĦä¸ĸçķĮ": 7340,
      "åĿĲäºĨä¸ĭæĿ¥": 7341,
      "æĦŁåĪ°å¾Īåħ´å¥ĭ": 7342,
      "ä½Ĩå¥¹å¦Īå¦Ī": 7343,
      "æīĢä»¥ä»ĸåĨ³å®ļ": 7344,
      "æķĻä¼ļ": 7345,
      "æīĢæľīçļĦçİ©åħ·": 7346,
      "åıĳçİ°äºĨä¸ĢæĿ¡": 7347,
      "äº¤åĪ°äºĨä¸Ģä¸ª": 7348,
      "æķĳåĳ½": 7349,
      "ä»İæľªå¿ĺè®°": 7350,
      "ä»ĸçļĦçİ©åħ·è½¦": 7351,
      "æĮīæĳ©": 7352,
      "åĽ¢éĺŁ": 7353,
      "æ¶Īå¤±åľ¨": 7354,
      "æºľ": 7355,
      "ç»ĻäºĨå¥¹ä¸Ģä¸ª": 7356,
      "å¢Ļå£ģ": 7357,
      "æŁĲç§į": 7358,
      "èĬĤçĽ®": 7359,
      "è§£åĨ³éĹ®é¢ĺ": 7360,
      "ä¸¥éĩį": 7361,
      "å·«å¸Ī": 7362,
      "éħĴåºĹ": 7363,
      "æĿĨåŃĲ": 7364,
      "è·³ä¸Ĭè·³ä¸ĭ": 7365,
      "åĿ¦åħĭ": 7366,
      "æ¡ĳè¿ª": 7367,
      "ç½Ĥç²ŁèĬ±": 7368,
      "çļĦå¥½": 7369,
      "ä»ĸçľĭè§ģ": 7370,
      "ä»ĸå¾Īé«ĺåħ´èĩªå·±": 7371,
      "å¥¹åĳĬè¯īä»ĸ": 7372,
      "å¾Īæĭħå¿ĥ": 7373,
      "çľĭæĹ¶": 7374,
      "å®ĥæľī": 7375,
      "çİ©ç¬ĳ": 7376,
      "çĿĢå¥¹": 7377,
      "åİ©": 7378,
      "æľīä¸Ģç§į": 7379,
      "èĢĻåŃĲ": 7380,
      "äºĨä¸Ģé¢Ĺ": 7381,
      "è¿ĩå¾Ĺ": 7382,
      "éĥ½åı¯ä»¥": 7383,
      "åı«å¥¹": 7384,
      "ä¸Ģèµ·åº¦è¿ĩ": 7385,
      "æ³½": 7386,
      "é«ĺä¸ªåŃĲ": 7387,
      "èµ°åĩº": 7388,
      "æıĲè®®": 7389,
      "å¯¹æŃ¤": 7390,
      "é©¬åİ©": 7391,
      "æĦŁåĪ°éĿŀå¸¸å¿«ä¹Ĳ": 7392,
      "è£¤åŃĲ": 7393,
      "é©¬åħĭæĸ¯çļĦä¸»äºº": 7394,
      "æľīä¸ĢåıªåıĪå¤§åıĪ": 7395,
      "ä¿ĿçķĻ": 7396,
      "æľīä¸Ģä¸ªåĲįåı«èĴĤå§ĨçļĦå°ıçĶ·åŃ©": 7397,
      "ãĢĤâĢĻâĢĺ": 7398,
      "è¿Ļæł·ä¸Ģä¸ª": 7399,
      "åħ¶ä»ĸä¸ľè¥¿": 7400,
      "åĽĽå¤Ħå¥Ķè·ĳ": 7401,
      "ä¸¤ä¸ªåŃ©åŃĲ": 7402,
      "éĿĻéĿĻ": 7403,
      "æ°¸è¿ľä¸įè¦ģ": 7404,
      "æ£®æŀĹéĩĮçļĦ": 7405,
      "èİīèİīåĴĮå¦Īå¦Ī": 7406,
      "èĦ¸ä¸ĬçļĦ": 7407,
      "çłĶ": 7408,
      "æī¾åĪ°äºĨä¸ĢåĿĹ": 7409,
      "ä¾¿å£«": 7410,
      "è½®åĪ°": 7411,
      "å¼ºå£®çļĦ": 7412,
      "è®²æķħäºĭ": 7413,
      "éĵ¾åŃĲ": 7414,
      "åº·å¤į": 7415,
      "æŁĲæł·ä¸ľè¥¿": 7416,
      "åİŁæĿ¥æĺ¯ä¸Ģåıª": 7417,
      "çĭ¬èĩªä¸Ģäºº": 7418,
      "æĪĳåıªæĺ¯æĥ³": 7419,
      "ç¥ĸæ¯į": 7420,
      "åľ£è¯ŀ": 7421,
      "Ma": 7422,
      "¬æĿ¾": 7423,
      "çļĦç¾İå¥½": 7424,
      "ä¸ĢæĿ¯": 7425,
      "å¥¹åĸĬéģĵ": 7426,
      "å¥¹åıĳçİ°äºĨä¸Ģä¸ª": 7427,
      "åľ¨å¯»æī¾": 7428,
      "å°ıåĿĹ": 7429,
      "å°ıéº¦": 7430,
      "è¿Ļæłª": 7431,
      "ä»ĸä»¬æ²¡æľī": 7432,
      "ä»ĸä»¬éĿŀå¸¸å¼Ģå¿ĥ": 7433,
      "ä»ĸä»¬åİ»äºĨ": 7434,
      "ä»ĸä»¬åĿĲåľ¨": 7435,
      "ä»ĸä»¬æĪĲäºĨæľĭåıĭ": 7436,
      "éĤ£æŀļ": 7437,
      "åľ°éĵģ": 7438,
      "ä½Ĩä»ĸçļĦ": 7439,
      "ä½ĨæıĲç±³": 7440,
      "åī¯": 7441,
      "æĬĬæīĢæľī": 7442,
      "æĢģ": 7443,
      "çŁŃ": 7444,
      "é¸¥": 7445,
      "æıĴ": 7446,
      "å¸®ä¸Ĭå¿Ļ": 7447,
      "æĪĳä»¬åĽŀå®¶": 7448,
      "æĪĳä»¬æĺİå¤©": 7449,
      "çĤīåŃĲ": 7450,
      "æ´ª": 7451,
      "çļĦå°ıè·¯": 7452,
      "æĦŁåĪ°éĿŀå¸¸æ»¡æĦı": 7453,
      "æĿ°ç±³": 7454,
      "åĪĨå¼Ģ": 7455,
      "è´¨": 7456,
      "çĨĬçĮ«": 7457,
      "çĶ»äºĨ": 7458,
      "è¿ĳè·Ŀç¦»": 7459,
      "ä¹°äºĨä¸Ģä¸ª": 7460,
      "èįīèį¯": 7461,
      "åį¡éĢļ": 7462,
      "å°½äºĨ": 7463,
      "ç¾İåĳ³çļĦéĽ¶é£Ł": 7464,
      "èĲ¨æĭīåĴĮæľ¬": 7465,
      "æľīè¶£çļĦæ¸¸æĪı": 7466,
      "éģĵåĪ«åĲİ": 7467,
      "åĬłåħ¥ä»ĸä»¬": 7468,
      "ä»ĸè§īå¾Ĺèĩªå·±": 7469,
      "é«ĺé«ĺåľ°": 7470,
      "æĢĿèĢĥäºĨä¸Ģä¼ļåĦ¿": 7471,
      "ç²Ĺå¿ĥ": 7472,
      "çļĦèľĺèĽĽ": 7473,
      "ç©ºæ°Ķä¸Ń": 7474,
      "å´ĸ": 7475,
      "èĢ¸äºĨ": 7476,
      "æ¹¿éĢıäºĨ": 7477,
      "èµ¢å¾ĹäºĨæ¯ĶèµĽ": 7478,
      "ªĵ": 7479,
      "çļĦçĽĴåŃĲ": 7480,
      "ä»ĸè®¤ä¸º": 7481,
      "ä¸Ģä¸ªçĶ·äºº": 7482,
      "æĿ¥æĭľè®¿": 7483,
      "å®ĥçľĭåĪ°": 7484,
      "å®ĥåĲĹ": 7485,
      "å¦Īå¦ĪæŃ£åľ¨": 7486,
      "åĸĻ": 7487,
      "èİīèİīåŃ¦ä¼ļäºĨ": 7488,
      "èĢ¶": 7489,
      "äºĨä¸Ģä½į": 7490,
      "ä¸Ģèµ·åİ»äºĨ": 7491,
      "èĥ½åĬĽ": 7492,
      "è·ĳåķĬè·ĳ": 7493,
      "ä¹Łå¼Ģå§ĭ": 7494,
      "æ²¡æī¾åĪ°": 7495,
      "çĶŁåĳ½": 7496,
      "å¸¦ä½ł": 7497,
      "å¸¦åĽŀäºĨ": 7498,
      "äº®äºĨ": 7499,
      "æĭīçĿĢ": 7500,
      "æĳĬ": 7501,
      "é¢Ĭ": 7502,
      "è§īå¾Ĺå¾Ī": 7503,
      "æµ·é¸¥": 7504,
      "åıĺå¾Ĺå¾Ī": 7505,
      "é£ŁæĿĲ": 7506,
      "åĲ¬åĪ°äºĨä¸Ģéĺµ": 7507,
      "ç¾İåĳ³çļĦä¸ľè¥¿": 7508,
      "æ¶Į": 7509,
      "åłµ": 7510,
      "åį¡ä½ıäºĨ": 7511,
      "å¤±åİ»": 7512,
      "äº²åĲ»": 7513,
      "åĪ¶æľį": 7514,
      "è®©å¥¹æĦŁåĪ°": 7515,
      "ä¸įåĲĮæĦı": 7516,
      "ç¬¬äºĮå¤©æĹ©ä¸Ĭ": 7517,
      "èľĤå·¢": 7518,
      "ä»Ķç»ĨçľĭäºĨçľĭ": 7519,
      "çĽĸå°Ķ": 7520,
      "éĢĥèĦ±": 7521,
      "èĦıåħ®": 7522,
      "ç©¿çĿĢä¸Ģä»¶": 7523,
      "å®īéĿĻåľ°": 7524,
      "éĤ®ç®±": 7525,
      "éĤ®éĢĴ": 7526,
      "ä¹Įäºĳ": 7527,
      "è´µäºĨ": 7528,
      "æ··ä¹±": 7529,
      "åĴĮå¥¹ä¸Ģèµ·çİ©": 7530,
      "èī²å½©æĸĳæĸĵ": 7531,
      "å©ļç¤¼": 7532,
      "æµ·æ´ĭä¸Ń": 7533,
      "ç¨įå¾®": 7534,
      "è¢«åĽ°åľ¨": 7535,
      "çŁ¿çŁ³": 7536,
      "åĳĬè¯īäºĨå¦Īå¦Ī": 7537,
      "çĭ¬çī¹çļĦ": 7538,
      "æĨ¾": 7539,
      "éĶĭåĪ©çļĦ": 7540,
      "éģĹæĨ¾": 7541,
      "äº§çĶŁ": 7542,
      "çļĦè£ħé¥°": 7543,
      "èĵ¬æĿ¾": 7544,
      "èĦıåħ®åħ®": 7545,
      "èĺĳèıĩ": 7546,
      "ä¸Ģå¤´": 7547,
      "ä»ĸåĨįæ¬¡": 7548,
      "ä»ĸæī¾åĪ°äºĨ": 7549,
      "å°ļ": 7550,
      "ä¸Ģä¸ªæĸ°": 7551,
      "ä¸Ģä¸ªåľ°æĸ¹": 7552,
      "è¿Ļä¸įæĺ¯": 7553,
      "ä»ĸä»¬è¦ģ": 7554,
      "æĬ¹": 7555,
      "å¤§çĮ«": 7556,
      "ä½Ĩè¿Ļæ¬¡": 7557,
      "æ¬¢ç¬ĳçĿĢ": 7558,
      "åĸľçĪ±": 7559,
      "ä¼ļæľī": 7560,
      "çľĭåĪ°å®ĥ": 7561,
      "ä¸Ģèµ·åĬªåĬĽ": 7562,
      "æī¾äºĨ": 7563,
      "äºİæĺ¯æľīä¸Ģå¤©": 7564,
      "çĶ¨å°½åħ¨åĬĽ": 7565,
      "å¤ªå¿«äºĨ": 7566,
      "è·³èļ": 7567,
      "è·³è¿Ľåİ»": 7568,
      "çİ©èĢįäºĨ": 7569,
      "åĲĳæľĭåıĭä»¬": 7570,
      "æĦŁåĪ°éĿŀå¸¸å®³æĢķ": 7571,
      "æĭ¿æĿ¥": 7572,
      "æ¯Ķä»¥å¾Ģ": 7573,
      "ä¸Ģåıªåı«": 7574,
      "æĸ¹åĲĳ": 7575,
      "æ·»": 7576,
      "ç©ºåľ°": 7577,
      "ä»ĸçļĦå¦Īå¦Īç¬ĳçĿĢè¯´": 7578,
      "ä½Ĩä»ĸæ²¡æľī": 7579,
      "åĶ¤": 7580,
      "ä¸īå²ģçļĦ": 7581,
      "è¯·ä¸įè¦ģ": 7582,
      "åıĳçİ°äºĨä¸Ģæł¹": 7583,
      "ç±³å¨ħçļĦå°ıå¥³åŃ©": 7584,
      "è·Łéļı": 7585,
      "æ°¸è¿ľè®°ä½ı": 7586,
      "åĪ¶å®ļ": 7587,
      "æŀ¶ä¸Ĭ": 7588,
      "èĲ½ä¸ĭ": 7589,
      "æĭįçĿĢæīĭ": 7590,
      "ä¸ºèĩªå·±æĦŁåĪ°éĿŀå¸¸èĩªè±ª": 7591,
      "å¹³å®ī": 7592,
      "é¸ŁåĦ¿åľ¨": 7593,
      "å¼¹è·³": 7594,
      "çĪ¬ä¸Ĭæłĳ": 7595,
      "çľĭåĪ°äºĨä¸Ģä¸ªå¤§": 7596,
      "èµ°è¿Ľåİ¨æĪ¿": 7597,
      "ä¸Ģä¸ªåı«èĴĤå§ĨçļĦå°ıçĶ·åŃ©": 7598,
      "çł´ç¢İ": 7599,
      "åİ»çľĭåĮ»çĶŁ": 7600,
      "èĥĸèĥĸ": 7601,
      "åĲĥå®ĮäºĨ": 7602,
      "å¸¦ä»ĸåİ»": 7603,
      "çļĦèįīåľ°": 7604,
      "éľĩæĥĬ": 7605,
      "èħ°å¸¦": 7606,
      "ä¸ĵæ¨ª": 7607,
      "åĩĮä¹±": 7608,
      "æĪ·å¤ĸçİ©èĢį": 7609,
      "éŀŃ": 7610,
      "æ±ªæ±ª": 7611,
      "èĭįèĿĩ": 7612,
      "ç±³çī¹æģ©": 7613,
      "éĤ£å¤©ç¨įæĻļäºĽæĹ¶åĢĻ": 7614,
      "æĻ´æľĹ": 7615,
      "æĤ¬å´ĸ": 7616,
      "èħĲçĥ": 7617,
      "èĢ¸äºĨèĢ¸èĤ©": 7618,
      "è·³èļ¤": 7619,
      "çļĦæĹħç¨ĭ": 7620,
      "çļĦé¡¶ç«¯": 7621,
      "ä»ĸå¾Īå¼Ģå¿ĥ": 7622,
      "ä»ĸæĬĬå®ĥ": 7623,
      "ä»ĸç«ĭåĪ»": 7624,
      "å¥¹è¯ķçĿĢ": 7625,
      "æĺ¯åı¯ä»¥çļĦ": 7626,
      "å¾Īé«ĺ": 7627,
      "éĤ£è¾¹": 7628,
      "å¤§åŃ¦": 7629,
      "èİīèİīä¹Ł": 7630,
      "èİīèİīçĤ¹äºĨçĤ¹å¤´": 7631,
      "åľ°éľĩ": 7632,
      "æĭĤ": 7633,
      "èĢĲ": 7634,
      "ä½łåı¯èĥ½ä¼ļ": 7635,
      "æĦŁåĪ°åĽ°æĥĳ": 7636,
      "ä¸ºä»ĸçļĦ": 7637,
      "å¥¹çļĦå®¶äºº": 7638,
      "ä»İåīįæľīä¸¤ä¸ªæľĭåıĭ": 7639,
      "ä¸Ģèµ·åģļ": 7640,
      "æľīä¸Ģä¸ªå¾Īå¤§çļĦ": 7641,
      "å¼Ģå¿ĥæŀģäºĨ": 7642,
      "åı¯ä»¥è®©": 7643,
      "çĶ¨è¿Ļä¸ª": 7644,
      "çºª": 7645,
      "æ²¡äºº": 7646,
      "è¿Ļä¸ªå°ıçĶ·åŃ©": 7647,
      "è·³åķĬ": 7648,
      "åĲĥåįĪé¥Ń": 7649,
      "çŃĭ": 7650,
      "åĭ¤": 7651,
      "èĴĤå§ĨçļĦ": 7652,
      "æľīä¸Ģåıªå°ı": 7653,
      "æĢ»æĺ¯å¾Ī": 7654,
      "éķ¿å¾Ĺ": 7655,
      "éķ¿çŁĽ": 7656,
      "æķ´æķ´": 7657,
      "å¥¹åĸľæ¬¢çĶ¨": 7658,
      "ç®ĢçļĦå°ıå¥³åŃ©": 7659,
      "çĽ¸åıį": 7660,
      "ç¾İåĳ³çļĦèĽĭç³ķ": 7661,
      "åĩĨå¤ĩäºĨä¸Ģä¸ª": 7662,
      "æŃĮå£°": 7663,
      "å¥¹åľ¨èĬ±åĽŃéĩĮ": 7664,
      "åıĳçİ°äºĨä¸Ģé¢Ĺ": 7665,
      "èī¾ç±³çļĦå°ıå¥³åŃ©": 7666,
      "å®īå¨ľè¯´": 7667,
      "èĲ¨å§ĨåĴĮ": 7668,
      "åĽ°åĢ¦": 7669,
      "è¿·å®«": 7670,
      "æĳ¸æĳ¸": 7671,
      "çĶŁæ´»ä¸Ń": 7672,
      "åĸĿæ°´": 7673,
      "èĦļä¸ĭ": 7674,
      "èŃ¦è§ī": 7675,
      "åľ¨äºĨåľ°ä¸Ĭ": 7676,
      "æº¢": 7677,
      "ä»ĸå¯¹èĩªå·±": 7678,
      "çģ°èī²": 7679,
      "æīĵæī®": 7680,
      "æĭľæīĺ": 7681,
      "å¹¿åĳĬ": 7682,
      "éĺ¿æ¯Ķ": 7683,
      "å¥½èµ·æĿ¥çļĦ": 7684,
      "å¥½å¿ĥäºº": 7685,
      "çİ©å¾Ĺå¤ªå¼Ģå¿ĥäºĨ": 7686,
      "ä¸ĭèµ·äºĨéĽ¨": 7687,
      "æ¼ıæ°´": 7688,
      "éŀłèº¬": 7689,
      "çħİé¥¼": 7690,
      "èªĵ": 7691,
      "çļĦèĢģäºº": 7692,
      "å¥¹å¾Īå¼Ģå¿ĥ": 7693,
      "å¥¹å¾®ç¬ĳçĿĢè¯´": 7694,
      "å¥¹ç»Īäºİ": 7695,
      "æľīç¤¼è²Į": 7696,
      "èİīèİİ": 7697,
      "åľ¨åľ°æĿ¿ä¸Ĭ": 7698,
      "æĺ¯ä»ĸ": 7699,
      "çľĭåĲ§": 7700,
      "ä»ĸä»¬ä¸º": 7701,
      "ä»ĸä»¬åĲĳ": 7702,
      "ä»ĸä»¬å°±": 7703,
      "ä»ĸä»¬æĭ¥æĬ±": 7704,
      "ä»İåĵªéĩĮ": 7705,
      "ä½Ĩå®ĥä»¬": 7706,
      "å¹¶åıĳåĩº": 7707,
      "äºĨä¸Ģé¡¿": 7708,
      "åį¢": 7709,
      "å°ıå¥³åŃ©éĿŀå¸¸å¼Ģå¿ĥ": 7710,
      "å°ıå¥³åŃ©éĿŀå¸¸é«ĺåħ´": 7711,
      "æī¾åĽŀ": 7712,
      "åĩºåı£": 7713,
      "è·ĳæİīäºĨ": 7714,
      "èµ°å¼ĢäºĨ": 7715,
      "å£¶": 7716,
      "ä¹Łåľ¨": 7717,
      "ç¾İé£Ł": 7718,
      "åĨįè¯ķ": 7719,
      "ç§ĳ": 7720,
      "æ°´æ§½": 7721,
      "çļĦå°ıåĲĥ": 7722,
      "æľīä¸Ģåıªå¤§": 7723,
      "çĪ±ç®¡éĹ²äºĭ": 7724,
      "ä½Ĩæĺ¯å½ĵ": 7725,
      "åĬ¨çī©åĴĮ": 7726,
      "è¶Ĭé£ŀ": 7727,
      "åĲ¬åĪ°ä¸Ģä¸ªå£°éŁ³": 7728,
      "èµ°äºĨè¿ĽæĿ¥": 7729,
      "å¸¦çĿĢå¥¹çļĦ": 7730,
      "åĪĨäº«å¥¹çļĦ": 7731,
      "çī¹åĪ«çļĦç¤¼çī©": 7732,
      "èĪ¹éķ¿": 7733,
      "åĨ°çĲĥ": 7734,
      "åĨ°å±ĭ": 7735,
      "é¤Ĳé¦Ĩ": 7736,
      "è°¢è°¢æĤ¨": 7737,
      "åĿıäºĭ": 7738,
      "ç¼Ĩ": 7739,
      "åĶ±äºĨä¸Ģé¦ĸ": 7740,
      "åľ¨åħ¬åĽŃéĩĮçİ©": 7741,
      "ä¸įè¦ģæĭħå¿ĥ": 7742,
      "æ¸¸æ³³æ±ł": 7743,
      "æĵ¦å¹²": 7744,
      "å¥¹å¯¹èĩªå·±": 7745,
      "èººåľ¨èįīåľ°ä¸Ĭ": 7746,
      "éľ²åĩºäºĨçģ¿çĥĤçļĦç¬ĳå®¹": 7747,
      "ç¾Ĭæ¯Ľ": 7748,
      "å¸®åĬ©ä»ĸäºº": 7749,
      "é¼ĵæİĮæ¬¢åĳ¼": 7750,
      "è£ħé¥°åĵģ": 7751,
      "æĻĥåĬ¨": 7752,
      "èĥĸä¹İä¹İ": 7753,
      "è¡¨ç¤ºåĲĮæĦı": 7754,
      "æ½®": 7755,
      "å¯¼å¼¹": 7756,
      "åĪ°å®¶æĹ¶": 7757,
      "åĲ¬åĪ°äºĨä¸Ģä¸ªå£°éŁ³": 7758,
      "ers": 7759,
      "å±ıå¹ķ": 7760,
      "åĨ¬å¤©": 7761,
      "ç¬¦åı·": 7762,
      "çłĶç©¶": 7763,
      "å¹¿åĳĬçīĮ": 7764,
      "hi": 7765,
      "©æ¢¦": 7766,
      "çļĦç§ĺå¯Ĩ": 7767,
      "ä»ĸä»įçĦ¶": 7768,
      "å¥¹æī¾åĪ°äºĨ": 7769,
      "å¥¹æħ¢æħ¢åľ°": 7770,
      "ä½³": 7771,
      "å®ĥå·²ç»ı": 7772,
      "å®ĥçľĭèµ·æĿ¥åĥı": 7773,
      "ç»į": 7774,
      "ä¸ĬçĪ¬": 7775,
      "å¤§åį«": 7776,
      "èİīèİīå¼Ģå§ĭ": 7777,
      "æĥ³å¸®åĬ©": 7778,
      "æĥ³æĬĬå®ĥ": 7779,
      "åİ»åıĤåĬł": 7780,
      "å¥½åĲİ": 7781,
      "ç±į": 7782,
      "æłħ": 7783,
      "ä¸Ģèµ·è·³èĪŀ": 7784,
      "å¼Ģå¿ĥèµ·æĿ¥": 7785,
      "åıĪéļ¾è¿ĩ": 7786,
      "ç»Ļä»ĸçļĦ": 7787,
      "æĪĳä»¬æĬĬ": 7788,
      "åģļåĩºäºĨ": 7789,
      "è½¦ä¸Ĭ": 7790,
      "ç¾İäºĨ": 7791,
      "æīĭéķ¯": 7792,
      "åĲĥè¿ĩçļĦæľĢ": 7793,
      "é£ŀä¸ĬäºĨ": 7794,
      "æ°´åĴĮ": 7795,
      "åĽłä¸ºå®ĥä»¬": 7796,
      "æĽ´éĩįè¦ģ": 7797,
      "æ»¡æĢĢ": 7798,
      "éĤ£åıªèĻ«åŃĲ": 7799,
      "åĳĬè¯īä»ĸä»¬": 7800,
      "æľ¨æĿ¿": 7801,
      "åĲ¬åĪ°äºĨä¸Ģå£°å·¨åĵį": 7802,
      "éĶ¯åŃĲ": 7803,
      "åĭĩæķ¢çļĦå¥³åŃ©": 7804,
      "ç±³å¨ħè¯´": 7805,
      "åĻľ": 7806,
      "åĻ©æ¢¦": 7807,
      "åĨ·èĹı": 7808,
      "éĢģåĪ°": 7809,
      "ä½ĵéªĮ": 7810,
      "æ²ĻåŃĲéĩĮ": 7811,
      "éĤ£æĺ¯ä¸ĢåĿĹ": 7812,
      "æ±½è½¦åĴĮ": 7813,
      "åĽ¢ç»ĵ": 7814,
      "ä¾ĿéĿł": 7815,
      "ä¸Ģå®ļæĺ¯": 7816,
      "ä¸Ģä¸ªåı«èİīèİīçļĦå°ıå¥³åŃ©": 7817,
      "å·¢ç©´": 7818,
      "ç¢İäºĨ": 7819,
      "é»ĳæļĹçļĦ": 7820,
      "ç²Ĺé²ģ": 7821,
      "å¯¹å¥¹æĿ¥è¯´": 7822,
      "çĤ¹çĤ¹å¤´è¯´": 7823,
      "åį§å®¤éĩĮ": 7824,
      "è¾Ľèĭ¦": 7825,
      "æĥ³è±¡åĬĽ": 7826,
      "å´Ń": 7827,
      "ä¸ĵæ³¨": 7828,
      "è·ĳå¾Ĺå¾Īå¿«": 7829,
      "åģĩè£ħèĩªå·±æĺ¯": 7830,
      "åħ±åĲĮ": 7831,
      "å¤ªéĺ³å¼Ģå§ĭä¸ĭå±±": 7832,
      "ä»ĭç»į": 7833,
      "Ja": 7834,
      "ç¹": 7835,
      "çļĦåĸĦèī¯": 7836,
      "çļĦå¥³å£«": 7837,
      "çļĦåħīèĬĴ": 7838,
      "çļĦæĻ¯è±¡": 7839,
      "ä¸ĢåľĪ": 7840,
      "ä¸Ģè·¯ä¸Ĭ": 7841,
      "äºĨè¿ĩåİ»": 7842,
      "ä»ĸæĦŁåĪ°å®³æĢķ": 7843,
      "ä»ĸæ¯ıå¤©éĥ½ä¼ļ": 7844,
      "æľīä¸¤åıª": 7845,
      "æľīåĪĽæĦı": 7846,
      "èİīåħ¹": 7847,
      "åľ¨åģļä»Ģä¹Ī": 7848,
      "å°ıè¯´": 7849,
      "ä¸Ģä¸ªéĺ³åħīæĺİåªļçļĦæĹ¥åŃĲ": 7850,
      "ä»ĸä»¬è¿ĺ": 7851,
      "ä¸Ĭè·¯": 7852,
      "æľīä¸Ģçīĩ": 7853,
      "åĨĽ": 7854,
      "æĹ¶å°ļ": 7855,
      "æ¯ģ": 7856,
      "ä½łçİ°åľ¨": 7857,
      "åı¯è´´": 7858,
      "æ°§": 7859,
      "çĦ¶åĲİå®ĥ": 7860,
      "éĹ®å¥¹çļĦå¦Īå¦Ī": 7861,
      "è·³äºĨè¿Ľåİ»": 7862,
      "ç§Ģ": 7863,
      "é©°": 7864,
      "æıĲç±³çļĦçĪ¸çĪ¸": 7865,
      "æıĲç±³åĸľæ¬¢çİ©ä»ĸçļĦçİ©åħ·": 7866,
      "å®īå¿ĥ": 7867,
      "æīĵä¸ª": 7868,
      "æķħæĦı": 7869,
      "å¯»æī¾åı¯ä»¥": 7870,
      "è¿Ļæĺ¯ä¸Ģç§į": 7871,
      "ç»ĻäºĨä»ĸä»¬": 7872,
      "æ»ĳä¸ĭæĿ¥": 7873,
      "ä¸¤åįĬ": 7874,
      "æĪ¿éĹ´çļĦ": 7875,
      "å¸¦çĿĢå¾®ç¬ĳ": 7876,
      "åº¦åģĩ": 7877,
      "å¥¹å¦Īå¦Īå¾®ç¬ĳçĿĢè¯´": 7878,
      "ç³ķçĤ¹": 7879,
      "åĢĴè¿Ľ": 7880,
      "ç¦»å¼ĢçļĦæĹ¶åĢĻ": 7881,
      "æĳĺä¸ĭäºĨ": 7882,
      "æĶ¾è¿Ľçĥ¤ç®±": 7883,
      "åĪĽåı¯è´´": 7884,
      "éĢĥç¦»": 7885,
      "åľ¨éĺ³åħīä¸ĭéĹªéĹªåıĳåħī": 7886,
      "å¥¹éĹ®ä»ĸ": 7887,
      "æı¡çĿĢ": 7888,
      "æŃ£ç¡®çļĦäºĭæĥħ": 7889,
      "éľĩåĬ¨": 7890,
      "å¤©é¹ħç»Ĵ": 7891,
      "æĺ¯ä¸įå¯¹çļĦ": 7892,
      "è£Ĥç¼Ŀ": 7893,
      "è¡£æŁľéĩĮ": 7894,
      "èŀºä¸Ŀ": 7895,
      "åĲĦç§įåĲĦæł·": 7896,
      "æĮ£æīİ": 7897,
      "å®ŀéªĮå®¤": 7898,
      "éĤ®éĢĴåĳĺ": 7899,
      "éŀŃåŃĲ": 7900,
      "æłħæłı": 7901,
      "nny": 7902,
      "¯ä¸Ģ": 7903,
      "»çĤ": 7904,
      "çļĦç¿ħèĨĢ": 7905,
      "çļĦæĥħåĨµ": 7906,
      "äºĨä»Ģä¹Ī": 7907,
      "ä»ĸæĺ¯ä¸Ģä¸ª": 7908,
      "ä»ĸåºĶè¯¥": 7909,
      "ä»ĸç»Īäºİ": 7910,
      "ä»ĸåıĳçİ°äºĨä¸Ģä¸ª": 7911,
      "æľīæĿ¡": 7912,
      "æľīåı²": 7913,
      "åľ¨èº«è¾¹": 7914,
      "æĺ¯åľ¨": 7915,
      "å°ıåģ·": 7916,
      "æĦĪ": 7917,
      "è¿Ļæľ¬": 7918,
      "ä»ĸä»¬æ¯ıå¤©": 7919,
      "åĴĮçĭĹ": 7920,
      "åĴĮèĶ": 7921,
      "éĤ£å¤´": 7922,
      "æľīä¸Ģèīĺ": 7923,
      "äºĨä¸Ģéģĵ": 7924,
      "ä½łåģļ": 7925,
      "éĥ½èĥ½": 7926,
      "åı¯ä»¥åľ¨": 7927,
      "æĪĳä»¬åľ¨": 7928,
      "æĪĳä»¬èµ°åĲ§": 7929,
      "åĬ¨ç¿ħèĨĢ": 7930,
      "çĦ¶åĲİè¯´éģĵ": 7931,
      "æ¯ıä¸Ģ": 7932,
      "æıĲç±³çļĦæľĭåıĭ": 7933,
      "æĽ´å¤§çļĦ": 7934,
      "ä¼¤åĪ°": 7935,
      "å¾®ç¬ĳçĿĢçĤ¹äºĨçĤ¹å¤´": 7936,
      "å¤ĸéĿ¢çİ©": 7937,
      "çº¦ç¿°è¯´": 7938,
      "åĥıä¸ª": 7939,
      "éĿŀå¸¸åĸľæ¬¢åĲĥ": 7940,
      "éĶ»çĤ": 7941,
      "æĢİä¹Īä¹Ł": 7942,
      "éĩĮéĿ¢æĺ¯ä»Ģä¹Ī": 7943,
      "åĽłä¸ºä»ĸçŁ¥éģĵ": 7944,
      "å®ĥçļĦåĲįåŃĹåı«": 7945,
      "å¤ªéĺ³éķľ": 7946,
      "æĶ¾åľ¨äºĨ": 7947,
      "ç»Ĩå¿ĥ": 7948,
      "ä¸Ŀå¸¦": 7949,
      "åĨĻåŃĹ": 7950,
      "æī¾åĪ°äºĨä¸Ģåıª": 7951,
      "ä»Ķç»Ĩçľĭçľĭ": 7952,
      "åŃ¦ä¹łæĸ°äºĭçī©": 7953,
      "ç»Ļå¥¹çľĭ": 7954,
      "åıĸå¾Ĺ": 7955,
      "å±ħçĦ¶": 7956,
      "åĺ´å·´": 7957,
      "å¾ĹæĽ´é«ĺ": 7958,
      "æłĩçīĮ": 7959,
      "ä½İå£°": 7960,
      "è¦ģåİ»åĵªéĩĮ": 7961,
      "æĪ´çĿĢä¸Ģé¡¶": 7962,
      "éĢĲæ¸Ĳ": 7963,
      "é½¿è½®": 7964,
      "çĮĽçĥĪ": 7965,
      "æľīä¸¤ä¸ªæľĢå¥½çļĦæľĭåıĭ": 7966,
      "æµ´ç¼¸éĩĮ": 7967,
      "éģĵäºĨæŃī": 7968,
      "åĲĮæĥħå¿ĥ": 7969,
      "æĥ³åĪ°ä¸Ģä¸ªä¸»æĦı": 7970,
      "é¼ĵèµ·åĭĩæ°Ķ": 7971,
      "ç¹ģ": 7972,
      "æ°§æ°Ķ": 7973,
      "æľīåı²ä»¥æĿ¥": 7974,
      "éĶ»çĤ¼": 7975,
      "çļĦéĤ£ä¸ª": 7976,
      "çļĦç¤¼çī©": 7977,
      "çļĦç»¿èī²": 7978,
      "ä»ĸçĪ¸çĪ¸": 7979,
      "ä»ĸå¾Īå¿«": 7980,
      "å¥¹æŃ£": 7981,
      "å¥¹åĽĽå¤Ħå¼łæľĽ": 7982,
      "æĺ¯å¥¹çļĦ": 7983,
      "ä»ĸä»¬å¾Īé«ĺåħ´": 7984,
      "ä»ĸä»¬çľĭçĿĢ": 7985,
      "ä¸įå¼Ģ": 7986,
      "ä¸įèĢĲ": 7987,
      "å¦Īå¦ĪçŃĶåºĶäºĨ": 7988,
      "åĸĺ": 7989,
      "ä¸Ĭæľīä¸Ģä¸ª": 7990,
      "èİīèİīæĦŁåĪ°éļ¾è¿ĩ": 7991,
      "ç±³é¥Ń": 7992,
      "çĽĳ": 7993,
      "å¼Ģå¿ĥçļĦ": 7994,
      "åĪ«éĴĪ": 7995,
      "å®ĥä»¬ä¸Ģèµ·": 7996,
      "æĥĬåĳ¼": 7997,
      "ä¿Ŀç®¡": 7998,
      "éĤ£æĺ¯å¥¹": 7999,
      "éĤ£éĩĮæľī": 8000,
      "åĶ¯ä¸Ģ": 8001,
      "ä½łçļĦæľĭåıĭ": 8002,
      "æİ¥çĲĥ": 8003,
      "å½ĵä»ĸä»¬åľ¨": 8004,
      "ç¾İåĳ³çļĦé¥¼å¹²": 8005,
      "ç¾İåĳ³çļĦçĤ¹å¿ĥ": 8006,
      "çıįçıł": 8007,
      "ç¢°åĪ°": 8008,
      "æŁĶè½¯åıĪ": 8009,
      "éĽĨå¸Ĥ": 8010,
      "åıĤä¸İ": 8011,
      "åĿĳéĩĮ": 8012,
      "æĦŁåıĹåĪ°äºĨ": 8013,
      "å¼Ĺåħ°": 8014,
      "åĲİéĻ¢çİ©èĢį": 8015,
      "åīªå¤´åıĳ": 8016,
      "è®©æĪĳæĿ¥": 8017,
      "èº²åľ¨": 8018,
      "åģļåĪ°çļĦ": 8019,
      "å¿«éĢŁåľ°": 8020,
      "éľĢè¦ģå¸®åĬ©æĹ¶": 8021,
      "ä¸įçĶ¨æĭħå¿ĥ": 8022,
      "ä½ľåĵģæĦŁåĪ°éĿŀå¸¸èĩªè±ª": 8023,
      "æķĻä»ĸå¦Ĥä½ķ": 8024,
      "åīĥåĪĢ": 8025,
      "å®īçĦ¶æĹłæģĻ": 8026,
      "ck": 8027,
      "±ä¹Ĳ": 8028,
      "ĭèŁ": 8029,
      "ä¸°": 8030,
      "çļĦç¾İåĳ³": 8031,
      "ä»ĸæĭ¿çĿĢ": 8032,
      "åı³": 8033,
      "å¥¹ç¬ĳäºĨ": 8034,
      "å¥¹æ¯ıå¤©éĥ½ä¼ļ": 8035,
      "å°ıæıĲçĲ´": 8036,
      "å¤©èī²": 8037,
      "çĿĢä»ĸ": 8038,
      "éģ®": 8039,
      "æĭĨ": 8040,
      "çĦķ": 8041,
      "æ³Ĭ": 8042,
      "çĦ¶åĲİè·ĳå¼ĢäºĨ": 8043,
      "çĶ¨äºĨ": 8044,
      "çĶ¨è¿ĻäºĽ": 8045,
      "è·³å¾Ĺ": 8046,
      "æŀľåŃĲ": 8047,
      "é¢Ŀ": 8048,
      "æĥ³è¦ģæİ¢ç´¢": 8049,
      "æ»¡æ»¡": 8050,
      "æ¸¸èµ°äºĨ": 8051,
      "åħĶåŃĲåĴĮ": 8052,
      "çľŁå¥½åĲĥ": 8053,
      "ç»§ç»Ńæİ¢ç´¢": 8054,
      "å¥¹åĸľæ¬¢æİ¢ç´¢": 8055,
      "çĽ¸æ¡Ĩ": 8056,
      "åĭĩæķ¢åıĪ": 8057,
      "èĮĤ": 8058,
      "æĿ¾æłĳ": 8059,
      "çĶµç¼Ĩ": 8060,
      "éĽ¨åģľäºĨ": 8061,
      "åķĨåºĹæĹ¶": 8062,
      "ä¸įä¼ļåĨį": 8063,
      "åĴĮå¥¹çļĦå®¶äºº": 8064,
      "å¤ªéĺ³èĲ½å±±": 8065,
      "å¥¹çľĭåĪ°äºĨä¸Ģä¸ª": 8066,
      "é»ĳçļĦ": 8067,
      "è´Ŀä¸Ŀ": 8068,
      "å±±å§Ĩè¯´": 8069,
      "ç®¡çĲĨ": 8070,
      "ä¸ĬéĿ¢æľī": 8071,
      "æ¿ĢåĬ¨å¾Ĺ": 8072,
      "ä½ıåľ¨ä¸Ģçīĩ": 8073,
      "åŃĺåľ¨": 8074,
      "çļĦèľĤ": 8075,
      "éĺ´æ²ī": 8076,
      "çĪ¬ä¸ĬäºĨæłĳ": 8077,
      "åĮĨåĮĨ": 8078,
      "ä¸ĸçķĮä¸ĬæľĢ": 8079,
      "çİ©ä¸Ģä¸ªæ¸¸æĪı": 8080,
      "çļĦèľ¡ç¬Ķ": 8081,
      "ä¸įèĢĲçĥ¦": 8082,
      "ĭèŁĢ": 8083,
      "äºĨåĩºåİ»": 8084,
      "ä»ĸæīĵå¼Ģ": 8085,
      "ä»ĸä¸įå¾Ĺä¸į": 8086,
      "å¥¹åĿĲåľ¨": 8087,
      "æľīèĢĲå¿ĥ": 8088,
      "ä¸Ģä¸ªçĲĥ": 8089,
      "æĿ¥åĪ°äºĨä¸Ģä¸ª": 8090,
      "å¦Īå¦Īå¾®ç¬ĳçĿĢ": 8091,
      "ä¼ģ": 8092,
      "ä¸ĬæĿ¥": 8093,
      "ç¬Ĩ": 8094,
      "ä½łè¦ģ": 8095,
      "ä½łçľŁæĺ¯å¤ª": 8096,
      "åĩĿ": 8097,
      "éĥ½æľī": 8098,
      "åı«ä»ĸ": 8099,
      "æľĭåıĭçļĦ": 8100,
      "æŀ¯": 8101,
      "å®¶çļĦ": 8102,
      "è·ĳåĩºäºĨ": 8103,
      "è·ĳè¿ĽäºĨ": 8104,
      "è·ĳåĪ°å¤ĸéĿ¢åİ»": 8105,
      "çĦ¶åĲİè·ĳåİ»": 8106,
      "çĦ¶åĲİåĽŀå®¶äºĨ": 8107,
      "ç¾İæĻ¯": 8108,
      "çŁ¥éģĵä»ĸå¿ħé¡»": 8109,
      "çĤ¹çĩĥ": 8110,
      "æīĭè¡¨": 8111,
      "åħīäº®": 8112,
      "æĭ¿åĪ°äºĨ": 8113,
      "çļĦèļ": 8114,
      "è´¥": 8115,
      "å£°éŁ³æĺ¯ä»İ": 8116,
      "å¯»å¸¸": 8117,
      "è§īå¾Ĺè¿Ļæĺ¯ä¸ªå¥½ä¸»æĦı": 8118,
      "åıĺå¾Ĺå¹²åĩĢ": 8119,
      "å¥¹åĸľæ¬¢åĴĮæľĭåıĭä»¬": 8120,
      "è®°åı·": 8121,
      "åĥıä½ł": 8122,
      "éĹ¨æĬĬæīĭ": 8123,
      "å¸¦çĿĢä»ĸçļĦ": 8124,
      "ä¿¡èµĸ": 8125,
      "æĮģç»Ń": 8126,
      "æ¶¦": 8127,
      "çĶµçº¿": 8128,
      "åĩºæĿ¥çļĦ": 8129,
      "ä¹¦ç±į": 8130,
      "ä»İåīįæľīä¸Ģä¸ªå¥³åŃ©": 8131,
      "è¿ĩæĿ¥ä¸Ģèµ·çİ©": 8132,
      "å¥¹å¦Īå¦Īè¯´éģĵ": 8133,
      "åĪĩåľ°": 8134,
      "æ°¸è¿ľè®°å¾Ĺ": 8135,
      "èĢĮä¸Ķå¾Ī": 8136,
      "ä¸įåĨįå®³æĢķ": 8137,
      "ä½ĵèĤ²": 8138,
      "ç«ĻçĿĢ": 8139,
      "æľīäºĽå®³æĢķ": 8140,
      "æľīä¸Ģä¸ªå°ıå¥³åŃ©åĲįåı«èİīèİī": 8141,
      "æ¢¦ä¹¡": 8142,
      "å¢ŀ": 8143,
      "çĽĸåŃĲ": 8144,
      "å¥¹å¯¹èĩªå·±çļĦ": 8145,
      "å¥ĸåĵģ": 8146,
      "è¯·æ±Ĥå¸®åĬ©": 8147,
      "çģ°å°ĺ": 8148,
      "æ©¡èĥ¶": 8149,
      "çł´åĿı": 8150,
      "å®ĪæĬ¤": 8151,
      "èĴĤå§ĨåĴĮèĭı": 8152,
      "ç§°ä¸º": 8153,
      "åĸľæ¬¢åľ¨å¤ĸéĿ¢çİ©": 8154,
      "åĲĪéĢĤçļĦ": 8155,
      "çĻ¾": 8156,
      "æīŃåĬ¨": 8157,
      "åĲ¬äºĨå¦Īå¦ĪçļĦè¯Ŀ": 8158,
      "ä»İåīįæľīä¸Ģä¸ªçĶ·åŃ©åı«": 8159,
      "ç¯±ç¬Ĩ": 8160,
      "çĸ¯çĭĤ": 8161,
      "çľ¨äºĨçľ¨çľ¼": 8162,
      "æ¬£åĸľèĭ¥": 8163,
      "æĿĳæ°ĳä»¬": 8164,
      "äº¤åĪ°äºĨä¸Ģä¸ªæĸ°æľĭåıĭ": 8165,
      "åĴĮèĶ¼": 8166,
      "æ¬£åĸľèĭ¥çĭĤ": 8167,
      "ħé¥¼": 8168,
      "çļĦå®¶åºŃ": 8169,
      "å¥¹ä»įçĦ¶": 8170,
      "å¥¹åĪ°å¤Ħå¯»æī¾": 8171,
      "å°ıé¸¡": 8172,
      "çľĭçĶµå½±": 8173,
      "ä»ĸä»¬æī¾": 8174,
      "å®ĥè¢«": 8175,
      "éĿŀå¸¸é¥¿": 8176,
      "çİ©åĪ°": 8177,
      "æĪĳä¿Ŀè¯ģ": 8178,
      "ä»İå¥¹": 8179,
      "å¹¶ä¿ĿæĮģ": 8180,
      "éĥ½åĸľæ¬¢": 8181,
      "è½½": 8182,
      "åıĳèªĵ": 8183,
      "æī¾çĤ¹": 8184,
      "å½ĵæĹ¶": 8185,
      "è·ĳå¾ĹéĿŀå¸¸å¿«": 8186,
      "è®©æ¯ıä¸ªäººéĥ½": 8187,
      "æĪĲæŀľ": 8188,
      "åıĳçİ°çļĦ": 8189,
      "éĽĢ": 8190,
      "çļĦèĮ": 8191,
      "çļĦèĹ": 8192,
      "æľīä¸Ģä¸ªåĲįåı«éľ²è¥¿çļĦå°ıå¥³åŃ©": 8193,
      "ç»ĪçĤ¹": 8194,
      "çľĭèµ·æĿ¥å¥½": 8195,
      "çŁ³åŃĲ": 8196,
      "çĪ¬è¡Į": 8197,
      "è¿Ļæł·å®ĥ": 8198,
      "åħ³ä¸Ĭ": 8199,
      "é¦ħé¥¼": 8200,
      "åĨĴéĻ©ç»ıåİĨ": 8201,
      "å½ĵå¥¹çľĭåĪ°": 8202,
      "å·²æĻļ": 8203,
      "åŃĹåħ¸": 8204,
      "æĹ¥èĲ½": 8205,
      "èĪŀåı°": 8206,
      "è¿ĩæĿ¥çľĭ": 8207,
      "å¾®ç¬ĳèµ·æĿ¥": 8208,
      "åº¦è¿ĩäºĨä¸Ģä¸ª": 8209,
      "èĲ½åı¶": 8210,
      "å¦Ĥæŀľä»ĸ": 8211,
      "æĵİ": 8212,
      "æĿ¿ä¸Ĭ": 8213,
      "æłĳæŀĿåĴĮ": 8214,
      "æīĵå¼ĢäºĨçĽĴåŃĲ": 8215,
      "çĶľçļĦ": 8216,
      "æ¹ĸæ³Ĭ": 8217,
      "éķĩä¸ĬçļĦ": 8218,
      "çĽ®éĢģ": 8219,
      "ç»ĻäºĨä»ĸä¸Ģä¸ª": 8220,
      "é²ľèĬ±": 8221,
      "å¤§å¤§çļĦç¬ĳå®¹": 8222,
      "æ¸ħçĲĨå¹²åĩĢ": 8223,
      "å¼ķæĵİ": 8224,
      "æ¶Ĥèī²": 8225,
      "è§£åĨ³äºĨ": 8226,
      "åģļä¸ĢäºĽçī¹åĪ«çļĦäºĭæĥħ": 8227,
      "çĳŀç§ĭ": 8228,
      "èĥĮåĮħ": 8229,
      "åĴªåĴª": 8230,
      "å®īæħ°å¥¹": 8231,
      "é¡ºåĪ©": 8232,
      "åŃ¦åĪ°äºĨä¸Ģä¸ªéĩįè¦ģçļĦæķĻè®Ń": 8233,
      "æīĳçģŃ": 8234,
      "Tweetie": 8235,
      "æľ±èİī": 8236,
      "ä¸ĭå®ļåĨ³å¿ĥè¦ģ": 8237,
      "Bob": 8238,
      "å§¨å¦Ī": 8239,
      "ä¼ģé¹ħ": 8240,
      "ķéĺ³": 8241,
      "çļĦé¢ľèī²": 8242,
      "ä¸Ģèīĺ": 8243,
      "ä¸Ģæŀļ": 8244,
      "ä»ĸåĨįä¹Łæ²¡æľī": 8245,
      "ä»ĸæħ¢æħ¢åľ°": 8246,
      "ä»ĸç®ĢçĽ´ä¸įæķ¢çĽ¸ä¿¡": 8247,
      "å¤ķéĺ³": 8248,
      "è¯±": 8249,
      "å°ıå±±": 8250,
      "ä»ĸä»¬æĦŁè°¢": 8251,
      "éĿŀå¸¸åı¯çĪ±": 8252,
      "åĴĮå®³æĢķ": 8253,
      "éĤ£æĶ¯": 8254,
      "æĪĳçĽ¸ä¿¡": 8255,
      "ä»İä¸į": 8256,
      "ä¸Ĭæľī": 8257,
      "ä¸Ĭæĸ¹": 8258,
      "åİ»æĹħè¡Į": 8259,
      "ä½Ĩä»ĸçļĦå¦Īå¦Ī": 8260,
      "å¹¶å¸ĮæľĽ": 8261,
      "äººåľ¨": 8262,
      "å¥¹çļĦå¥¶å¥¶": 8263,
      "éĥ½æī¾ä¸įåĪ°": 8264,
      "åı«äºĨä¸Ģå£°": 8265,
      "èĥ½å¸®åĬ©": 8266,
      "èµ°æĹ¶": 8267,
      "åı¯ä»¥åģļ": 8268,
      "åıĪæ¼Ĥäº®": 8269,
      "çĭ±": 8270,
      "çĦ¶åĲİåİ»": 8271,
      "éĹ®äºĨ": 8272,
      "åĲĳäºĨ": 8273,
      "æĬ±åľ¨": 8274,
      "éŁ³æľº": 8275,
      "æĿ°åħĭçļĦå¦Īå¦Ī": 8276,
      "æŃ£åľ¨èĬ±åĽŃéĩĮ": 8277,
      "æĹłçŁ¥": 8278,
      "å®Įä¹ĭåĲİ": 8279,
      "çİ©å¾Ĺå¾Ī": 8280,
      "åģľåľ¨äºĨ": 8281,
      "æĻļå®ī": 8282,
      "çĽ´åĪ°æľīä¸Ģå¤©": 8283,
      "äºĨä¸ĢäºĽå¥ĩæĢªçļĦäºĭæĥħ": 8284,
      "éĵľ": 8285,
      "çľĭçľĭå®ĥ": 8286,
      "åıĳçĶŁä»Ģä¹Ī": 8287,
      "æľįåĬ¡": 8288,
      "é¤Ĳæ¡Į": 8289,
      "æİ¥ä½ı": 8290,
      "æİ¥è¿ĳ": 8291,
      "åħħæ»¡å¥½å¥ĩ": 8292,
      "ä»ĸä»¬çļĦçİ©åħ·": 8293,
      "æīĢæľīçļĦåĬ¨çī©éĥ½": 8294,
      "é¡¶å¸½åŃĲ": 8295,
      "åĨ·äºĨ": 8296,
      "æıĲå§ĨçļĦå°ıçĶ·åŃ©": 8297,
      "é¦Ļæ°´": 8298,
      "æ¸©æļĸåıĪ": 8299,
      "éĤ£æĺ¯ä¸Ģé¢Ĺ": 8300,
      "å®¶éĩĮçļĦ": 8301,
      "æ¿ĢåĬ¨åľ°": 8302,
      "åĶ±æŃĮåĴĮ": 8303,
      "å¹´éķ¿çļĦ": 8304,
      "è·ŁçĿĢå¥¹": 8305,
      "å¤§å£°åľ°": 8306,
      "èĪĴéĢĤçļĦåľ°æĸ¹": 8307,
      "è¯Ńè¨Ģ": 8308,
      "ä¹Łæĥ³çİ©": 8309,
      "å®½å¹¿": 8310,
      "åĲĮæĹ¶ä¹Ł": 8311,
      "èİ·èĥľ": 8312,
      "æ¨¡ä»¿": 8313,
      "æĿĤè´§": 8314,
      "æĦŁåĪ°æĹłæ¯Ķèĩªè±ª": 8315,
      "æ©¡çļ®æĵ¦": 8316,
      "ä¸Ģæ®µæĹ¶éĹ´": 8317,
      "ä¸ĳéĻĭçļĦ": 8318,
      "èīºæľ¯": 8319,
      "é¡½çļ®": 8320,
      "çĽĳçĭ±": 8321,
      "çļĦåĬĽéĩı": 8322,
      "äºĨäºĽ": 8323,
      "ä»ĸåĿĲåľ¨": 8324,
      "ä»ĸèµ°è¿ĳ": 8325,
      "ä»ĸæĦıè¯ĨåĪ°èĩªå·±": 8326,
      "å¥¹ç©¿ä¸Ĭ": 8327,
      "åľ¨ä¸Ģä¸ªå¤§": 8328,
      "æĺ¯å¦Ĥä½ķ": 8329,
      "ä¹³": 8330,
      "æī¯": 8331,
      "å¤©é»ĳ": 8332,
      "è¿Ļæ®µ": 8333,
      "æĿ¥åģļ": 8334,
      "ä»ĸä»¬è§īå¾Ĺ": 8335,
      "å¦Īå¦ĪçļĦæīĭ": 8336,
      "æľīä¸Ģæľµ": 8337,
      "æĭ¨": 8338,
      "ä½Ĩå¥¹çļĦå¦Īå¦Īè¯´": 8339,
      "å¹¶åĴĮ": 8340,
      "å¹¶æĦıè¯ĨåĪ°": 8341,
      "éģĵè°¢": 8342,
      "å¾Ĺå¾Īå¿«": 8343,
      "æĬĬä¸ľè¥¿": 8344,
      "ä¸ºæĹ¶": 8345,
      "åħ´åľ°": 8346,
      "è½°": 8347,
      "é£ĵ": 8348,
      "é«ĺå¡Ķ": 8349,
      "å½ĵæĪĳä»¬": 8350,
      "åıĪéķ¿": 8351,
      "æľĢå¿«çļĦ": 8352,
      "å¤ªåħ´å¥ĭäºĨ": 8353,
      "å£°åĵį": 8354,
      "åĲĳå¤ĸ": 8355,
      "æĪĲä¸Ģ": 8356,
      "åĲįåı«é©¬åħĭæĸ¯": 8357,
      "æ²¡æľīæī¾åĪ°": 8358,
      "èĴĤç±³éĿŀå¸¸é«ĺåħ´": 8359,
      "æĿ°åħĭéĿŀå¸¸åħ´å¥ĭ": 8360,
      "æľīä¸Ģåıªåı¯çĪ±": 8361,
      "çĨĬåħĪçĶŁ": 8362,
      "æľīä¸Ģä¸ªåı«èĴĤå§ĨçļĦå°ıçĶ·åŃ©": 8363,
      "ç½©": 8364,
      "åĵŃå£°": 8365,
      "åĨ°åĩī": 8366,
      "ç¼ł": 8367,
      "æķĻåłĤ": 8368,
      "çĸĳ": 8369,
      "æ³¢æ¯Ķ": 8370,
      "åºĬåŀ«": 8371,
      "æĹħéĢĶä¸Ń": 8372,
      "èĢĮä¸ĶéĿŀå¸¸": 8373,
      "çĵ¢": 8374,
      "ä¸įè¦ģå®³æĢķ": 8375,
      "ç¾İä¸½çļĦèĬ±": 8376,
      "ä¸įåĲĮçļĦä¸ľè¥¿": 8377,
      "éĥģ": 8378,
      "å¼Ģå¿ĥåľ°ç¬ĳäºĨèµ·æĿ¥": 8379,
      "åĹħ": 8380,
      "æĭ¥æĬ±äºĨå¥¹": 8381,
      "åıĳçİ°äºĨä»Ģä¹Ī": 8382,
      "ä¸Ģå®ļè¦ģå°ıå¿ĥ": 8383,
      "çĽ®åħī": 8384,
      "çĶ»çĶ»åĴĮ": 8385,
      "åĴĮä»ĸä¸Ģèµ·çİ©": 8386,
      "ä¸ĽæŀĹä¸Ń": 8387,
      "å¾Ĺè¶ĬæĿ¥è¶Ĭå¿«": 8388,
      "æĬĺåıł": 8389,
      "è¾Ľåĭ¤": 8390,
      "äºĨåıĪæī¾": 8391,
      "äºĨä¸Ģå¤§åı£": 8392,
      "å¯ĴåĨ·çļĦ": 8393,
      "ä»Ģä¹Īä¹Łæ²¡": 8394,
      "äºĶå½©ç¼¤çº·çļĦ": 8395,
      "åĸ·æ°Ķå¼ı": 8396,
      "å®Ŀè´µçļĦæķĻè®Ń": 8397,
      "éĿĻéĿĻåľ°": 8398,
      "Max": 8399,
      "èĦıåħ®åħ®çļĦ": 8400,
      "ç±³çī¹æģ©æĸ¯": 8401,
      "Mi": 8402,
      "¼æ³½": 8403,
      "ĩåı": 8404,
      "çļĦçħ§çīĩ": 8405,
      "ä»ĸçİ©": 8406,
      "ä»ĸæĦŁåĪ°éĿŀå¸¸å¼Ģå¿ĥ": 8407,
      "å¥¹æĭ¿": 8408,
      "å¥¹æĭ¿åĩº": 8409,
      "å¥¹æĺ¯åĲ¦åı¯ä»¥": 8410,
      "è¿Ļå¹ħçĶ»": 8411,
      "æĿ¥ä¸´": 8412,
      "ä»ĸä»¬çİ©äºĨ": 8413,
      "åĴĮæ»¡è¶³": 8414,
      "ä¸įä¸Ĭ": 8415,
      "ä¸įåĲ¬": 8416,
      "åĸĩåı": 8417,
      "èİīèİīæĦŁè§īå¥½å¤ļäºĨ": 8418,
      "åİ»äºĨä¸Ģä¸ª": 8419,
      "ä½Ĩå°±åľ¨è¿ĻæĹ¶": 8420,
      "ä½Ĩå§ĭç»Ī": 8421,
      "ä¼ļä¸ĢçĽ´": 8422,
      "æŃ¦": 8423,
      "ä»ĸçļĦçĪ¶äº²": 8424,
      "åıĳåŀĭ": 8425,
      "æ²¼æ³½": 8426,
      "é«ĺé«ĺåħ´": 8427,
      "æĦıä¹ī": 8428,
      "å¸®æīĭ": 8429,
      "é«ĺåħ´äºĨ": 8430,
      "åĲįçĶ·åŃĲ": 8431,
      "å¸¦èµ°äºĨ": 8432,
      "æ°´è¾¹": 8433,
      "çĪ¸çĪ¸åĴĮ": 8434,
      "èĴĤç±³éĿŀå¸¸åĸľæ¬¢": 8435,
      "æĽ´å¤§": 8436,
      "æ»¡èĦ¸": 8437,
      "éķ¿åĩ³": 8438,
      "æĿ¡çº¹": 8439,
      "çĨĬå¦Īå¦Ī": 8440,
      "çľŁæ£Ĵ": 8441,
      "çľŁå®ŀ": 8442,
      "ç»§ç»Ńåīįè¡Į": 8443,
      "èĥĨ": 8444,
      "è¿Ļæł·çļĦä¸ľè¥¿": 8445,
      "æĢİæł·": 8446,
      "éĩĮéĿ¢è£ħæ»¡äºĨ": 8447,
      "åĶ®": 8448,
      "è§£å¼Ģ": 8449,
      "è¿ĻäºĽä¸ľè¥¿": 8450,
      "è½»æŁĶ": 8451,
      "ä¸Ģæł·çļĦ": 8452,
      "ä»ĸä»¬éĥ½ç¬ĳäºĨ": 8453,
      "å°Ŀè¯ķä¸Ģä¸ĭ": 8454,
      "çľĭè§ģäºĨ": 8455,
      "çķĻåľ¨äºĨ": 8456,
      "æĦŁè§īå¥½ä¸ĢçĤ¹": 8457,
      "å¾ĢéĩĮéĿ¢": 8458,
      "çªĹè¾¹": 8459,
      "éĤ£æĺ¯ä¸Ģè¾Ĩ": 8460,
      "æ¢¦æĥ³çĿĢ": 8461,
      "æĹłè®ºä»ĸ": 8462,
      "çĽĺåŃĲéĩĮ": 8463,
      "çħ§é¡¾å¥½": 8464,
      "å¾Ĺå¤ªå¿«": 8465,
      "å¾ĹæĽ´è¿ĳ": 8466,
      "åĮ»çĶŁè¯´": 8467,
      "ç»ıåİĨäºĨè®¸å¤ļ": 8468,
      "äºĨä¸Ģæ®µæĹ¶éĹ´": 8469,
      "æ°´æŀľåĴĮ": 8470,
      "å®³ç¾ŀäºĨ": 8471,
      "åĴĮä½łä¸Ģèµ·": 8472,
      "åº¦è¿ĩäºĨä¸Ģæ®µæĦīå¿«çļĦæĹ¶åħī": 8473,
      "æĥĬè®¶åľ°åıĳçİ°": 8474,
      "å°±ä¸įä¼ļåĨį": 8475,
      "éģ¿åħį": 8476,
      "ä»Ĭå¹´": 8477,
      "æĴŃæĶ¾": 8478,
      "èĲĿæĭī": 8479,
      "éĺ¿æ¯ĶçĽĸå°Ķ": 8480,
      "ä¸ºæĹ¶å·²æĻļ": 8481,
      "åĸ·æ°Ķå¼ıé£ŀæľº": 8482,
      "åĸĩåıŃ": 8483,
      "äºĨèĩªå·±": 8484,
      "ä»ĸåģľä¸ĭæĿ¥": 8485,
      "ä»ĸä»İæľªè§ģè¿ĩ": 8486,
      "å¥¹è¢«": 8487,
      "å¥¹æľĢåĸľæ¬¢çļĦçİ©åħ·": 8488,
      "å®¾": 8489,
      "æľīæ²¡æľī": 8490,
      "å°ºåŃĲ": 8491,
      "åľ¨åĲİéĻ¢": 8492,
      "æĺ¯ä»¶": 8493,
      "å°ıèĬ±": 8494,
      "å°ıåĬ¨çī©": 8495,
      "å¾Īå¥½çļĦ": 8496,
      "å¾ĪåĽ°éļ¾": 8497,
      "è¿ĻéĿ¢": 8498,
      "åĴĮæİ¢ç´¢": 8499,
      "å¼Ģåı£": 8500,
      "æĪĳæ²¡æľī": 8501,
      "æĥ³æĪĲä¸º": 8502,
      "å¾Ĺå¯¹": 8503,
      "ä¸Ģèµ·åĲĥ": 8504,
      "æľīä¸Ģä¸ªçī¹åĪ«çļĦ": 8505,
      "å®¶åħ·": 8506,
      "å½ĵæıĲç±³": 8507,
      "åıĪåĽŀåĪ°äºĨ": 8508,
      "äºİæĺ¯ä»ĸä»¬ä¸Ģèµ·": 8509,
      "å°±å¼Ģå§ĭ": 8510,
      "å¾®ç¬ĳäºĨèµ·æĿ¥": 8511,
      "æĻĴ": 8512,
      "è§ģéĿ¢": 8513,
      "åħ¨å®¶": 8514,
      "çĮ«åĴª": 8515,
      "åķĥ": 8516,
      "ä½Ĩæĺ¯å½ĵä»ĸ": 8517,
      "çº¦ç¿°åĴĮä»ĸçļĦå¦Īå¦Ī": 8518,
      "è£ħçĿĢ": 8519,
      "å¥¹åĸľæ¬¢åĴĮ": 8520,
      "å¥¹åĸľæ¬¢åĴĮæľĭåıĭä»¬ä¸Ģèµ·": 8521,
      "ä½Ĩä»ĸçŁ¥éģĵèĩªå·±å¿ħé¡»": 8522,
      "å®īåħ¨åıĪ": 8523,
      "çľ¼åīį": 8524,
      "æĢİä¹Īåģļ": 8525,
      "å¡ŀ": 8526,
      "åĽŀåĪ°å®¶éĩĮ": 8527,
      "å¥¹æĥ³èµ·": 8528,
      "åĳ¼åĸĬ": 8529,
      "æĤī": 8530,
      "éĿłåŀ«": 8531,
      "åĤ¨": 8532,
      "ç¾İä¸½çļĦèĬ±æľµ": 8533,
      "çıįå¨ľ": 8534,
      "åĴĮå¦Īå¦Īä¸Ģèµ·åİ»": 8535,
      "çĽ¸ä¿¡èĩªå·±": 8536,
      "éªĦåĤ²åľ°": 8537,
      "æĮīä¸ĭ": 8538,
      "èĢĮæĦŁåĪ°å¼Ģå¿ĥ": 8539,
      "ç½Ĺæ¯Ķ": 8540,
      "ä»ĸåĲ¬åĪ°äºĨä¸Ģéĺµ": 8541,
      "ä¸Ģä¸ªåĲįåı«èĴĤå§ĨçļĦå°ıçĶ·åŃ©": 8542,
      "éĤ®ä»¶": 8543,
      "æĬĵä½ıäºĨå®ĥ": 8544,
      "åĴĮå®¶äººä¸Ģèµ·åİ»": 8545,
      "å°ĸåı«çĿĢ": 8546,
      "å°ĸåı«èµ·æĿ¥": 8547,
      "å¥¹éĹ®å¦Īå¦Īèĥ½ä¸įèĥ½": 8548,
      "æĪĲä¸ºäºĨå¥½æľĭåıĭ": 8549,
      "ä½łæĺ¯æĪĳ": 8550,
      "å±±åĿ¡ä¸Ĭ": 8551,
      "èĤ©èĨĢ": 8552,
      "ä¼Ļä¼´": 8553,
      "æĹĹåŃĲ": 8554,
      "åº§ä½įä¸Ĭ": 8555,
      "ä½łæĥ³åĴĮæĪĳä¸Ģèµ·çİ©åĲĹ": 8556,
      "è·ªä¸ĭæĿ¥": 8557,
      "åĪ·åŃĲ": 8558,
      "é»ıåľŁ": 8559,
      "å·®çĤ¹": 8560,
      "åĲłåı«": 8561,
      "åĨ·èĹıç®±": 8562,
      "æĥĬåĳ¼éģĵ": 8563,
      "çĵ¢èĻ«": 8564,
      "é«ĺé«ĺåħ´åħ´åľ°": 8565,
      "zz": 8566,
      "ĩæĮĩ": 8567,
      "çļĦçī¹æ®Ĭ": 8568,
      "ä»ĸè¦ģ": 8569,
      "ä»ĸèµ°": 8570,
      "ä»ĸä»¥åīįä»İæľªè§ģè¿ĩ": 8571,
      "æī«": 8572,
      "èµ·èĪŀ": 8573,
      "ä»ĸä»¬è¦ģåİ»": 8574,
      "éĿŀå¸¸æĵħéķ¿": 8575,
      "åĴĮèĴĤå§Ĩ": 8576,
      "ä¸įåĥı": 8577,
      "ä¸įå¸ĮæľĽ": 8578,
      "æĪĳä¸įåĸľæ¬¢": 8579,
      "æ¬¾": 8580,
      "å¤§æ£®æŀĹéĩĮ": 8581,
      "èİīèİīä¸º": 8582,
      "èİīèİīæĥ³è¦ģ": 8583,
      "èİīèİīä¸įåĸľæ¬¢": 8584,
      "æĭĩæĮĩ": 8585,
      "åİ»éĤ£éĩĮ": 8586,
      "éĹ·": 8587,
      "ä»¥ç¡®ä¿Ŀ": 8588,
      "ä½łåľ¨è¿ĻéĩĮ": 8589,
      "åºı": 8590,
      "éĿ¢çº±": 8591,
      "åıĪä¸Ģéģį": 8592,
      "å¤ªå®³æĢķäºĨ": 8593,
      "æĸ¯çī¹": 8594,
      "åĲĳå®ĥ": 8595,
      "èĢĮæĦŁåĪ°éĿŀå¸¸èĩªè±ª": 8596,
      "äºĨä¸Ģä¸ªå°ı": 8597,
      "æĹłäºĭ": 8598,
      "è®¸åı¯": 8599,
      "çĶ»ç¬Ķ": 8600,
      "æİ¢ç´¢äºĨ": 8601,
      "åĲ¬åĪ°äºĨä¸Ģå£°": 8602,
      "ç½ķ": 8603,
      "ä¼¤å¿ĥåıĪ": 8604,
      "ä¹°ä¸ĭäºĨ": 8605,
      "åĵŃçĿĢ": 8606,
      "æŃĮæĽ²": 8607,
      "ä¸įæĥ³åĪĨäº«": 8608,
      "å°Ŀè¯ķäºĨ": 8609,
      "å¤ªéĺ³åįĩèµ·": 8610,
      "æŀ¶åŃĲ": 8611,
      "çķĻæĦı": 8612,
      "ç²īæľ«": 8613,
      "æľīäºĽäºº": 8614,
      "è¿·äººçļĦ": 8615,
      "å¸ĥé²ģ": 8616,
      "å¤©ç©ºä¸ŃçļĦ": 8617,
      "æľīçĤ¹éļ¾è¿ĩ": 8618,
      "æľīäºĨä¸Ģä¸ªæĥ³æ³ķ": 8619,
      "åľ¨ä¸Ģä¸ªå°ı": 8620,
      "éĶĻäºĨ": 8621,
      "ä»ĸå¯¹èĩªå·±çļĦ": 8622,
      "äºīè®º": 8623,
      "å¤ľç©ºä¸Ń": 8624,
      "çĸ²åĢ¦": 8625,
      "æĽ¾ç»ıæľīä¸Ģä¸ª": 8626,
      "çļĦæĸ¹åĲĳ": 8627,
      "è¾£åĳ³": 8628,
      "ä¿®çĲĨå·¥": 8629,
      "æıĲéĨĴå¥¹": 8630,
      "åħįåıĹ": 8631,
      "çļĦæŃĮå£°": 8632,
      "çĶ¨æīĭæĮĩ": 8633,
      "çĶľç¾İçļĦ": 8634,
      "æĦļèł¢çļĦ": 8635,
      "æĺŁæľŁä¸ī": 8636,
      "çļĦèĤļåŃĲ": 8637,
      "æ¯Ľç»Ĵçİ©åħ·": 8638,
      "è¿ŁäºĨ": 8639,
      "ä¹°ä¸ĭå®ĥ": 8640,
      "æĭ¼åĳ½åľ°": 8641,
      "ä»¤å¥¹æĥĬè®¶çļĦæĺ¯": 8642,
      "åĨįè¯ķä¸Ģæ¬¡": 8643,
      "çļĦè½¦": 8644,
      "ä¸Ģæķ´å¤©": 8645,
      "ä»ĸæ¸¸": 8646,
      "ä»ĸä¸Ģè¾¹": 8647,
      "å¥¹ä¸įåĸľæ¬¢": 8648,
      "å¥¹ç©¿ä¸ĬäºĨ": 8649,
      "åľ¨é£İä¸Ń": 8650,
      "å°ıæİ¨è½¦": 8651,
      "å¾ĪæĥĬè®¶": 8652,
      "æĿ¥æºĲ": 8653,
      "ä»ĸä»¬ä¸Ģè¾¹": 8654,
      "ä»ĸä»¬æī¾åĪ°äºĨä¸Ģ": 8655,
      "ä»ĸä»¬æĺ¯æľĢå¥½çļĦæľĭåıĭ": 8656,
      "å®ĥçĶ¨": 8657,
      "å®ĥé£ŀ": 8658,
[...]
