{
  "version": "1.0",
  "truncation": null,
  "padding": null,
  "added_tokens": [
    {
      "id": 0,
      "content": "<pad>",
      "single_word": false,
      "lstrip": false,
      "rstrip": false,
      "normalized": false,
      "special": true
    },
    {
      "id": 1,
      "content": "<unk>",
      "single_word": false,
      "lstrip": false,
      "rstrip": false,
      "normalized": false,
      "special": true
    },
    {
      "id": 2,
      "content": "<bos>",
      "single_word": false,
      "lstrip": false,
      "rstrip": false,
      "normalized": false,
      "special": true
    },
    {
      "id": 3,
      "content": "<eos>",
      "single_word": false,
      "lstrip": false,
      "rstrip": false,
      "normalized": false,
      "special": true
    }
  ],
  "normalizer": null,
  "pre_tokenizer": {
    "type": "Sequence",
    "pretokenizers": [
      {
        "type": "UnicodeScripts"
      },
      {
        "type": "ByteLevel",
        "add_prefix_space": false,
        "trim_offsets": true,
        "use_regex": true
      }
    ]
  },
  "post_processor": {
    "type": "TemplateProcessing",
    "single": [
      {
        "SpecialToken": {
          "id": "<bos>",
          "type_id": 0
        }
      },
      {
        "Sequence": {
          "id": "A",
          "type_id": 0
        }
      },
      {
        "SpecialToken": {
          "id": "<eos>",
          "type_id": 0
        }
      }
    ],
    "pair": [
      {
        "Sequence": {
          "id": "A",
          "type_id": 0
        }
      },
      {
        "Sequence": {
          "id": "B",
          "type_id": 1
        }
      }
    ],
    "special_tokens": {
      "<bos>": {
        "id": "<bos>",
        "ids": [
          2
        ],
        "tokens": [
          "<bos>"
        ]
      },
      "<eos>": {
        "id": "<eos>",
        "ids": [
          3
        ],
        "tokens": [
          "<eos>"
        ]
      }
    }
  },
  "decoder": {
    "type": "ByteLevel",
    "add_prefix_space": true,
    "trim_offsets": true,
    "use_regex": true
  },
  "model": {
    "type": "BPE",
    "dropout": null,
    "unk_token": "<unk>",
    "continuing_subword_prefix": null,
    "end_of_word_suffix": null,
    "fuse_unk": false,
    "byte_fallback": false,
    "ignore_merges": false,
    "vocab": {
      "<pad>": 0,
      "<unk>": 1,
      "<bos>": 2,
      "<eos>": 3,
      "!": 4,
      "\"": 5,
      "#": 6,
      "$": 7,
      "%": 8,
      "&": 9,
      "'": 10,
      "(": 11,
      ")": 12,
      "*": 13,
      "+": 14,
      ",": 15,
      "-": 16,
      ".": 17,
      "/": 18,
      "0": 19,
      "1": 20,
      "2": 21,
      "3": 22,
      "4": 23,
      "5": 24,
      "6": 25,
      "7": 26,
      "8": 27,
      "9": 28,
      ":": 29,
      ";": 30,
      "<": 31,
      "=": 32,
      ">": 33,
      "?": 34,
      "@": 35,
      "A": 36,
      "B": 37,
      "C": 38,
      "D": 39,
      "E": 40,
      "F": 41,
      "G": 42,
      "H": 43,
      "I": 44,
      "J": 45,
      "K": 46,
      "L": 47,
      "M": 48,
      "N": 49,
      "O": 50,
      "P": 51,
      "Q": 52,
      "R": 53,
      "S": 54,
      "T": 55,
      "U": 56,
      "V": 57,
      "W": 58,
      "X": 59,
      "Y": 60,
      "Z": 61,
      "[": 62,
      "\\": 63,
      "]": 64,
      "^": 65,
      "_": 66,
      "`": 67,
      "a": 68,
      "b": 69,
      "c": 70,
      "d": 71,
      "e": 72,
      "f": 73,
      "g": 74,
      "h": 75,
      "i": 76,
      "j": 77,
      "k": 78,
      "l": 79,
      "m": 80,
      "n": 81,
      "o": 82,
      "p": 83,
      "q": 84,
      "r": 85,
      "s": 86,
      "t": 87,
      "u": 88,
      "v": 89,
      "w": 90,
      "x": 91,
      "y": 92,
      "z": 93,
      "{": 94,
      "|": 95,
      "}": 96,
      "~": 97,
      "¡": 98,
      "¢": 99,
      "£": 100,
      "¤": 101,
      "¥": 102,
      "¦": 103,
      "§": 104,
      "¨": 105,
      "©": 106,
      "ª": 107,
      "«": 108,
      "¬": 109,
      "®": 110,
      "¯": 111,
      "°": 112,
      "±": 113,
      "²": 114,
      "³": 115,
      "´": 116,
      "µ": 117,
      "¶": 118,
      "·": 119,
      "¸": 120,
      "¹": 121,
      "º": 122,
      "»": 123,
      "¼": 124,
      "½": 125,
      "¾": 126,
      "¿": 127,
      "À": 128,
      "Á": 129,
      "Â": 130,
      "Ã": 131,
      "Ä": 132,
      "Å": 133,
      "Æ": 134,
      "Ç": 135,
      "È": 136,
      "É": 137,
      "Ê": 138,
      "Ë": 139,
      "Ì": 140,
      "Í": 141,
      "Î": 142,
      "Ï": 143,
      "Ð": 144,
      "Ñ": 145,
      "Ò": 146,
      "Ó": 147,
      "Ô": 148,
      "Õ": 149,
      "Ö": 150,
      "×": 151,
      "Ø": 152,
      "Ù": 153,
      "Ú": 154,
      "Û": 155,
      "Ü": 156,
      "Ý": 157,
      "Þ": 158,
      "ß": 159,
      "à": 160,
      "á": 161,
      "â": 162,
      "ã": 163,
      "ä": 164,
      "å": 165,
      "æ": 166,
      "ç": 167,
      "è": 168,
      "é": 169,
      "ê": 170,
      "ë": 171,
      "ì": 172,
      "í": 173,
      "î": 174,
      "ï": 175,
      "ð": 176,
      "ñ": 177,
      "ò": 178,
      "ó": 179,
      "ô": 180,
      "õ": 181,
      "ö": 182,
      "÷": 183,
      "ø": 184,
      "ù": 185,
      "ú": 186,
      "û": 187,
      "ü": 188,
      "ý": 189,
      "þ": 190,
      "ÿ": 191,
      "Ā": 192,
      "ā": 193,
      "Ă": 194,
      "ă": 195,
      "Ą": 196,
      "ą": 197,
      "Ć": 198,
      "ć": 199,
      "Ĉ": 200,
      "ĉ": 201,
      "Ċ": 202,
      "ċ": 203,
      "Č": 204,
      "č": 205,
      "Ď": 206,
      "ď": 207,
      "Đ": 208,
      "đ": 209,
      "Ē": 210,
      "ē": 211,
      "Ĕ": 212,
      "ĕ": 213,
      "Ė": 214,
      "ė": 215,
      "Ę": 216,
      "ę": 217,
      "Ě": 218,
      "ě": 219,
      "Ĝ": 220,
      "ĝ": 221,
      "Ğ": 222,
      "ğ": 223,
      "Ġ": 224,
      "ġ": 225,
      "Ģ": 226,
      "ģ": 227,
      "Ĥ": 228,
      "ĥ": 229,
      "Ħ": 230,
      "ħ": 231,
      "Ĩ": 232,
      "ĩ": 233,
      "Ī": 234,
      "ī": 235,
      "Ĭ": 236,
      "ĭ": 237,
      "Į": 238,
      "į": 239,
      "İ": 240,
      "ı": 241,
      "Ĳ": 242,
      "ĳ": 243,
      "Ĵ": 244,
      "ĵ": 245,
      "Ķ": 246,
      "ķ": 247,
      "ĸ": 248,
      "Ĺ": 249,
      "ĺ": 250,
      "Ļ": 251,
      "ļ": 252,
      "Ľ": 253,
      "ľ": 254,
      "Ŀ": 255,
      "ŀ": 256,
      "Ł": 257,
      "ł": 258,
      "Ń": 259,
      "ä¸": 260,
      "ï¼": 261,
      "ãĢ": 262,
      "ãĢĤ": 263,
      "ï¼Į": 264,
      "ä»": 265,
      "äº": 266,
      "çļ": 267,
      "çļĦ": 268,
      "å¥": 269,
      "ä¸Ģ": 270,
      "äºĨ": 271,
      "ä»ĸ": 272,
      "åı": 273,
      "æľ": 274,
      "å¤": 275,
      "åĪ": 276,
      "å¥¹": 277,
      "å®": 278,
      "è¿": 279,
      "åľ": 280,
      "åĪ°": 281,
      "åĲ": 282,
      "åħ": 283,
      "å¾": 284,
      "å¦": 285,
      "æľī": 286,
      "âĢ": 287,
      "åŃ": 288,
      "å°": 289,
      "ä½": 290,
      "ä¸ª": 291,
      "ä»¬": 292,
      "å¦Ī": 293,
      "å¸": 294,
      "æĺ": 295,
      "è¯": 296,
      "èİ": 297,
      "æĿ": 298,
      "åľ¨": 299,
      "èµ": 300,
      "èİī": 301,
      "éĿ": 302,
      "çİ": 303,
      "æĺ¯": 304,
      "æĪ": 305,
      "ä¹": 306,
      "å°ı": 307,
      "å¼": 308,
      "åĽ": 309,
      "çľ": 310,
      "å¿": 311,
      "ä¸Ģä¸ª": 312,
      "æĦ": 313,
      "å¤©": 314,
      "æī": 315,
      "éĩ": 316,
      "è¿Ļ": 317,
      "å¾Ī": 318,
      "çĶ": 319,
      "åĴ": 320,
      "çĿ": 321,
      "çľĭ": 322,
      "æĿ¥": 323,
      "å®ĥ": 324,
      "èµ·": 325,
      "æĹ": 326,
      "ä»ĸä»¬": 327,
      "å¸¸": 328,
      "éĿŀ": 329,
      "éĿŀå¸¸": 330,
      "æĥ": 331,
      "çİ©": 332,
      "ç»": 333,
      "éĤ": 334,
      "åĴĮ": 335,
      "è¯´": 336,
      "åŃĲ": 337,
      "ä¸į": 338,
      "çĿĢ": 339,
      "å¼Ģ": 340,
      "ï¼ģ": 341,
      "éĤ£": 342,
      "å¦Īå¦Ī": 343,
      "å¹": 344,
      "æĪĳ": 345,
      "éĩĮ": 346,
      "æĬ": 347,
      "ĥ½": 348,
      "ä¼": 349,
      "åĬ": 350,
      "åŃ©": 351,
      "åİ": 352,
      "æĦŁ": 353,
      "åĸ": 354,
      "å§": 355,
      "ä»İ": 356,
      "æ¬": 357,
      "ï¼ļ": 358,
      "ä¸Ĭ": 359,
      "âĢľ": 360,
      "âĢĿ": 361,
      "æľīä¸Ģ": 362,
      "å¤§": 363,
      "è·": 364,
      "å¿ĥ": 365,
      "éģ": 366,
      "åĨ": 367,
      "çī": 368,
      "åľ°": 369,
      "å·": 370,
      "è®": 371,
      "æĥ³": 372,
      "æĭ": 373,
      "åī": 374,
      "ä½Ĩ": 375,
      "èİīèİī": 376,
      "åİ»": 377,
      "æĹ¶": 378,
      "éĹ": 379,
      "èĢ": 380,
      "åıª": 381,
      "èĩ": 382,
      "éģĵ": 383,
      "æĸ": 384,
      "çĪ": 385,
      "åīį": 386,
      "å¹¶": 387,
      "åĲİ": 388,
      "äºº": 389,
      "å¾Ĺ": 390,
      "ç¬": 391,
      "ä»¥": 392,
      "ä½ł": 393,
      "å¥½": 394,
      "æ¯": 395,
      "äºĨä¸Ģ": 396,
      "æ¬¢": 397,
      "èĩª": 398,
      "åĸľ": 399,
      "ç±": 400,
      "åĩ": 401,
      "æĦŁåĪ°": 402,
      "çĦ": 403,
      "æł": 404,
      "ç±³": 405,
      "çĦ¶": 406,
      "å¥³": 407,
      "æķ": 408,
      "ä¼ļ": 409,
      "è§": 410,
      "åĸľæ¬¢": 411,
      "åıĭ": 412,
      "æŃ": 413,
      "å½": 414,
      "ç¬ĳ": 415,
      "è¦": 416,
      "è¦ģ": 417,
      "ä¸º": 418,
      "æĬĬ": 419,
      "å¯": 420,
      "æĢ": 421,
      "è¿ĩ": 422,
      "å¥¹çļĦ": 423,
      "çľĭåĪ°": 424,
      "éĥ½": 425,
      "åħ´": 426,
      "åģ": 427,
      "ĭåıĭ": 428,
      "æľĭåıĭ": 429,
      "åı«": 430,
      "åı¯": 431,
      "å¥³åŃ©": 432,
      "åĳ": 433,
      "æľīä¸Ģå¤©": 434,
      "ä¸Ģèµ·": 435,
      "ä»İåīį": 436,
      "ä»ĸçļĦ": 437,
      "¥¿": 438,
      "åĽŀ": 439,
      "èī": 440,
      "è½": 441,
      "æľīä¸Ģä¸ª": 442,
      "è¥¿": 443,
      "å§Ĩ": 444,
      "ä¸ĭ": 445,
      "å·±": 446,
      "èĩªå·±": 447,
      "æ²": 448,
      "åıĳ": 449,
      "æ°": 450,
      "åº": 451,
      "ï¼ļâĢľ": 452,
      "å®¶": 453,
      "æŀ": 454,
      "çĽ": 455,
      "ä¹Ī": 456,
      "äºİ": 457,
      "äºĽ": 458,
      "é£": 459,
      "å¼Ģå¿ĥ": 460,
      "é«": 461,
      "æ³": 462,
      "å°ıå¥³åŃ©": 463,
      "é«ĺ": 464,
      "èĥ½": 465,
      "åį": 466,
      "æ±": 467,
      "åħĭ": 468,
      "å½ĵ": 469,
      "çŁ": 470,
      "çĪ¸": 471,
      "æī¾": 472,
      "åĩº": 473,
      "å£": 474,
      "é¸": 475,
      "çİ°": 476,
      "åı¯ä»¥": 477,
      "èµ°": 478,
      "è·ĳ": 479,
      "çĶ·": 480,
      "èĴ": 481,
      "å§ĭ": 482,
      "éĿ¢": 483,
      "èĴĤ": 484,
      "èµ·æĿ¥": 485,
      "åıĪ": 486,
      "éĢ": 487,
      "å¼Ģå§ĭ": 488,
      "æİ": 489,
      "æĦı": 490,
      "è¾": 491,
      "å¿«": 492,
      "åĵ": 493,
      "è¡": 494,
      "äºĭ": 495,
      "åĿ": 496,
      "çī©": 497,
      "ç¾": 498,
      "å¸®": 499,
      "ä¹Ł": 500,
      "è°": 501,
      "æ»": 502,
      "å¤ļ": 503,
      "åĪ°äºĨ": 504,
      "çĭ": 505,
      "ç»Ļ": 506,
      "ãĢĤâĢľ": 507,
      "å¤´": 508,
      "åĪ«": 509,
      "æ¸": 510,
      "åĽŃ": 511,
      "æı": 512,
      "æĪĳä»¬": 513,
      "ä¸ľ": 514,
      "å±": 515,
      "ä¸ľè¥¿": 516,
      "äºİæĺ¯": 517,
      "åģļ": 518,
      "çĶ·åŃ©": 519,
      "å¯¹": 520,
      "æ£": 521,
      "ï¼Ł": 522,
      "çĶ¨": 523,
      "é¸Ł": 524,
      "èĬ": 525,
      "éĹ®": 526,
      "åĬ¨": 527,
      "çĦ¶åĲİ": 528,
      "è®©": 529,
      "é«ĺåħ´": 530,
      "åħ·": 531,
      "æĶ": 532,
      "æ¯ı": 533,
      "æıĲ": 534,
      "ä»Ģ": 535,
      "çº": 536,
      "æľĢ": 537,
      "ä»Ģä¹Ī": 538,
      "è½¦": 539,
      "æłĳ": 540,
      "çĤ": 541,
      "å¤ª": 542,
      "æ²¡": 543,
      "çŁ¥": 544,
      "èī²": 545,
      "ä¿": 546,
      "çĲ": 547,
      "ãĢĤâĢĿ": 548,
      "çī¹": 549,
      "è¿Ļä¸ª": 550,
      "åĲį": 551,
      "ï¼ģâĢĿ": 552,
      "éĻ": 553,
      "è¶": 554,
      "ç¾İ": 555,
      "å£°": 556,
      "çİ©åħ·": 557,
      "æ´": 558,
      "æĮ": 559,
      "çŁ¥éģĵ": 560,
      "çĶŁ": 561,
      "è·³": 562,
      "éļ": 563,
      "å®ļ": 564,
      "éľ": 565,
      "ç©": 566,
      "çĤ¹": 567,
      "èĬ±": 568,
      "å¸¦": 569,
      "çİ©èĢ": 570,
      "åĨį": 571,
      "åħ¬": 572,
      "çİ©èĢį": 573,
      "ç¬ĳçĿĢ": 574,
      "è§ī": 575,
      "ç§": 576,
      "æĸ¯": 577,
      "ç´": 578,
      "å°±": 579,
      "æīĭ": 580,
      "é©": 581,
      "è°¢": 582,
      "åĲĳ": 583,
      "æĪĲ": 584,
      "ç¿": 585,
      "æīĢ": 586,
      "å¾®": 587,
      "èĲ": 588,
      "é£ŀ": 589,
      "åĨ³": 590,
      "çŃ": 591,
      "åĽł": 592,
      "æ°´": 593,
      "ç®": 594,
      "åıĳçİ°": 595,
      "åĲ¬": 596,
      "âĢĺ": 597,
      "è¿Ľ": 598,
      "âĢĻ": 599,
      "éĺ": 600,
      "èĢĮ": 601,
      "åĲĥ": 602,
      "æĽ": 603,
      "æĸ°": 604,
      "å¥ĭ": 605,
      "äº®": 606,
      "åħ´å¥ĭ": 607,
      "ä¸Ń": 608,
      "ä½ı": 609,
      "çª": 610,
      "æŃ£": 611,
      "åĢ": 612,
      "æĻ": 613,
      "é¡": 614,
      "æµ": 615,
      "æ±¤": 616,
      "åĽłä¸º": 617,
      "è¯ķ": 618,
      "åĨ³å®ļ": 619,
      "åħ¬åĽŃ": 620,
      "éĽ": 621,
      "åĬ©": 622,
      "çļĦå°ı": 623,
      "æıĲç±³": 624,
      "é©¬": 625,
      "çĮ": 626,
      "æĭī": 627,
      "åĲįåı«": 628,
      "å®ī": 629,
      "è¯´éģĵ": 630,
      "èĪ": 631,
      "æĺİ": 632,
      "ï¼ļ'": 633,
      "åħī": 634,
      "æĦŁåĪ°éĿŀå¸¸": 635,
      "çĪ¸çĪ¸": 636,
      "æĿ°": 637,
      "è¿ĺ": 638,
      "äºĨä¸Ģä¸ª": 639,
      "æĭ¿": 640,
      "æŀľ": 641,
      "æ²¡æľī": 642,
      "å¨": 643,
      "å®³": 644,
      "æł·": 645,
      "æīĵ": 646,
      "çĽ´": 647,
      "æĪ¿": 648,
      "å¸®åĬ©": 649,
      "å¤ĸ": 650,
      "éĹ´": 651,
      "æ¬¡": 652,
      "æĶ¾": 653,
      "çªģ": 654,
      "çļĦè": 655,
      "çªģçĦ¶": 656,
      "æĳ": 657,
      "æ¯Ķ": 658,
      "ä¹Ĳ": 659,
      "éŁ": 660,
      "æĽ´": 661,
      "è±": 662,
      "èĢģ": 663,
      "æĥħ": 664,
      "éŁ³": 665,
      "çĥ": 666,
      "æĢķ": 667,
      "çļĦä¸ľè¥¿": 668,
      "éļ¾": 669,
      "åĭ": 670,
      "æĿ°åħĭ": 671,
      "çģ": 672,
      "èĴĤç±³": 673,
      "çļĦå°ıå¥³åŃ©": 674,
      "é¢": 675,
      "æĬ±": 676,
      "ä¸Ģå¤©": 677,
      "ï¼ŁâĢĿ": 678,
      "çī¹åĪ«": 679,
      "åĳĬ": 680,
      "æ°Ķ": 681,
      "ï¼ļâĢĺ": 682,
      "çĲĥ": 683,
      "åĦ": 684,
      "åĦ¿": 685,
      "æ±¤å§Ĩ": 686,
      "è¾¹": 687,
      "éĤ£ä¸ª": 688,
      "è¡Į": 689,
      "ä¸Ģåıª": 690,
      "æľĭåıĭä»¬": 691,
      "éķ": 692,
      "æĥ³è¦ģ": 693,
      "ç³": 694,
      "æ¼": 695,
      "çĭĹ": 696,
      "èĴĤå§Ĩ": 697,
      "è¢": 698,
      "åħĭæĸ¯": 699,
      "æ»¡": 700,
      "æ¸¸": 701,
      "å¥ĩ": 702,
      "è£": 703,
      "å®³æĢķ": 704,
      "åĲ§": 705,
      "æĸ¹": 706,
      "ä»İéĤ£": 707,
      "ä¸Ķ": 708,
      "å¦Ĥ": 709,
      "æŃ£åľ¨": 710,
      "åĮ": 711,
      "ä¸½": 712,
      "å¤§çļĦ": 713,
      "å®ĥä»¬": 714,
      "ç»ĵ": 715,
      "æľ¬": 716,
      "èĲ¨": 717,
      "èĩªå·±çļĦ": 718,
      "æīĢæľī": 719,
      "ä¹ħ": 720,
      "åıĺ": 721,
      "ä¸ĢäºĽ": 722,
      "å¾®ç¬ĳçĿĢ": 723,
      "æ¯ıå¤©": 724,
      "éĿŀå¸¸å¼Ģå¿ĥ": 725,
      "é¼": 726,
      "åĬĽ": 727,
      "è§ģ": 728,
      "ä¼¤": 729,
      "èº": 730,
      "ç¦": 731,
      "å¥½çļĦ": 732,
      "å¾Īå¼Ģå¿ĥ": 733,
      "é©¬åħĭæĸ¯": 734,
      "æĹł": 735,
      "å®Į": 736,
      "æĥĬ": 737,
      "æĢ»": 738,
      "åĲĹ": 739,
      "æŁ": 740,
      "è¿Ļåıª": 741,
      "éĤ£æĺ¯": 742,
      "ç©º": 743,
      "çĮ«": 744,
      "èĭ": 745,
      "éľ²": 746,
      "å¥¹çļĦå¦Īå¦Ī": 747,
      "æľīä¸Ģåıª": 748,
      "å£°éŁ³": 749,
      "éĤ£åıª": 750,
      "éĩį": 751,
      "é»": 752,
      "éĹª": 753,
      "åĢĻ": 754,
      "ãĢģ": 755,
      "å¤Ħ": 756,
      "ä½į": 757,
      "çĪ±": 758,
      "äº«": 759,
      "æĹ¶åĢĻ": 760,
      "éļ¾è¿ĩ": 761,
      "è®¸": 762,
      "çŃĶ": 763,
      "æ·": 764,
      "äºĭæĥħ": 765,
      "åĪĨ": 766,
      "ä¿Ŀ": 767,
      "çĨ": 768,
      "èĦ": 769,
      "è¯ī": 770,
      "éĴ": 771,
      "åĳĬè¯ī": 772,
      "åħ¨": 773,
      "ç¬ĳäºĨ": 774,
      "ä½ľ": 775,
      "ç»ı": 776,
      "åķ": 777,
      "ä¸ĭæĿ¥": 778,
      "éĻ©": 779,
      "çļĦå¦Īå¦Ī": 780,
      "çİ©å¾Ĺ": 781,
      "å¤ĸéĿ¢": 782,
      "æī¾åĪ°": 783,
      "è´": 784,
      "å¾Īä¹ħ": 785,
      "æĿ¡": 786,
      "æľĽ": 787,
      "å°ıå¿ĥ": 788,
      "åģľ": 789,
      "è¶£": 790,
      "åĽŀå®¶": 791,
      "æİ¢": 792,
      "åĳ³": 793,
      "æŃ¥": 794,
      "ä½Ĩæĺ¯": 795,
      "åħĶ": 796,
      "éĺ³": 797,
      "æĢ»æĺ¯": 798,
      "æħ": 799,
      "æĭ¥": 800,
      "æķ´": 801,
      "çĶ»": 802,
      "åĽ¾": 803,
      "å°ıé¸Ł": 804,
      "å¯»": 805,
      "åħĶåŃĲ": 806,
      "éķ¿": 807,
      "åıĹ": 808,
      "é¥": 809,
      "çĨĬ": 810,
      "âĢĶ": 811,
      "é²": 812,
      "ç¤": 813,
      "æ³ķ": 814,
      "èį": 815,
      "åı£": 816,
      "å¥¶": 817,
      "è¯¥": 818,
      "åŃ¦": 819,
      "æ¢": 820,
      "æŀĹ": 821,
      "çľŁ": 822,
      "æķħ": 823,
      "å±±": 824,
      "éĥ½ä¼ļ": 825,
      "éĿŀå¸¸é«ĺåħ´": 826,
      "ç»Ī": 827,
      "å¾Īå¿«": 828,
      "ä¸»": 829,
      "è§īå¾Ĺ": 830,
      "å¹²": 831,
      "èī¾": 832,
      "ä»ĸçļĦå¦Īå¦Ī": 833,
      "ç«": 834,
      "èĻ": 835,
      "è¿ĳ": 836,
      "è¿ľ": 837,
      "èĽ": 838,
      "å¾ħ": 839,
      "æľīä¸Ģä¸ªåĲįåı«": 840,
      "èľ": 841,
      "æķħäºĭ": 842,
      "çķ": 843,
      "åĿĹ": 844,
      "æ¼Ĥ": 845,
      "æĦŁè°¢": 846,
      "æľº": 847,
      "æľīè¶£": 848,
      "èĿ": 849,
      "æį": 850,
      "çº¦": 851,
      "ç»Ń": 852,
      "çīĩ": 853,
      "ä»¥åīį": 854,
      "éľĢ": 855,
      "ãĢĤ'": 856,
      "åĬ¨çī©": 857,
      "çľĭçĿĢ": 858,
      "å¾Īé«ĺåħ´": 859,
      "ï¼ĮâĢĿ": 860,
      "æĻļ": 861,
      "çĻ": 862,
      "ç»§": 863,
      "ç»§ç»Ń": 864,
      "ç´¢": 865,
      "è¿Ļæĺ¯": 866,
      "ç¿°": 867,
      "çº¦ç¿°": 868,
      "çľĭåĪ°äºĨ": 869,
      "éľĢè¦ģ": 870,
      "åħ¶": 871,
      "åŃĲéĩĮ": 872,
      "æµ·": 873,
      "å¥¹ä»¬": 874,
      "åĲĮ": 875,
      "çľĭèµ·æĿ¥": 876,
      "åıĺå¾Ĺ": 877,
      "æ¼Ĥäº®": 878,
      "è£ħ": 879,
      "éĿŀå¸¸åħ´å¥ĭ": 880,
      "è·¯": 881,
      "æĬĬå®ĥ": 882,
      "è¯Ŀ": 883,
      "åĬł": 884,
      "ãĢĤâĢĻ": 885,
      "æļ": 886,
      "è®°": 887,
      "æķ¢": 888,
      "è¢«": 889,
      "çŁ³": 890,
      "å¯»æī¾": 891,
      "æģ": 892,
      "æ¡": 893,
      "æĿŁ": 894,
      "å²": 895,
      "éª": 896,
      "ä¸Ģèµ·çİ©": 897,
      "ç¦»": 898,
      "å¼ĢäºĨ": 899,
      "åľ°æĸ¹": 900,
      "æŃ¤": 901,
      "å°ıçĶ·åŃ©": 902,
      "ä¸ī": 903,
      "ç´§": 904,
      "å¥¹åĸľæ¬¢": 905,
      "éľ²è¥¿": 906,
      "é£Ł": 907,
      "çĻ½": 908,
      "±¼": 909,
      "é±¼": 910,
      "è±ª": 911,
      "ä»İéĤ£å¤©": 912,
      "ç»ĵæĿŁ": 913,
      "èī²çļĦ": 914,
      "ä¸¤": 915,
      "è¶Ĭ": 916,
      "æķ£": 917,
      "çĽ´åĪ°": 918,
      "æľ¨": 919,
      "æĦŁè§ī": 920,
      "ç©¿": 921,
      "èĩªè±ª": 922,
      "ä»¶": 923,
      "èº«": 924,
      "ç»ĻäºĨ": 925,
      "çİ°åľ¨": 926,
      "èĥ": 927,
      "åĽŀçŃĶ": 928,
      "åĥ": 929,
      "æ¯Ľ": 930,
      "çĲĨ": 931,
      "ä»İéĤ£å¤©èµ·": 932,
      "å°¼": 933,
      "ç¥": 934,
      "æİ¢ç´¢": 935,
      "é£İ": 936,
      "åĽĽ": 937,
      "éĹ¨": 938,
      "èĬ±åĽŃ": 939,
      "è®¸å¤ļ": 940,
      "åİ»äºĨ": 941,
      "åĥı": 942,
      "åĸĦ": 943,
      "åĲī": 944,
      "å¿«ä¹Ĳ": 945,
      "æ»ĳ": 946,
      "åŃ©åŃĲ": 947,
      "é¼ł": 948,
      "éĤ£éĩĮ": 949,
      "åĲ¬åĪ°": 950,
      "èģ": 951,
      "å¹¶ä¸Ķ": 952,
      "ç²": 953,
      "å®Ŀ": 954,
      "ä½ķ": 955,
      "èİİ": 956,
      "çĪ¬": 957,
      "ç¡": 958,
      "ç®Ģ": 959,
      "èİīèİīçļĦå°ıå¥³åŃ©": 960,
      "åºĶ": 961,
      "åľº": 962,
      "æľīä¸Ģä¸ªåı«": 963,
      "çĽ¸": 964,
      "ç§į": 965,
      "åĪ©": 966,
      "æĭ¥æĬ±": 967,
      "äºĨä¸ĢäºĽ": 968,
      "ç½": 969,
      "åĨĴ": 970,
      "ä¹ĭ": 971,
      "æ£®": 972,
      "åĭĩ": 973,
      "åľ°ä¸Ĭ": 974,
      "çļĦäºĭæĥħ": 975,
      "åĿĲ": 976,
      "æ£µ": 977,
      "éĿŀå¸¸åĸľæ¬¢": 978,
      "å¼ł": 979,
      "å¤Ł": 980,
      "å¾Īä¹ħä»¥åīį": 981,
      "æĦŁåĪ°å¾Ī": 982,
      "æ£®æŀĹ": 983,
      "æ³¨": 984,
      "ä¹Ķ": 985,
      "ç®±": 986,
      "æķ£æŃ¥": 987,
      "ä½Ĩä»ĸ": 988,
      "åħ³": 989,
      "è¿Ļæł·": 990,
      "å¤©ç©º": 991,
      "éĵ": 992,
      "æĪ¿éĹ´": 993,
      "é¦": 994,
      "åħ¬åĽŃéĩĮ": 995,
      "æĪı": 996,
      "å¥¹å¦Īå¦Ī": 997,
      "è¾¾": 998,
      "ç¾İåĳ³": 999,
      "äººéĥ½": 1000,
      "æł¹": 1001,
      "åĨĴéĻ©": 1002,
      "éĶ": 1003,
      "çľ¼": 1004,
      "åºĹ": 1005,
      "èµ°äºĨ": 1006,
      "åĳ¨": 1007,
      "å¸¦çĿĢ": 1008,
      "å®īåħ¨": 1009,
      "ä¿¡": 1010,
      "æľµ": 1011,
      "æ£Ĵ": 1012,
      "åº§": 1013,
      "èĭı": 1014,
      "ä»ĸæĥ³": 1015,
      "è¿ª": 1016,
      "æİī": 1017,
      "ç¢": 1018,
      "åĭĩæķ¢": 1019,
      "ä¸ĬäºĨ": 1020,
      "å·²": 1021,
      "å¡": 1022,
      "å¥¹è¯´": 1023,
      "æĪĳçļĦ": 1024,
      "é²į": 1025,
      "æ¿": 1026,
      "æ¿Ģ": 1027,
      "ä¼¤å¿ĥ": 1028,
      "äºĨèµ·æĿ¥": 1029,
      "éĹ®éģĵ": 1030,
      "çļĦæĹ¶åĢĻ": 1031,
      "å¤ĩ": 1032,
      "èĮ": 1033,
      "çľĭåĪ°äºĨä¸Ģ": 1034,
      "åł": 1035,
      "è¯ķåĽ¾": 1036,
      "å°Ŀ": 1037,
      "çĿ¡": 1038,
      "çº¢": 1039,
      "æĿ¾": 1040,
      "æĢİ": 1041,
      "éĺ³åħī": 1042,
      "ç¾İä¸½": 1043,
      "éħ": 1044,
      "æ¯ıä¸ª": 1045,
      "çħ": 1046,
      "å½ĵå¥¹": 1047,
      "çİĽ": 1048,
      "æħ¢": 1049,
      "åĽ´": 1050,
      "ä¹°": 1051,
      "ä»ĸä»¬ä¸Ģèµ·": 1052,
      "ï¼ģâĢĻ": 1053,
      "å°Ķ": 1054,
      "é¹": 1055,
      "åĪĨäº«": 1056,
      "çī¹åĪ«çļĦ": 1057,
      "æ³¨æĦı": 1058,
      "åĸĬ": 1059,
      "å¿Ļ": 1060,
      "æĬĵ": 1061,
      "çģ«": 1062,
      "çı": 1063,
      "éļı": 1064,
      "åĩĨ": 1065,
      "æ¯į": 1066,
      "ä¾": 1067,
      "æĢİä¹Ī": 1068,
      "åĭĥ": 1069,
      "æĹ¥": 1070,
      "ä¼ļåĦ¿": 1071,
      "åĶ": 1072,
      "å»": 1073,
      "å²ģ": 1074,
      "éĩįè¦ģ": 1075,
      "ä¸įçŁ¥éģĵ": 1076,
      "éĩĮéĿ¢": 1077,
      "æ¸¸æĪı": 1078,
      "è¾Ĩ": 1079,
      "æ¶": 1080,
      "æĺŁ": 1081,
      "åĩºäºĨ": 1082,
      "å·¨": 1083,
      "é²įåĭĥ": 1084,
      "å¨ľ": 1085,
      "åº¦": 1086,
      "åĵŃ": 1087,
      "åĩĨå¤ĩ": 1088,
      "æĪĲäºĨ": 1089,
      "å¥¹æĥ³": 1090,
      "åĩºæĿ¥": 1091,
      "ï¼ģ'": 1092,
      "æĺİçĻ½": 1093,
      "æĮģ": 1094,
      "çľĭçľĭ": 1095,
      "å¹¸": 1096,
      "èĹ": 1097,
      "ç¡®": 1098,
      "æŃĮ": 1099,
      "è½¬": 1100,
      "æĶ¶": 1101,
      "çļĦå°ıçĶ·åŃ©": 1102,
      "èįī": 1103,
      "æĢª": 1104,
      "æľį": 1105,
      "ä¸īå²ģ": 1106,
      "åŃĹ": 1107,
      "åıĳçĶŁ": 1108,
      "ç¤º": 1109,
      "åĨįä¹Ł": 1110,
      "æ¸©": 1111,
      "ä»ĸè¯´": 1112,
      "æ´»": 1113,
      "è¿ĻäºĽ": 1114,
      "ä¹¦": 1115,
      "è§£": 1116,
      "è½»": 1117,
      "å·¥": 1118,
      "ä½łçļĦ": 1119,
      "çĶ·äºº": 1120,
      "ä¸Ģä¸ªå¤§": 1121,
      "åĽŀåĪ°": 1122,
      "è¯Ĩ": 1123,
      "èĪ¹": 1124,
      "åį¡": 1125,
      "çĶµ": 1126,
      "åıĬ": 1127,
      "éĢŁ": 1128,
      "å¾Īå¤ļ": 1129,
      "ä¸ĢçĽ´": 1130,
      "ä»İåīįæľīä¸Ģä¸ª": 1131,
      "é£Łçī©": 1132,
      "èĪŀ": 1133,
      "çŁ³å¤´": 1134,
      "åĨ°": 1135,
      "å®¶äºº": 1136,
      "åħħ": 1137,
      "åħ¶ä»ĸ": 1138,
      "çİ©å¾Ĺå¾Īå¼Ģå¿ĥ": 1139,
      "è¯·": 1140,
      "çĪ¶": 1141,
      "åĩł": 1142,
      "ä½Ĩå¥¹": 1143,
      "è®¶": 1144,
      "æĥĬè®¶": 1145,
      "å·²ç»ı": 1146,
      "å°Ĩ": 1147,
      "è°¢è°¢": 1148,
      "èĩ³": 1149,
      "è¡£": 1150,
      "å±ĭ": 1151,
      "æĭħ": 1152,
      "ä¸ºä»Ģä¹Ī": 1153,
      "æİ¥": 1154,
      "åĿı": 1155,
      "ä½ıåľ¨": 1156,
      "çħ§": 1157,
      "æĺ¯ä¸Ģä¸ª": 1158,
      "èĹı": 1159,
      "¤Ĳ": 1160,
      "ç¨": 1161,
      "å»º": 1162,
      "æķĻ": 1163,
      "é¤Ĳ": 1164,
      "å¸Į": 1165,
      "å¨ħ": 1166,
      "é¢Ĺ": 1167,
      "ä»»": 1168,
      "é¡»": 1169,
      "å±ķ": 1170,
      "èĬ±åĽŃéĩĮ": 1171,
      "å½ĵä»ĸä»¬": 1172,
      "è¡¨": 1173,
      "åĪ°è¾¾": 1174,
      "è¿ĩæĿ¥": 1175,
      "ä½¿": 1176,
      "çļĦåľ°æĸ¹": 1177,
      "èĤ": 1178,
      "å°½": 1179,
      "ç¬ĳçĿĢè¯´": 1180,
      "å®ŀ": 1181,
      "æĮ¥": 1182,
      "æ¤": 1183,
      "âĢĶâĢĶ": 1184,
      "æĤ": 1185,
      "ä¸įæĥ³": 1186,
      "å½ĵä»ĸ": 1187,
      "åħħæ»¡": 1188,
      "æīĢä»¥": 1189,
      "æ±Ĥ": 1190,
      "æ¹": 1191,
      "èī¾ç±³": 1192,
      "åĶ±": 1193,
      "ä½ıäºĨ": 1194,
      "å¿ħ": 1195,
      "åľ¨åħ¬åĽŃéĩĮ": 1196,
      "åĬª": 1197,
      "ĻåŃĲ": 1198,
      "ä¸įèĥ½": 1199,
      "åĬªåĬĽ": 1200,
      "å¸ĮæľĽ": 1201,
      "åŁ": 1202,
      "åħ¥": 1203,
      "ĵĿ": 1204,
      "çŃī": 1205,
      "å¾®ç¬ĳçĿĢè¯´": 1206,
      "åĮħ": 1207,
      "èĿ¶": 1208,
      "äºĨä¸Ģä¼ļåĦ¿": 1209,
      "´èĿ¶": 1210,
      "ç±³å¨ħ": 1211,
      "å¿ħé¡»": 1212,
      "èµ·äºĨ": 1213,
      "å¤±": 1214,
      "çĽĴ": 1215,
      "ä»ĸä»¬çļĦ": 1216,
      "å®ĥçļĦ": 1217,
      "å£«": 1218,
      "æĭħå¿ĥ": 1219,
      "åĽĽå¤Ħ": 1220,
      "éĽ¨": 1221,
      "ç¬¬": 1222,
      "èī¯": 1223,
      "æīĵå¼Ģ": 1224,
      "ä»¥åĲİ": 1225,
      "æīĢæľīçļĦ": 1226,
      "å¼º": 1227,
      "èĻ«": 1228,
      "åĴĮä»ĸçļĦ": 1229,
      "éĿł": 1230,
      "æ±ł": 1231,
      "å¤«": 1232,
      "å½©": 1233,
      "åıĳçİ°äºĨä¸Ģ": 1234,
      "èı": 1235,
      "ä¸Ģæł·": 1236,
      "ä¸¤ä¸ª": 1237,
      "åĪ°äºĨä¸Ģä¸ª": 1238,
      "ä»ĸä»¬éĥ½": 1239,
      "äº²": 1240,
      "ä¸Ģæ¬¡": 1241,
      "ç¼": 1242,
      "æ³¨æĦıåĪ°": 1243,
      "åĸĦèī¯": 1244,
      "æ°¸": 1245,
      "åķĬ": 1246,
      "é¡¾": 1247,
      "å¼Ħ": 1248,
      "åĨįæ¬¡": 1249,
      "æĳĩ": 1250,
      "åĳ¼": 1251,
      "åĬŀ": 1252,
      "åķĨ": 1253,
      "å¦Īå¦Īè¯´": 1254,
      "ä¸»æĦı": 1255,
      "èĲ¨å§Ĩ": 1256,
      "æ³¢": 1257,
      "çĸ": 1258,
      "æĪĳåı¯ä»¥": 1259,
      "ç¿¼": 1260,
      "æ¯ıä¸ªäººéĥ½": 1261,
      "æį¡": 1262,
      "æľīä¸Ģä¸ªåĲįåı«èİīèİīçļĦå°ıå¥³åŃ©": 1263,
      "è·Ł": 1264,
      "ä¸įä¼ļ": 1265,
      "æ¸ħ": 1266,
      "é¡¶": 1267,
      "æ©": 1268,
      "ä¸ĸ": 1269,
      "ç³ķ": 1270,
      "å¾®ç¬ĳ": 1271,
      "æ°¸è¿ľ": 1272,
      "åĵª": 1273,
      "åĽŀäºĨ": 1274,
      "åĲ¦": 1275,
      "æļĸ": 1276,
      "æľĢåĲİ": 1277,
      "å¥½å¥ĩ": 1278,
      "éĿĻ": 1279,
      "æľĢç»Ī": 1280,
      "å¤§åıĪ": 1281,
      "æĲ": 1282,
      "åĪĩ": 1283,
      "çļĦå¤§": 1284,
      "èĥ½å¤Ł": 1285,
      "æķ´å¤©": 1286,
      "èİİæĭī": 1287,
      "çļ®": 1288,
      "åĸľæ¬¢åľ¨": 1289,
      "åķĨåºĹ": 1290,
      "ä¿®": 1291,
      "åĵį": 1292,
      "çĿĽ": 1293,
      "è¿ĽäºĨ": 1294,
      "è¹": 1295,
      "çļĦå£°éŁ³": 1296,
      "èİ«": 1297,
      "å°Ŀè¯ķ": 1298,
      "çľ¼çĿĽ": 1299,
      "çķĮ": 1300,
      "åıĪå¤§åıĪ": 1301,
      "å¥¹åľ¨": 1302,
      "åºĬ": 1303,
      "ä¸ĸçķĮ": 1304,
      "åĽłä¸ºä»ĸ": 1305,
      "åº¦è¿ĩ": 1306,
      "çĥŃ": 1307,
      "åĴĮå¥¹çļĦ": 1308,
      "æĺİçĻ½äºĨ": 1309,
      "èĢģé¼ł": 1310,
      "åĩºåİ»": 1311,
      "è¿ĺæĺ¯": 1312,
      "ä»ĸçľĭåĪ°": 1313,
      "æľĢå¥½çļĦ": 1314,
      "éĻ¢": 1315,
      "å¥¹çľĭåĪ°": 1316,
      "æ®": 1317,
      "è±¡": 1318,
      "ä¸įåĪ°": 1319,
      "å®¹": 1320,
      "æ¢¯": 1321,
      "å®īå¨ľ": 1322,
      "æĹ©": 1323,
      "èµ°åĪ°": 1324,
      "çĤ¹å¤´": 1325,
      "çĪ¶æ¯į": 1326,
      "æ·±": 1327,
      "åĢĴ": 1328,
      "çķĻ": 1329,
      "è¢ĭ": 1330,
      "æķħäºĭç»ĵæĿŁ": 1331,
      "ç¥ŀ": 1332,
      "æľĢåĸľæ¬¢": 1333,
      "æĹ¶éĹ´": 1334,
      "æĹłæ³ķ": 1335,
      "çľĭè§ģ": 1336,
      "æĹħ": 1337,
      "å¤ªéĺ³": 1338,
      "è·ĳåİ»": 1339,
      "æĦıè¯Ĩ": 1340,
      "ç³ĸ": 1341,
      "èĵĿ": 1342,
      "ä¸İ": 1343,
      "äº«åıĹ": 1344,
      "æ£®æŀĹéĩĮ": 1345,
      "å¿ĺ": 1346,
      "åĲĪ": 1347,
      "èĿ´èĿ¶": 1348,
      "é¢ľ": 1349,
      "æĪ´": 1350,
      "åĲįåŃĹ": 1351,
      "é¥¼": 1352,
      "ä¸Ģè¾¹": 1353,
      "æĦıè¯ĨåĪ°": 1354,
      "èĢģäºº": 1355,
      "å±ķç¤º": 1356,
      "å¦Ĥä½ķ": 1357,
      "åĪ¶": 1358,
      "å¦Ĥæŀľ": 1359,
      "æĹģ": 1360,
      "åħĪ": 1361,
      "åı¯èĥ½": 1362,
      "çĵ": 1363,
      "æ´ŀ": 1364,
      "åºĶè¯¥": 1365,
      "ç¤¼": 1366,
      "äºĮ": 1367,
      "åľ¨ä¸Ģèµ·": 1368,
      "ªæĺİ": 1369,
      "èĢĮä¸Ķ": 1370,
      "æŁĶ": 1371,
      "éĢł": 1372,
      "å¨ĥ": 1373,
      "äº®çļĦ": 1374,
      "ï¼Ł'": 1375,
      "æ´Ĺ": 1376,
      "åĻ": 1377,
      "å·´": 1378,
      "å¸®å¿Ļ": 1379,
      "åĺ": 1380,
      "çº¸": 1381,
      "é»ĳ": 1382,
      "ä»ĸåľ¨": 1383,
      "æĺ¯åĲ¦": 1384,
      "èİīèİīçļĦå¦Īå¦Ī": 1385,
      "é»Ľ": 1386,
      "çīĽ": 1387,
      "ä¿ĿæĮģ": 1388,
      "èĽĭ": 1389,
      "çļĦäºº": 1390,
      "ä¸įè¦ģ": 1391,
      "åľ¨è¿Ļ": 1392,
      "®åŃĲ": 1393,
      "ï¼ŁâĢĻ": 1394,
      "åĵģ": 1395,
      "ä¹ł": 1396,
      "æľª": 1397,
      "èĲ½": 1398,
      "æ¼Ĥäº®çļĦ": 1399,
      "åĽŀæĿ¥": 1400,
      "åĽłä¸ºå¥¹": 1401,
      "èģªæĺİ": 1402,
      "é»Ľè¥¿": 1403,
      "è¿ĩåİ»": 1404,
      "å¸ĥ": 1405,
      "è®©å¥¹": 1406,
      "è´Ŀ": 1407,
      "é¾": 1408,
      "æī¾åĪ°äºĨ": 1409,
      "æĸ°çļĦ": 1410,
      "æĮĩ": 1411,
      "ä¸įåĨį": 1412,
      "ç¦»å¼Ģ": 1413,
      "æĦŁåĪ°éĿŀå¸¸èĩªè±ª": 1414,
      "æĭį": 1415,
      "æŀ¶": 1416,
      "åĪ»": 1417,
      "çĭ¬": 1418,
      "åĽ°": 1419,
      "çļĦä¸Ģ": 1420,
      "ç»Īäºİ": 1421,
      "éĿĴ": 1422,
      "ä»»ä½ķ": 1423,
      "åĤ": 1424,
      "ç¬Ķ": 1425,
      "æĶ¾åľ¨": 1426,
      "æĵ": 1427,
      "åĲĵ": 1428,
      "èĨ": 1429,
      "åĿĲåľ¨": 1430,
      "ç§ĭ": 1431,
      "åı¦": 1432,
      "èĪĴ": 1433,
      "æ±½": 1434,
      "è§Ĥ": 1435,
      "éĻĦ": 1436,
      "äº¤": 1437,
      "æłĳä¸Ĭ": 1438,
      "ä»İéĤ£ä»¥åĲİ": 1439,
      "æ²Ļ": 1440,
      "è°¢è°¢ä½ł": 1441,
      "æĬ¤": 1442,
      "åĨľ": 1443,
      "ä¼ł": 1444,
      "æģ¯": 1445,
      "åİŁ": 1446,
      "å¡ĺ": 1447,
      "éĻĦè¿ĳ": 1448,
      "æĽ´åĬł": 1449,
      "çİ¯": 1450,
      "æĦ¿": 1451,
      "éĤ£äºĽ": 1452,
      "ç¾İåĳ³çļĦ": 1453,
      "è¹¦": 1454,
      "çĶŁæ°Ķ": 1455,
      "å±±å§Ĩ": 1456,
      "æ±łå¡ĺ": 1457,
      "æİ¨": 1458,
      "æŀĿ": 1459,
      "åĿļ": 1460,
      "æķ°": 1461,
      "æĿ¿": 1462,
      "å¹³": 1463,
      "èļ": 1464,
      "æ¯ıå¤©éĥ½": 1465,
      "ç¬ĳäºĨèµ·æĿ¥": 1466,
      "æ¶Ī": 1467,
      "å¥½äºĨ": 1468,
      "æ¯ĶåĪ©": 1469,
      "ä¸Ģèµ·çİ©èĢį": 1470,
      "ç¾İä¸½çļĦ": 1471,
      "å¥ĩæĢª": 1472,
      "éĩİ": 1473,
      "ç®¡": 1474,
      "çŁ¥éģĵèĩªå·±": 1475,
      "è¿ħ": 1476,
      "ç²ī": 1477,
      "è¿ħéĢŁ": 1478,
      "åĳ¨åĽ´": 1479,
      "ä¸ºèĩªå·±": 1480,
      "å·¥ä½ľ": 1481,
      "å¥¹æĬĬ": 1482,
      "ç»Ĩ": 1483,
      "åĲĦ": 1484,
      "éģĩ": 1485,
      "æĪ¿åŃĲ": 1486,
      "èİīèİīåĴĮ": 1487,
      "ç¬¬äºĮ": 1488,
      "éĢĤ": 1489,
      "è®º": 1490,
      "åĵªéĩĮ": 1491,
      "é¦Ļ": 1492,
      "èµĽ": 1493,
      "æľĢå¥½çļĦæľĭåıĭ": 1494,
      "å¦ĤæŃ¤": 1495,
      "åįĥ": 1496,
      "ç«Ļ": 1497,
      "åı¶": 1498,
      "è¿Ļä¹Ī": 1499,
      "ç¦ı": 1500,
      "æıĲå§Ĩ": 1501,
      "ä½łå¥½": 1502,
      "å®ĮæĪĲ": 1503,
      "è¿·": 1504,
      "å°ıçĭĹ": 1505,
      "éĢģ": 1506,
      "å¥¶å¥¶": 1507,
      "çıį": 1508,
      "èĽĻ": 1509,
      "æ¸©æļĸ": 1510,
      "åĨ·": 1511,
      "ä»į": 1512,
      "è¶³": 1513,
      "åĸĬéģĵ": 1514,
      "æĪĲä¸º": 1515,
      "éĢļ": 1516,
      "éĿĴèĽĻ": 1517,
      "æĽ´å¤ļ": 1518,
      "å¦®": 1519,
      "éļıåĲİ": 1520,
      "åİ»åħ¬åĽŃ": 1521,
      "Ĭå¤©": 1522,
      "çİ©å¾ĹéĿŀå¸¸å¼Ģå¿ĥ": 1523,
      "æłĳæŀĿ": 1524,
      "åį´": 1525,
      "ç§ĭåįĥ": 1526,
      "çİĭ": 1527,
      "äºĨä¸ĭæĿ¥": 1528,
      "æĦŁè°¢äºĨ": 1529,
      "å¤§å®¶": 1530,
      "éĨ": 1531,
      "æŃ¢": 1532,
      "æ³°": 1533,
      "å¼Ł": 1534,
      "æĳ¸": 1535,
      "æ±½è½¦": 1536,
      "æĮ¥æīĭ": 1537,
      "å¤©ç©ºä¸Ń": 1538,
      "æĪĳä»¬åı¯ä»¥": 1539,
      "é»Ħ": 1540,
      "éĨĴ": 1541,
      "å¥¹éĿŀå¸¸": 1542,
      "æľĢåĸľæ¬¢çļĦ": 1543,
      "æ»©": 1544,
      "çļĦæľĭåıĭ": 1545,
      "è¿Ĳ": 1546,
      "ä»ĸåĸľæ¬¢": 1547,
      "«ä¸į": 1548,
      "çĪ¸çĪ¸å¦Īå¦Ī": 1549,
      "çĶļ": 1550,
      "çĶļèĩ³": 1551,
      "å¹¸ç¦ı": 1552,
      "æĦŁè§īå¥½": 1553,
      "¹æŀľ": 1554,
      "åĮ»": 1555,
      "ä»ĸæĬĬ": 1556,
      "åģĩ": 1557,
      "ä½ĵ": 1558,
      "ä¸įåĲĮ": 1559,
      "åľĪ": 1560,
      "èĲ¨æĭī": 1561,
      "èĦ¸": 1562,
      "åİ¨": 1563,
      "è®¤": 1564,
      "éº": 1565,
      "è§Ĩ": 1566,
      "éªĳ": 1567,
      "å·¨å¤§çļĦ": 1568,
      "è·ĳåĪ°": 1569,
      "èİ«èİī": 1570,
      "è¸": 1571,
      "åıªæĺ¯": 1572,
      "å¾Ģ": 1573,
      "åĬŁ": 1574,
      "æ±¤ç±³": 1575,
      "ä»¤": 1576,
      "æľīä¸Ģä¸ªå°ıå¥³åŃ©": 1577,
      "æ³³": 1578,
      "é¸Ń": 1579,
      "çļĦè¯Ŀ": 1580,
      "åĩĢ": 1581,
      "å½¼": 1582,
      "ä»įçĦ¶": 1583,
      "ç¬¬äºĮå¤©": 1584,
      "çªĹ": 1585,
      "å¸Ī": 1586,
      "ç¿Ķ": 1587,
      "æķĳ": 1588,
      "ä¸Ģä¸ĭ": 1589,
      "æľīäºĽ": 1590,
      "éĥ": 1591,
      "æĢĿ": 1592,
      "éĤ£æĺ¯ä¸Ģ": 1593,
      "ä¹İ": 1594,
      "éĹ®å¦Īå¦Ī": 1595,
      "èĮ¸": 1596,
      "½åŃĲ": 1597,
      "æĪĳä¼ļ": 1598,
      "æĺ¯ä¸Ģ": 1599,
      "ç¬ĳå®¹": 1600,
      "ä¸Ľ": 1601,
      "æĪĲåĬŁ": 1602,
      "ä»ĸéĿŀå¸¸": 1603,
      "åĴĮå¦Īå¦Ī": 1604,
      "æ¢¦": 1605,
      "åĲ¹": 1606,
      "å°ıåħĶåŃĲ": 1607,
      "ä¸Ŀ": 1608,
      "åĽŀçŃĶéģĵ": 1609,
      "è¿«ä¸į": 1610,
      "åıĬå¾ħ": 1611,
      "è¿«ä¸įåıĬå¾ħ": 1612,
      "æĥĬåĸľ": 1613,
      "çĽĴåŃĲ": 1614,
      "çĶŁæ´»": 1615,
      "æĺ¯çļĦ": 1616,
      "åĵ¥": 1617,
      "åİ¨æĪ¿": 1618,
      "éĴ±": 1619,
      "åĪ°å¤Ħ": 1620,
      "é¢ĺ": 1621,
      "å½¢": 1622,
      "é¸ŁåĦ¿": 1623,
      "æľīçĤ¹": 1624,
      "åł¡": 1625,
      "ä»İæľª": 1626,
      "åį¡è½¦": 1627,
      "ç»¿": 1628,
      "å½ĵçĦ¶": 1629,
      "éĹªéĹª": 1630,
      "ç¯": 1631,
      "å¹²åĩĢ": 1632,
      "åŁİ": 1633,
      "æ¯ĶèµĽ": 1634,
      "è®©ä»ĸ": 1635,
      "åŃĲä¸Ĭ": 1636,
      "è½¯": 1637,
      "æīį": 1638,
      "å¢": 1639,
      "ŀĭ": 1640,
      "ä»ĸä»¬åľ¨": 1641,
      "ä»ĸåĨ³å®ļ": 1642,
      "çļĦçĶ·åŃ©": 1643,
      "åĴĮæľĭåıĭä»¬": 1644,
      "æĦŁæ¿Ģ": 1645,
      "çĬ": 1646,
      "ç«ĭ": 1647,
      "ç³»": 1648,
      "å¾Ĺå¾Ī": 1649,
      "ä¸įæĺ¯": 1650,
      "è¯¥æĢİä¹Ī": 1651,
      "é¾Ļ": 1652,
      "åį³": 1653,
      "ç¡®ä¿Ŀ": 1654,
      "çĹ": 1655,
      "è§ģè¿ĩ": 1656,
      "éĹªéĹªåıĳ": 1657,
      "æīĺ": 1658,
      "çĽ¸ä¿¡": 1659,
      "ä¼¸": 1660,
      "æĹ¶åħī": 1661,
      "çİĽä¸½": 1662,
      "æĿ¥åĪ°": 1663,
      "è¿Ľåİ»": 1664,
      "ï¼ĮâĢĺ": 1665,
      "ç¾İå¥½çļĦ": 1666,
      "åĪ«äºº": 1667,
      "æ´ĭ": 1668,
      "æīĵå¼ĢäºĨ": 1669,
      "æĭ¿çĿĢ": 1670,
      "éĿłè¿ĳ": 1671,
      "æľ¬å°¼": 1672,
      "æĸĻ": 1673,
      "èľĤ": 1674,
      "é¼ĵ": 1675,
      "äºĭçī©": 1676,
      "éĥ¨": 1677,
      "é¸ŃåŃĲ": 1678,
      "çł": 1679,
      "ä¼łæĿ¥": 1680,
      "èĽĭç³ķ": 1681,
      "¯åŃĲ": 1682,
      "æĿ¥è¶Ĭ": 1683,
      "çľĭèµ·æĿ¥å¾Ī": 1684,
      "æĬ¬": 1685,
      "æĦŁåĪ°å®³æĢķ": 1686,
      "è¶ĬæĿ¥è¶Ĭ": 1687,
      "æĴ": 1688,
      "çĤ¹äºĨ": 1689,
      "å¿ĺè®°": 1690,
      "īå¿«": 1691,
      "å¾Īåĸľæ¬¢": 1692,
      "æĸ°æľĭåıĭ": 1693,
      "çļĦå¥³åŃ©": 1694,
      "é¥Ń": 1695,
      "éĤ£å¤©": 1696,
      "å¯Ł": 1697,
      "éĩįè¦ģçļĦ": 1698,
      "çĶľ": 1699,
      "åĳ¢": 1700,
      "å¼Ģå¿ĥåľ°": 1701,
      "ç´§ç´§": 1702,
      "éĩı": 1703,
      "æ²³": 1704,
      "æĿ¾é¼ł": 1705,
      "è¿½": 1706,
      "æ¤ħ": 1707,
      "äºĴ": 1708,
      "åħ´å¥ĭåľ°": 1709,
      "åĲĮæĦı": 1710,
      "çĿ¡è§ī": 1711,
      "é¥¼å¹²": 1712,
      "çİ¯é¡¾": 1713,
      "æĦŁåĪ°éļ¾è¿ĩ": 1714,
      "è·³èĪŀ": 1715,
      "åĸĿ": 1716,
      "ä½Ĩå®ĥ": 1717,
      "èĦļ": 1718,
      "æĦīå¿«": 1719,
      "åĳĺ": 1720,
      "åĽŀåĪ°äºĨ": 1721,
      "åĳĬè¯īå¥¹": 1722,
      "è·ĳåĲĳ": 1723,
      "ä»Ķ": 1724,
      "éĹ®é¢ĺ": 1725,
      "çĤ¹äºĨçĤ¹å¤´": 1726,
      "åľ¨éĤ£éĩĮ": 1727,
      "éĤ£æĺ¯ä¸Ģä¸ª": 1728,
      "åĨĻ": 1729,
      "ç§ĺ": 1730,
      "ä»Ĭå¤©": 1731,
      "åĹ": 1732,
      "åľŁ": 1733,
      "åİĨ": 1734,
      "ä¸įåģľ": 1735,
      "å¥¹åĨ³å®ļ": 1736,
      "é£ŀç¿Ķ": 1737,
      "æĳĺ": 1738,
      "æ£µæłĳ": 1739,
      "å¤ļäºĨ": 1740,
      "æĬĵä½ı": 1741,
      "æ¸¸æ³³": 1742,
      "åĿıäºĨ": 1743,
      "ä½łåı¯ä»¥": 1744,
      "èľľ": 1745,
      "æ»ĳæ¢¯": 1746,
      "åŃ©åŃĲä»¬": 1747,
      "ä»Ķç»Ĩ": 1748,
      "ä¸ĭäºĨ": 1749,
      "åĽŀå®¶äºĨ": 1750,
      "åģļä»Ģä¹Ī": 1751,
      "æ³°è¿ª": 1752,
      "å¼Ĺ": 1753,
      "çĭ®åŃĲ": 1754,
      "èħ": 1755,
      "çĭ¸": 1756,
      "åħħæ»¡äºĨ": 1757,
      "åı¯çĪ±": 1758,
      "è¿«ä¸įåıĬå¾ħåľ°": 1759,
      "æ¹ĸ": 1760,
      "åĻ¨": 1761,
      "äºĨä¸Ģåı£": 1762,
      "åįķ": 1763,
      "æľīä¸Ģä¸ªåı«èİīèİīçļĦå°ıå¥³åŃ©": 1764,
      "åĪ«æĭħå¿ĥ": 1765,
      "éŃ": 1766,
      "åıĳçĶŁäºĨ": 1767,
      "ä»ĸçļĦæľĭåıĭ": 1768,
      "æĮī": 1769,
      "ä½łä»¬": 1770,
      "éĢī": 1771,
      "è¡£æľį": 1772,
      "éĽª": 1773,
      "æĺ¯ä»Ģä¹Ī": 1774,
      "æ³¡": 1775,
      "ä¼ĳ": 1776,
      "å£®": 1777,
      "çĭĲ": 1778,
      "ä¸ĢçĤ¹": 1779,
      "æ¼Ķ": 1780,
      "ä¸Ģä¸ªå¤§å¤§çļĦ": 1781,
      "åĪĴ": 1782,
      "çĭĲçĭ¸": 1783,
      "åłĨ": 1784,
      "åĽĽåĳ¨": 1785,
      "æĭ¿èµ·": 1786,
      "æĪĳæĥ³": 1787,
      "åıĳçİ°äºĨä¸Ģä¸ª": 1788,
      "äºİæĺ¯ä»ĸ": 1789,
      "çŃĶåºĶ": 1790,
      "çº¿": 1791,
      "ä¼ĳæģ¯": 1792,
      "åĲ¸": 1793,
      "ä»ĸçļĦçİ©åħ·": 1794,
      "åľ¨å¤ĸéĿ¢": 1795,
      "å¼Ģå§ĭåĵŃ": 1796,
      "èµ¶": 1797,
      "éĽ¶": 1798,
      "ç¨ĭ": 1799,
      "åĤ²": 1800,
      "ä¸ĬéĿ¢": 1801,
      "å®¤": 1802,
      "è®¡": 1803,
      "åĽŀäºĨå®¶": 1804,
      "è¿Ļä¸ªæķħäºĭ": 1805,
      "ä¾¿": 1806,
      "åĲİæĿ¥": 1807,
      "è·ĳæĿ¥": 1808,
      "æī¾åĪ°äºĨä¸Ģ": 1809,
      "ä¸ĬçļĦ": 1810,
      "èĻ«åŃĲ": 1811,
      "ç¢°": 1812,
      "éªĦ": 1813,
      "æĶ¾è¿Ľ": 1814,
      "åĨįä¹Łæ²¡æľī": 1815,
      "éªĦåĤ²": 1816,
      "åĪĽ": 1817,
      "æ¿ĢåĬ¨": 1818,
      "äºĴçĽ¸": 1819,
      "åıĸ": 1820,
      "åĳĬåĪ«": 1821,
      "æµ·æ»©": 1822,
      "éĺ³åħīä¸ĭ": 1823,
      "çļĦå¯": 1824,
      "ç»³": 1825,
      "éŃĶ": 1826,
      "ç¤¼çī©": 1827,
      "æ¥": 1828,
      "èĨĢ": 1829,
      "äººä»¬": 1830,
      "åĪ°äºĨä¸Ģ": 1831,
      "å¯Ĩ": 1832,
      "èĲĿ": 1833,
      "æľīä¸Ģä½į": 1834,
      "éĩĮçļĦ": 1835,
      "å¤į": 1836,
      "ä»İåīįæľīä¸Ģåıª": 1837,
      "Ń¦": 1838,
      "ç®±åŃĲ": 1839,
      "è¯ķçĿĢ": 1840,
      "å¾Ĺä¸į": 1841,
      "å¥Ĺ": 1842,
      "æľīäºĨä¸Ģä¸ª": 1843,
      "èĭ¹æŀľ": 1844,
      "åı°": 1845,
      "æ¬£": 1846,
      "ç»Ļå¥¹": 1847,
      "çľĭäºĨ": 1848,
      "æĹłè®º": 1849,
      "åĲįåŃĹåı«": 1850,
      "æ³¢çī¹": 1851,
      "çĥ¤": 1852,
      "åĲīå°Ķ": 1853,
      "å¾Īä¹ħå¾Īä¹ħä»¥åīį": 1854,
      "å®ĥéĿŀå¸¸": 1855,
      "å½ĵçĦ¶åı¯ä»¥": 1856,
      "æī¾ä¸įåĪ°": 1857,
      "æĵ¦": 1858,
      "æ·ĭ": 1859,
      "æĻļä¸Ĭ": 1860,
      "ä¹ĭåīį": 1861,
      "ä¹ĭåĲİ": 1862,
      "åŃ¦ä¹ł": 1863,
      "æµģ": 1864,
      "æĸ¯æ³¢çī¹": 1865,
      "é¢ľèī²": 1866,
      "ĵæĦı": 1867,
      "çĳ": 1868,
      "æľīè¶£çļĦ": 1869,
      "åıĳåĩº": 1870,
      "æŁ¥": 1871,
      "éĺµ": 1872,
      "è®®": 1873,
      "éĤ£ä¹Ī": 1874,
      "å¥³å£«": 1875,
      "æħ¢æħ¢": 1876,
      "æĪ¿åŃĲéĩĮ": 1877,
      "ç¥ŀå¥ĩ": 1878,
      "ä»¤äºº": 1879,
      "ä¸Ģèµ·åİ»": 1880,
      "éĩĬ": 1881,
      "èº«è¾¹": 1882,
      "åĽŀåĪ°å®¶": 1883,
      "å®ĥæĺ¯": 1884,
      "è·ĳæĿ¥è·ĳåİ»": 1885,
      "å¦Ļ": 1886,
      "å¹¶ä¸į": 1887,
      "éĽ·": 1888,
      "åĶ±æŃĮ": 1889,
      "çļĦå¯ĵæĦı": 1890,
      "æĦŁåĪ°éĿŀå¸¸å¼Ģå¿ĥ": 1891,
      "å¦Īå¦ĪåĴĮ": 1892,
      "ä¸ĢæĿ¡": 1893,
      "åħ³äºİ": 1894,
      "è¯º": 1895,
      "åĵĩ": 1896,
      "çľĭåĪ°ä¸Ģä¸ª": 1897,
      "ä¸ĢåĪĩ": 1898,
      "ģäºĨ": 1899,
      "çİ¯é¡¾åĽĽåĳ¨": 1900,
      "å¼¹": 1901,
      "´åŃĲ": 1902,
      "æŁĶè½¯": 1903,
      "èĲ¨èİī": 1904,
      "å¸½åŃĲ": 1905,
      "æĦŁåĪ°éĿŀå¸¸åħ´å¥ĭ": 1906,
      "å¾Īéļ¾è¿ĩ": 1907,
      "çī¹åĪ«çļĦä¸ľè¥¿": 1908,
      "æĳĶ": 1909,
      "åı¹": 1910,
      "æĿ¥äºĨ": 1911,
      "ç¿¼ç¿¼": 1912,
      "å°ıå¿ĥç¿¼ç¿¼": 1913,
      "å¥¹éĿŀå¸¸åĸľæ¬¢": 1914,
      "æĹ¢": 1915,
      "æĸŃ": 1916,
      "å¥¹çļĦæľĭåıĭ": 1917,
      "éĤ£åıªé¸Ł": 1918,
      "éŁ³ä¹Ĳ": 1919,
      "çľŁæĺ¯": 1920,
      "ç´¯": 1921,
      "çĪ·": 1922,
      "åİ»äºĨåħ¬åĽŃ": 1923,
      "èĬ±æľµ": 1924,
      "æ¶Īå¤±": 1925,
      "éĹªéĹªåıĳåħī": 1926,
      "éº¦": 1927,
      "åľ¨äºĨ": 1928,
      "äºİæĺ¯å¥¹": 1929,
      "æ¡Į": 1930,
      "èĥ¡": 1931,
      "çļĦå¯ĵæĦıæĺ¯": 1932,
      "åįľ": 1933,
      "èĲĿåįľ": 1934,
      "è¯»": 1935,
      "çĽĸ": 1936,
      "æĭ¥æĬ±äºĨ": 1937,
      "ä¾Ŀ": 1938,
      "ä½ĨéļıåĲİ": 1939,
      "åį³ä½¿": 1940,
      "å¼ºå£®": 1941,
      "åĳĬè¯īä»ĸ": 1942,
      "å¾Īå¿«å°±": 1943,
      "åģ·": 1944,
      "çľĭåĪ°äºĨä¸Ģåıª": 1945,
      "æĪ¿éĹ´éĩĮ": 1946,
      "æ»¡äºĨ": 1947,
      "æľīå¾Īå¤ļ": 1948,
      "è·ŁçĿĢ": 1949,
      "èį¡": 1950,
      "æī¿": 1951,
      "é£ŀèµ°äºĨ": 1952,
      "èįīåľ°ä¸Ĭ": 1953,
      "çľŁçļĦ": 1954,
      "æĹ§": 1955,
      "å¥¹çļĦçİ©åħ·": 1956,
      "åĽ¢": 1957,
      "åº¦è¿ĩäºĨ": 1958,
      "ä¸įåĸľæ¬¢": 1959,
      "ç½Ĺ": 1960,
      "å°ıå¿ĥç¿¼ç¿¼åľ°": 1961,
      "æº": 1962,
      "å¥Ķ": 1963,
      "è§Ĵ": 1964,
      "åĪ¶ä½ľ": 1965,
      "èŃ¦": 1966,
      "äºĳ": 1967,
      "éĽĨ": 1968,
      "ç¿ħ": 1969,
      "ç¦»å¼ĢäºĨ": 1970,
      "å½±": 1971,
      "æ²»": 1972,
      "äºĨä¸Ģä¸ĭ": 1973,
      "èıľ": 1974,
      "è·ĥ": 1975,
      "è¯¥æĢİä¹ĪåĬŀ": 1976,
      "åĲīç±³": 1977,
      "èī¾çİĽ": 1978,
      "å¹´": 1979,
      "éĹªäº®çļĦ": 1980,
      "æĭ¥æľī": 1981,
      "ä¸»äºº": 1982,
      "ç²¾": 1983,
      "åįĪ": 1984,
      "æľīæĹ¶åĢĻ": 1985,
      "è¿Ļä¸ªæķħäºĭçļĦå¯ĵæĦıæĺ¯": 1986,
      "å¾Īä¼¤å¿ĥ": 1987,
      "æľīä¸¤ä¸ª": 1988,
      "è¿Ļä½į": 1989,
      "åĽ½": 1990,
      "ä»ĸçļĦæľĭåıĭä»¬": 1991,
      "ç¿ħèĨĢ": 1992,
      "åŃ¤": 1993,
      "åĸ·": 1994,
      "æĻ®": 1995,
      "å®Įç¾İ": 1996,
      "åħ³ç³»": 1997,
      "åŃ¦ä¼ļ": 1998,
      "éĢĥ": 1999,
      "åľ¨ä¸Ģä¸ª": 2000,
      "çº¢èī²": 2001,
      "ä¸Ģä¸ªå¤§å¤§çļĦæĭ¥æĬ±": 2002,
      "åıĤ": 2003,
      "æĦ¿æĦı": 2004,
      "æ¬¢åĳ¼": 2005,
      "æ³¥": 2006,
      "æ¡¶": 2007,
      "ä¸Ģå®ļ": 2008,
      "åĲĦç§į": 2009,
      "å¦¹": 2010,
      "åıĭåĸĦ": 2011,
      "éĩĳ": 2012,
      "æļĹ": 2013,
      "é£ŀæľº": 2014,
      "æ¹¿": 2015,
      "æİĮ": 2016,
      "æĦŁåĪ°èĩªè±ª": 2017,
      "å±ŀ": 2018,
      "æĺŁæĺŁ": 2019,
      "åŁİåł¡": 2020,
      "çļĦçİ©åħ·": 2021,
      "è§£éĩĬ": 2022,
      "æĪ·": 2023,
      "åıĮ": 2024,
      "æľīè®¸å¤ļ": 2025,
      "æ®µ": 2026,
      "åĴ¬": 2027,
      "åĬłåħ¥": 2028,
      "ä¸įå¾Ĺä¸į": 2029,
      "åĪ°å¤ĸéĿ¢": 2030,
      "å¤§å£°": 2031,
      "è·¯ä¸Ĭ": 2032,
      "éĶĻ": 2033,
      "åģľä¸ĭæĿ¥": 2034,
      "çĵ¶": 2035,
      "çİ©äºĨ": 2036,
      "åĨħ": 2037,
      "å±ĭéĩĮ": 2038,
      "æī¿è¯º": 2039,
      "ç½Ĳ": 2040,
      "åĩºçİ°": 2041,
      "åĴĮä»ĸçļĦæľĭåıĭä»¬": 2042,
      "å¤§æłĳ": 2043,
      "æį¡èµ·": 2044,
      "ä¸¢": 2045,
      "åĵ¦": 2046,
      "ç»ĻäºĨå¥¹": 2047,
      "æ»ļ": 2048,
      "çĥĤ": 2049,
      "éĤ£æĺ¯ä»Ģä¹Ī": 2050,
      "éģĵåĪ«": 2051,
      "èĩ³äºİ": 2052,
      "æĭ¾": 2053,
      "ç¢Ĺ": 2054,
      "ä»¥èĩ³äºİ": 2055,
      "æ´¾": 2056,
      "åª": 2057,
      "ä¸įåģľåľ°": 2058,
      "æĺİåª": 2059,
      "æĺİåªļ": 2060,
      "ä½łæĥ³": 2061,
      "çĽĺ": 2062,
      "èĢĥ": 2063,
      "ç»Ļä»ĸ": 2064,
      "åį±": 2065,
      "éķĩ": 2066,
      "èŀ": 2067,
      "åĨ°æ·": 2068,
      "åĨ°æ·ĩ": 2069,
      "åĨ°æ·ĩæ·ĭ": 2070,
      "æ²¡åħ³ç³»": 2071,
      "åıªæľī": 2072,
      "è¿ĩäºĨä¸Ģä¼ļåĦ¿": 2073,
      "äºī": 2074,
      "èµı": 2075,
      "çĪ¬ä¸Ĭ": 2076,
      "çľĭåĪ°äºĨä¸Ģä¸ª": 2077,
      "é¦ĸ": 2078,
      "åį±éĻ©": 2079,
      "éŀĭ": 2080,
      "çļĦæĺ¯": 2081,
      "æľŁ": 2082,
      "æľīä»Ģä¹Ī": 2083,
      "ä½łèĥ½": 2084,
      "å®¶éĩĮ": 2085,
      "é¹°": 2086,
      "å¥½æľĭåıĭ": 2087,
      "æ°ĶçĲĥ": 2088,
      "æĿ¥è¯´": 2089,
      "åĴ¯": 2090,
      "çĶ°": 2091,
      "å±ħ": 2092,
      "å¾Īå¤§çļĦ": 2093,
      "èİīèİīè¯´": 2094,
      "æİ¢éĻ©": 2095,
      "ç¬ĳäºĨç¬ĳ": 2096,
      "åĲĥäºĨ": 2097,
      "æĻ¯": 2098,
      "æļ´": 2099,
      "èĳ": 2100,
      "æĹĭ": 2101,
      "å¢Ļ": 2102,
      "æĺ¯ä¸Ģåıª": 2103,
      "éĵ¾": 2104,
      "é¥¿": 2105,
      "èĪĴéĢĤ": 2106,
      "åģĩè£ħ": 2107,
      "å°±æĺ¯": 2108,
      "ç§»": 2109,
      "æĢªçī©": 2110,
      "ä¸¾": 2111,
      "æ¯ıæ¬¡": 2112,
      "æĦŁè§īå¥½å¤ļäºĨ": 2113,
      "å©": 2114,
      "å¥Ķè·ĳ": 2115,
      "èµ¢": 2116,
      "æł¼": 2117,
      "åľ¨èĬ±åĽŃéĩĮ": 2118,
      "ä¸Ģä½į": 2119,
      "èİİèİī": 2120,
      "ä»½": 2121,
      "å¾·": 2122,
      "æĬ¬å¤´": 2123,
      "åŀ": 2124,
      "åĴĮä»ĸçļĦå¦Īå¦Ī": 2125,
      "æŁľ": 2126,
      "è®°å¾Ĺ": 2127,
      "ä¿ĿæĬ¤": 2128,
      "è½®": 2129,
      "èīĺ": 2130,
      "æĸĳ": 2131,
      "ç§¯": 2132,
      "éĺ³åħīæĺİåªļ": 2133,
      "çļĦæĹ¥": 2134,
      "éĹ»": 2135,
      "èĦı": 2136,
      "ç³ĸæŀľ": 2137,
      "æİīäºĨ": 2138,
      "åįģ": 2139,
      "å½¼æŃ¤": 2140,
      "æĶ¯": 2141,
      "ä¸ĢåĿĹ": 2142,
      "å¡Ķ": 2143,
      "ç¡¬": 2144,
      "èİīèİīçļĦ": 2145,
      "æĶ¶æĭ¾": 2146,
      "ä»¥åıĬ": 2147,
      "åĺ´": 2148,
      "åĲµ": 2149,
      "æĦŁåıĹ": 2150,
      "åģļäºĨ": 2151,
      "å¨ĥå¨ĥ": 2152,
      "æŃī": 2153,
      "åħ¬ä¸»": 2154,
      "æĻ¨": 2155,
      "ç»Ŀ": 2156,
      "çŃĶåºĶäºĨ": 2157,
      "åĲ¬åĪ°äºĨ": 2158,
      "èĩªè¡Į": 2159,
      "è®²": 2160,
      "æ£ĴçļĦ": 2161,
      "è·³è·ĥ": 2162,
      "è¿ĻæĿ¡": 2163,
      "çĮ´åŃĲ": 2164,
      "å¥¹å¯¹": 2165,
      "è§¦": 2166,
      "å¸®ä½ł": 2167,
      "å¾Īæľīè¶£": 2168,
      "èĩªè¡Įè½¦": 2169,
      "åıĳçİ°äºĨ": 2170,
      "é½": 2171,
      "é¸¡": 2172,
      "æ±ģ": 2173,
      "ä¸įå°ıå¿ĥ": 2174,
      "å®Ŀå®Ŀ": 2175,
      "æľīä¸ĢåıªåĲįåı«": 2176,
      "æĹģè¾¹": 2177,
      "ç»ķ": 2178,
      "å·¢": 2179,
      "Ĳå¿ĥ": 2180,
      "ä¸įèµ·": 2181,
      "å¹¸è¿Ĳ": 2182,
      "çħ§é¡¾": 2183,
      "ç©¿ä¸Ĭ": 2184,
      "ç³Ł": 2185,
      "æ¬£èµı": 2186,
      "éĢĴ": 2187,
      "ä¸įçŁ¥éģĵè¯¥æĢİä¹ĪåĬŀ": 2188,
      "è¿Ļæ¬¡": 2189,
      "å¾Ĺå¤ª": 2190,
      "åĨľå¤«": 2191,
      "éĴŁ": 2192,
      "ä¼Ĭ": 2193,
      "è¹¦è·³": 2194,
      "åĩ¯": 2195,
      "è¿«ä¸įåıĬå¾ħåľ°æĥ³": 2196,
      "çªģçĦ¶éĹ´": 2197,
      "åĿĳ": 2198,
      "è¯·æ±Ĥ": 2199,
      "åĲĮæĦıäºĨ": 2200,
      "çİ©èĢįæĹ¶": 2201,
      "èºº": 2202,
      "æĦŁåĪ°å¾Īéļ¾è¿ĩ": 2203,
      "è§Ĥå¯Ł": 2204,
      "ä»ĸå¯¹": 2205,
      "åģľæŃ¢": 2206,
      "èı²": 2207,
      "å¸ģ": 2208,
      "å¤ļä¹Ī": 2209,
      "çģ°": 2210,
      "å¥ĸ": 2211,
      "ç»³åŃĲ": 2212,
      "çĽ®": 2213,
      "éĽ¶é£Ł": 2214,
      "å¥³åĦ¿": 2215,
      "éŃĶæ³ķ": 2216,
      "èĲ¨ç±³": 2217,
      "äºĶ": 2218,
      "çŃīå¾ħ": 2219,
      "çģĮ": 2220,
      "èĦ¸ä¸Ĭ": 2221,
      "ç»Ļä½ł": 2222,
      "ä»ĸå¼Ģå§ĭ": 2223,
      "å¾ĹæĽ´": 2224,
      "åĽŀçŃĶè¯´": 2225,
      "äºĨä¸Ģå£°": 2226,
      "å°ıçĮ«": 2227,
      "æ±¤å§ĨåĴĮ": 2228,
      "çĿĢå®ĥ": 2229,
      "æĹħè¡Į": 2230,
      "å¹¶è¯´": 2231,
      "è®©å®ĥ": 2232,
      "æĮĤ": 2233,
      "ç§¯æľ¨": 2234,
      "çĶ¨å®ĥ": 2235,
      "åĮ»çĶŁ": 2236,
      "äºļ": 2237,
      "åģ¥": 2238,
      "ä»ĸåĲ¬åĪ°": 2239,
      "ç»ĻäºĨä»ĸ": 2240,
      "çģ«è½¦": 2241,
      "çģĮæľ¨": 2242,
      "æįī": 2243,
      "å°ĸ": 2244,
      "æĭ¼": 2245,
      "éĤ£ä½į": 2246,
      "å¸®æĪĳ": 2247,
      "ä¸Ģåº§": 2248,
      "ä¸Ģä»¶": 2249,
      "ä»ĸä»¬åĨ³å®ļ": 2250,
      "æ²¹": 2251,
      "åºŃ": 2252,
      "å¤´é¹°": 2253,
      "åĽŀå®¶çļĦ": 2254,
      "ä¸įæķ¢": 2255,
      "ç»ıåİĨ": 2256,
      "çıįå¦®": 2257,
      "å¼ĥ": 2258,
      "æĹ©æĻ¨": 2259,
      "åĸľæ¬¢çİ©": 2260,
      "ä¹±": 2261,
      "è®Ń": 2262,
      "çī¹æ®": 2263,
      "æķ´ä¸ª": 2264,
      "éĤ£æĿ¡": 2265,
      "åº·": 2266,
      "çļĦå°ıé¸Ł": 2267,
      "å¥¹éĥ½ä¼ļ": 2268,
      "æĪĸ": 2269,
      "æĽ¾": 2270,
      "çī¹æ®Ĭ": 2271,
      "é¡¹": 2272,
      "çĮ«å¤´é¹°": 2273,
      "æľīäºº": 2274,
      "æĻļé¤Ĳ": 2275,
      "ä¸Ģä¸ªåı«": 2276,
      "æķ´çĲĨ": 2277,
      "æĹħç¨ĭ": 2278,
      "æ¨": 2279,
      "çģ¿": 2280,
      "åħĪçĶŁ": 2281,
      "æīĶ": 2282,
      "çł´": 2283,
      "å¥¹çŁ¥éģĵ": 2284,
      "çĪ±çļĦ": 2285,
      "ä¸Ģæ£µ": 2286,
      "å¹¶æĦŁè°¢": 2287,
      "çİ©åħ·è½¦": 2288,
      "çĶ»çĶ»": 2289,
      "çģ¿çĥĤ": 2290,
      "èľľèľĤ": 2291,
      "éĤ»": 2292,
      "è¿İ": 2293,
      "æ²¿": 2294,
      "çĬ¶": 2295,
      "åľĨ": 2296,
      "äºĨåĩºæĿ¥": 2297,
      "æĪĳä»¬åİ»": 2298,
      "ä»İåīįæľīä¸Ģä¸ªå°ıå¥³åŃ©": 2299,
      "è°ģ": 2300,
      "é¹ħ": 2301,
      "æ£į": 2302,
      "é²ľ": 2303,
      "å§Ĳ": 2304,
      "åı«èİīèİī": 2305,
      "ç«ĭåĪ»": 2306,
      "æķ£æŃ¥æĹ¶": 2307,
      "å®īéĿĻ": 2308,
      "å¥¹æĦŁåĪ°": 2309,
      "å°¾": 2310,
      "èµ°è¿Ľ": 2311,
      "éĹªäº®": 2312,
      "éľ²åĩºäºĨ": 2313,
      "ä»ĸä¼ļ": 2314,
      "æĶ¾å¼ĥ": 2315,
      "æŁĲ": 2316,
      "é¥°": 2317,
      "èŁ": 2318,
      "è¿Ļåıªé¸Ł": 2319,
      "å°±åĥı": 2320,
      "çļĦä¸Ģå¤©": 2321,
      "å®¶åºŃ": 2322,
      "ç©ºä¸Ń": 2323,
      "è¦ģå°ıå¿ĥ": 2324,
      "å¥¹éĹ®": 2325,
      "è£ĻåŃĲ": 2326,
      "æ¥¼": 2327,
      "ç©¿çĿĢ": 2328,
      "è¡Ĺ": 2329,
      "ä¸Ģæł¹": 2330,
      "å¥½åĲĥ": 2331,
      "åıĳçĶŁäºĨä»Ģä¹Ī": 2332,
      "åľ°éĿ¢": 2333,
      "å°±åľ¨è¿Ļ": 2334,
      "ä¸Ģä¸ªåĲįåı«": 2335,
      "çĸ²": 2336,
      "å°ıèĢģé¼ł": 2337,
      "æķĻè®Ń": 2338,
      "å·¾": 2339,
      "æĿĳ": 2340,
      "åľ¨éĺ³åħīä¸ĭ": 2341,
      "æİ¥çĿĢ": 2342,
      "æ³£": 2343,
      "ç©´": 2344,
      "éħ·": 2345,
      "åĨ²": 2346,
      "æ¯¯åŃĲ": 2347,
      "èģĬ": 2348,
      "å¤ľ": 2349,
      "ä»ĸæĦŁåĪ°": 2350,
      "ç´§ç´§åľ°": 2351,
      "éĤ£åĿĹ": 2352,
      "ç©¿è¿ĩ": 2353,
      "ä»ĸçŁ¥éģĵ": 2354,
      "æĪĳä»¬æĿ¥": 2355,
      "å»ºè®®": 2356,
      "æĺ¯åĲ¦åı¯ä»¥": 2357,
      "çļĦè£": 2358,
      "æłĩ": 2359,
      "ç¾Ĭ": 2360,
      "åį°": 2361,
      "åı£è¢ĭ": 2362,
      "æľºåĻ¨": 2363,
      "è¯Ń": 2364,
      "åıªæľīä¸īå²ģ": 2365,
      "è´´": 2366,
      "èĢħ": 2367,
      "æµĭ": 2368,
      "åİŁæĿ¥": 2369,
      "åıĹä¼¤": 2370,
      "çļĦçĭĹ": 2371,
      "æ©¡": 2372,
      "æĪĳä¹Ł": 2373,
      "éĩįæĸ°": 2374,
      "è½»è½»": 2375,
      "éĤ£åıªçĭĹ": 2376,
      "æłĳåı¶": 2377,
      "äºĨä»ĸ": 2378,
      "å±ŀäºİ": 2379,
      "å¥¹çļĦå¦Īå¦Īè¯´": 2380,
      "æ²¿çĿĢ": 2381,
      "æĦŁåĪ°éĿŀå¸¸é«ĺåħ´": 2382,
      "ä¸Ģçīĩ": 2383,
      "èķ": 2384,
      "èĪĴæľį": 2385,
      "æ¯ĽèĮ¸": 2386,
      "åĲīå§Ĩ": 2387,
      "æ³°è¿ªçĨĬ": 2388,
      "æ¯ĽèĮ¸èĮ¸": 2389,
      "æ¤į": 2390,
      "äºĨä¸Ģåı£æ°Ķ": 2391,
      "åĲİéĻ¢": 2392,
      "ä½łä¸ºä»Ģä¹Ī": 2393,
      "åĳ³éģĵ": 2394,
      "èĢĲå¿ĥ": 2395,
      "åı¯æĢķ": 2396,
      "è¿Ļæĺ¯ä¸Ģä¸ª": 2397,
      "åĽłä¸ºå®ĥ": 2398,
      "ä¸īå²ģäºĨ": 2399,
      "ä»Ļ": 2400,
      "éĤ®": 2401,
      "éĤ»å±ħ": 2402,
      "æµª": 2403,
      "åľ¨è¿ĻéĩĮ": 2404,
      "æ²¡æľīäºº": 2405,
      "ï¼ļ\"": 2406,
      "å°±åľ¨è¿ĻæĹ¶": 2407,
      "ç§ĺå¯Ĩ": 2408,
      "æĭ¿åĩº": 2409,
      "ä½İ": 2410,
      "äºĨå¥¹": 2411,
      "ï¼ĮâĢľ": 2412,
      "å®¢": 2413,
      "åĨľåľº": 2414,
      "æĹĭè½¬": 2415,
      "åĢĴäºĨ": 2416,
      "ç§»åĬ¨": 2417,
      "æ°´éĩĮ": 2418,
      "æŀģäºĨ": 2419,
      "å¤´åıĳ": 2420,
      "åºķ": 2421,
      "åºĨ": 2422,
      "äºĨä¸Ģæķ´å¤©": 2423,
      "çº¢èī²çļĦ": 2424,
      "åĲİéĿ¢": 2425,
      "èĢĢ": 2426,
      "çĩ": 2427,
      "åĵ¥åĵ¥": 2428,
      "åĮĻ": 2429,
      "å¤§å¤§çļĦ": 2430,
      "å°¾å·´": 2431,
      "åŃ¦ä¼ļäºĨ": 2432,
      "æĺİäº®": 2433,
      "æīĩ": 2434,
      "éĥ½åľ¨": 2435,
      "ä»İæŃ¤": 2436,
      "åıĭå¥½": 2437,
      "æĿ¯": 2438,
      "åīª": 2439,
      "çļĦæīĢæľī": 2440,
      "è¿ĻåĿĹ": 2441,
      "ä¸įæĸŃ": 2442,
      "ç¢İ": 2443,
      "ä¸Ģä¸ªå£°éŁ³": 2444,
      "æħ¢æħ¢åľ°": 2445,
      "åĪĢ": 2446,
      "ä¾ĿçĦ¶": 2447,
      "éĹŃ": 2448,
      "çĶ±": 2449,
      "éĨĴæĿ¥": 2450,
      "çľĭäºĨçľĭ": 2451,
      "å¥¹å¼Ģå§ĭ": 2452,
      "äºĨä¸Ģä»¶": 2453,
      "å»ºéĢł": 2454,
      "åĪļ": 2455,
      "éĤĢ": 2456,
      "ç®ĢçĽ´": 2457,
      "èĶ": 2458,
      "çģ¯": 2459,
      "éĤĢè¯·": 2460,
      "å¦Īå¦ĪçļĦ": 2461,
      "åĪĽéĢł": 2462,
      "å®³æĢķäºĨ": 2463,
      "æ¸ħçĲĨ": 2464,
      "ä»İæľªè§ģè¿ĩ": 2465,
      "æłĳæŀĹ": 2466,
      "å¼ķ": 2467,
      "èµ°åĲĳ": 2468,
      "åİ»æī¾": 2469,
      "äºİæĺ¯ä»ĸä»¬": 2470,
      "çĥ¦": 2471,
      "æłĳæľ¨": 2472,
      "æĶ¶éĽĨ": 2473,
      "äºĨä¸Ģåıª": 2474,
      "è®¡åĪĴ": 2475,
      "å¼ı": 2476,
      "è¿Ļè¾Ĩ": 2477,
      "ä»ĸæĥ³è¦ģ": 2478,
      "è·ĳäºĨ": 2479,
      "æ²ī": 2480,
      "è·ĳå¼ĢäºĨ": 2481,
      "èĥ¡èĲĿåįľ": 2482,
      "æĺ¯ä¸ª": 2483,
      "çĶŁçī©": 2484,
      "å¥¹å¦Īå¦Īè¯´": 2485,
      "æĥĬåı¹": 2486,
      "æ¾": 2487,
      "æ´Ľ": 2488,
      "ä»ĸéĹ®": 2489,
      "çĥŁ": 2490,
      "ç»ĥ": 2491,
      "é»Ħèī²": 2492,
      "è¯ļ": 2493,
      "çĪ¸çĪ¸è¯´": 2494,
      "ä¹Į": 2495,
      "åħ¶ä¸Ń": 2496,
      "çļĦç¬ĳå®¹": 2497,
      "åģ¥åº·": 2498,
      "æ´ĭå¨ĥå¨ĥ": 2499,
      "å¯Į": 2500,
      "çªĹæĪ·": 2501,
      "åĬ¡": 2502,
      "å¾Īå®³æĢķ": 2503,
      "æ··": 2504,
      "è¿ĻéĩĮ": 2505,
      "å¼łæľĽ": 2506,
      "åľ°è¯´": 2507,
      "åĬŀæ³ķ": 2508,
      "é©¶": 2509,
      "å·§": 2510,
      "ä¹Łè®¸": 2511,
      "ä½łåľ¨": 2512,
      "ä¸Ģéĺµ": 2513,
      "çļĦèĦ": 2514,
      "äººçļĦ": 2515,
      "æĬ±ä½ıäºĨ": 2516,
      "å¥ı": 2517,
      "æľĿ": 2518,
      "è®©æĪĳ": 2519,
      "æ´ģ": 2520,
      "æĬĬå®ĥä»¬": 2521,
      "æŀļ": 2522,
      "åĿļæĮģ": 2523,
      "åı«åģļ": 2524,
      "ä¸įæķ¢çĽ¸ä¿¡": 2525,
      "è´µ": 2526,
      "å¸Ĥ": 2527,
      "çģµ": 2528,
      "ä½¿çĶ¨": 2529,
      "ä»ĸéĥ½ä¼ļ": 2530,
      "åı¯èĥ½ä¼ļ": 2531,
      "éķľ": 2532,
      "éģĩåĪ°äºĨä¸Ģ": 2533,
      "å¾ħåľ¨": 2534,
      "åı¸": 2535,
      "æīĵæī": 2536,
      "å¦Ĥæŀľä½ł": 2537,
      "æµ´": 2538,
      "ä¸įè§ģ": 2539,
      "åįģåĪĨ": 2540,
      "å¥¹çļĦæľĭåıĭä»¬": 2541,
      "æ¤įçī©": 2542,
      "é¹¿": 2543,
      "åľ¨åľ°ä¸Ĭ": 2544,
      "åĮĸ": 2545,
      "å¸¦æĿ¥": 2546,
      "å½¢çĬ¶": 2547,
      "ä¸§": 2548,
      "è¯´è¯Ŀ": 2549,
      "èļģ": 2550,
      "åĴĮå¥¹çļĦå¦Īå¦Ī": 2551,
      "æĢĢ": 2552,
      "ç¾ŀ": 2553,
      "å¾ĹéĿŀå¸¸": 2554,
      "å¾ĹåĪ°": 2555,
      "æĭ©": 2556,
      "éĢīæĭ©": 2557,
      "æĽ¾ç»ı": 2558,
      "ç¥Ŀ": 2559,
      "®ä¸§": 2560,
      "æ²®ä¸§": 2561,
      "çĵľ": 2562,
      "æ´ŀç©´": 2563,
      "æĩ": 2564,
      "éĿŀå¸¸ä¼¤å¿ĥ": 2565,
      "ä»ĸä»¬åĸľæ¬¢": 2566,
      "ä¸Ģä¸ªå°ıå¥³åŃ©": 2567,
      "è°Ī": 2568,
      "ä»ĸçļĦå¦Īå¦Īè¯´": 2569,
      "å½ĵä»ĸä»¬åĪ°è¾¾": 2570,
      "æĽ´å¤ļçļĦ": 2571,
      "å¹ħ": 2572,
      "éħ¸": 2573,
      "Ĥèļģ": 2574,
      "èľ¡": 2575,
      "æĢĿèĢĥ": 2576,
      "å¤§å®¶éĥ½": 2577,
      "çīĮ": 2578,
      "åľ°æĿ¿": 2579,
      "ä¸Ģåľº": 2580,
      "å¥¹ä¼ļ": 2581,
      "å¼Łå¼Ł": 2582,
      "åĸĦèī¯çļĦ": 2583,
      "èģªæĺİçļĦ": 2584,
      "ä»ĸè§īå¾Ĺ": 2585,
      "å°±åľ¨": 2586,
      "ä»ĸä»¬æĬĬ": 2587,
      "èĻ¹": 2588,
      "æĭĴ": 2589,
      "å½©èĻ¹": 2590,
      "èĥ½ä¸įèĥ½": 2591,
      "çľŁæĺ¯å¤ª": 2592,
      "çĶ°éĩİ": 2593,
      "å§ĭç»Ī": 2594,
      "ä¿©": 2595,
      "ç»ĵæĿŁæĹ¶": 2596,
      "äºĨè®¸å¤ļ": 2597,
      "çļĦæľĢ": 2598,
      "å¹¶å¼Ģå§ĭ": 2599,
      "å¸¦åĽŀå®¶": 2600,
      "å¥¹æĥ³è¦ģ": 2601,
      "è¡¨æ¼Ķ": 2602,
      "èį¯": 2603,
      "åĵĪ": 2604,
      "æĲħ": 2605,
      "æĤ²": 2606,
      "èµ°çĿĢ": 2607,
      "æĺ¯å¾Ī": 2608,
      "æľµèĬ±": 2609,
      "åĴĮå¦Īå¦Īä¸Ģèµ·": 2610,
      "èĽĽ": 2611,
      "è¿Ļé¢Ĺ": 2612,
      "ç»ıè¿ĩ": 2613,
      "åĲ¬ä»İ": 2614,
      "èĢģå¸Ī": 2615,
      "å¥¹åĲ¬åĪ°": 2616,
      "ç¡¬å¸ģ": 2617,
      "ä¼¼": 2618,
      "æīįèĥ½": 2619,
      "æĽ²": 2620,
      "¥åĮĻ": 2621,
      "ä½Ĩä»ĸä»¬": 2622,
      "äºİæĺ¯åĨ³å®ļ": 2623,
      "éĴ¥åĮĻ": 2624,
      "ĺèĽĽ": 2625,
      "æ£ķ": 2626,
      "é¡¿": 2627,
      "æ´¾å¯¹": 2628,
      "åıĤåĬł": 2629,
      "æĮ¥æīĭåĳĬåĪ«": 2630,
      "æľīä¸¤ä¸ªæľĭåıĭ": 2631,
      "è¦ģåİ»": 2632,
      "ç´«": 2633,
      "ä¹Łæĥ³": 2634,
      "çģĮæľ¨ä¸Ľ": 2635,
      "è·³åİ»": 2636,
      "éŀĭåŃĲ": 2637,
      "è®¤ä¸º": 2638,
      "éĢļè¿ĩ": 2639,
      "Sp": 2640,
      "ä»ĸæĢ»æĺ¯": 2641,
      "åĩºåıĳ": 2642,
      "å¸®åĬ©ä»ĸ": 2643,
      "ä¹Łå¾Ī": 2644,
      "èĢĮæĦŁåĪ°": 2645,
      "å¼±": 2646,
      "åĽŀåİ»": 2647,
      "ä»ĸå¾Ī": 2648,
      "åĳ¨åĽ´çļĦ": 2649,
      "è®©æĪĳä»¬": 2650,
      "æķ²": 2651,
      "åľ¨å¤©ç©ºä¸Ń": 2652,
      "èĬĤ": 2653,
      "»åŃĲ": 2654,
      "è¹¦è¹¦è·³": 2655,
      "è¹¦è¹¦è·³è·³": 2656,
      "ä»ĸçĶ¨": 2657,
      "ç¾¤": 2658,
      "è·³æĿ¥": 2659,
      "èĮľ": 2660,
      "å¦ĻçļĦ": 2661,
      "çŃĿ": 2662,
      "é£İçŃĿ": 2663,
      "èº²": 2664,
      "å®ĥå¾Ī": 2665,
      "ç»ĥä¹ł": 2666,
      "åĩī": 2667,
      "åģ¶": 2668,
      "è·³æĿ¥è·³åİ»": 2669,
      "æ©Ļ": 2670,
      "æ¯ıå¤©éĥ½ä¼ļ": 2671,
      "å°±ä¼ļ": 2672,
      "èĪª": 2673,
      "ç®ĢçĽ´ä¸įæķ¢çĽ¸ä¿¡": 2674,
      "åĽĽå¤Ħå¼łæľĽ": 2675,
      "çļĦæĹ¥åŃĲ": 2676,
      "é«ĺé«ĺ": 2677,
      "å¯¹ä¸įèµ·": 2678,
      "æĻĥ": 2679,
      "çļĦèį": 2680,
      "è¿ĻæĹ¶": 2681,
      "å¹¶åľ¨": 2682,
      "èµ°è¿ĳ": 2683,
      "å°±èĥ½": 2684,
      "ä¸įåĲĮçļĦ": 2685,
      "å¤§äºĨ": 2686,
      "å¥¹è¯´éģĵ": 2687,
      "é³": 2688,
      "åĬ±": 2689,
      "ç´¯äºĨ": 2690,
      "ä¸Ģè¾Ĩ": 2691,
      "éĺŁ": 2692,
      "æĬĵä½ıäºĨ": 2693,
      "åĨįä¹Łä¸į": 2694,
      "èļĤèļģ": 2695,
      "æ¾¡": 2696,
      "æ¬¢è¿İ": 2697,
      "æĭĴç»Ŀ": 2698,
      "äº²çĪ±çļĦ": 2699,
      "æĦŁåĪ°å¾Īå¼Ģå¿ĥ": 2700,
      "çıŃ": 2701,
      "æ¡Ī": 2702,
      "ç»¿èī²": 2703,
      "ot": 2704,
      "åĴĮæĪĳ": 2705,
      "ç«¯": 2706,
      "éĶģ": 2707,
      "ä¸įè¡Į": 2708,
      "å¿«ä¹ĲçļĦ": 2709,
      "ç½ĳ": 2710,
      "éĹ®å¥¹": 2711,
      "æĳĨ": 2712,
      "å®Įåħ¨": 2713,
      "è¿Ľè¡Į": 2714,
      "çļĦèĥ": 2715,
      "å¥¹éĿŀå¸¸åħ´å¥ĭ": 2716,
      "åĬ¨çī©ä»¬": 2717,
      "çļĦå¸®åĬ©": 2718,
      "æŀª": 2719,
      "é¦Ĩ": 2720,
      "æ¶Īå¤±äºĨ": 2721,
      "ä¸Ģä¸ªå°ı": 2722,
      "åĴĮä»ĸ": 2723,
      "æľīäºĨä¸Ģä¸ªä¸»æĦı": 2724,
      "çĸ²æĥ": 2725,
      "é»ĳæļĹ": 2726,
      "ãĢĤâĢĿâĢľ": 2727,
      "å¦Īå¦ĪåĴĮçĪ¸çĪ¸": 2728,
      "è¸¢": 2729,
      "è¿Ī": 2730,
      "å¥¹å¾Ī": 2731,
      "æ¸Ĳ": 2732,
      "æĺ¾": 2733,
      "æĥĳ": 2734,
      "æıĲç±³çļĦå°ıçĶ·åŃ©": 2735,
      "å¦Īå¦ĪçļĦè¯Ŀ": 2736,
      "æľīä¸ĢæĿ¡": 2737,
      "æĮĳ": 2738,
      "å¿«åľ°": 2739,
      "å¥¹è§īå¾Ĺ": 2740,
      "åı¦ä¸Ģä¸ª": 2741,
      "æīĢæľīäººéĥ½": 2742,
      "ä¸ºå¥¹": 2743,
      "å£³": 2744,
      "ä½Ĩè¿ĺæĺ¯": 2745,
      "æ¶Ĥ": 2746,
      "ä¼¤å®³": 2747,
      "èİīèİīæĥ³": 2748,
      "é©¬åħĭ": 2749,
      "ç»Ļå¦Īå¦Ī": 2750,
      "æĪĲäºĨæľĢå¥½çļĦæľĭåıĭ": 2751,
      "æ°´æŀľ": 2752,
      "å¤§è±¡": 2753,
      "çĸ²æĥ«": 2754,
      "æĬ±ä½ı": 2755,
      "Spot": 2756,
      "éĿ¢åīį": 2757,
      "æ»¡æĦı": 2758,
      "æ´Ĵ": 2759,
      "å¯»æ±Ĥ": 2760,
      "ä¸Ĭåİ»": 2761,
      "çļĦå°ıçĭĹ": 2762,
      "çĪ¶äº²": 2763,
      "å°½ç®¡": 2764,
      "å®ł": 2765,
      "çĹĽ": 2766,
      "åĩłä¸ª": 2767,
      "å½¼å¾Ĺ": 2768,
      "é¼ĵæİĮ": 2769,
      "å°ıçļĦ": 2770,
      "å®ĮæĪĲäºĨ": 2771,
      "ä¹Ĳè¶£": 2772,
      "æ¯¯": 2773,
      "ç¾½": 2774,
      "å·¨åĵį": 2775,
      "ä¸ĳ": 2776,
      "è¯ķè¯ķ": 2777,
      "åĽº": 2778,
      "å¼Ģè½¦": 2779,
      "ä¼¼ä¹İ": 2780,
      "èİĵ": 2781,
      "å¥¹çĶ¨": 2782,
      "èģļ": 2783,
      "å¾Īå¥½": 2784,
      "éª¨": 2785,
      "éĥ½æĺ¯": 2786,
      "è¿·èĹı": 2787,
      "æįīè¿·èĹı": 2788,
      "è¶³å¤Ł": 2789,
      "èĩĤ": 2790,
      "ä¸Ģå¼ł": 2791,
      "ç¾½æ¯Ľ": 2792,
      "åı¶åŃĲ": 2793,
      "è£ħæ»¡": 2794,
      "ç²Ĺ": 2795,
      "è·ĳè¿ĩåİ»": 2796,
      "çľĭèµ·æĿ¥éĿŀå¸¸": 2797,
      "½çĦ¶": 2798,
      "å¥½ä¸»æĦı": 2799,
      "è£ħé¥°": 2800,
      "æĤ²ä¼¤": 2801,
      "æıĲç±³çļĦå¦Īå¦Ī": 2802,
      "çģ¿çĥĤçļĦç¬ĳå®¹": 2803,
      "æľīä¸Ģä¸ªå°ıå¥³åŃ©åı«èİīèİī": 2804,
      "æĭľ": 2805,
      "ä¸ĢæĬĬ": 2806,
      "æĸ¹å¼ı": 2807,
      "éļıçĿĢ": 2808,
      "è¾£": 2809,
      "ç¾İå¥½": 2810,
      "æ»¡è¶³": 2811,
      "å¼Ģå§ĭåĵŃäºĨèµ·æĿ¥": 2812,
      "çĪª": 2813,
      "éĤ£ä¸ªçĶ·äºº": 2814,
      "éĵģ": 2815,
      "ä»ĸåĲĳ": 2816,
      "ä»İåīįæľīä¸Ģä¸ªåı«": 2817,
      "å°ıå¿ĥåľ°": 2818,
      "åĩĨå¤ĩå¥½": 2819,
      "ä»ĸä»¬çľĭåĪ°": 2820,
      "åĢŁ": 2821,
      "éĻª": 2822,
      "å°±åı¯ä»¥": 2823,
      "è§£éĩĬè¯´": 2824,
      "çĸ¼": 2825,
      "æıĲéĨĴ": 2826,
      "ä¸Ģç§į": 2827,
      "è¿Ļåº§": 2828,
      "ç»ķçĿĢ": 2829,
      "ä»ĸçļĦçĪ¸çĪ¸": 2830,
      "éĶħ": 2831,
      "åĴĮå¥¹çļĦæľĭåıĭä»¬": 2832,
      "æĲ¬": 2833,
      "æĪĲä¸ºäºĨ": 2834,
      "ä¸įä¹ħ": 2835,
      "ä¸Ģä¼ļåĦ¿": 2836,
      "è§£åĨ³": 2837,
      "æľĹ": 2838,
      "æİĴ": 2839,
      "åĪĻ": 2840,
      "æĶ¹": 2841,
      "å¥¹éĹ®å¦Īå¦Ī": 2842,
      "æĭĮ": 2843,
      "äºĨå¥¹çļĦ": 2844,
      "éĤ£æł¹": 2845,
      "ä»ĸä»¬æĥ³": 2846,
      "å¹¶æ²¡æľī": 2847,
      "çĪ·çĪ·": 2848,
      "æĲħæĭĮ": 2849,
      "çĭ¬èĩª": 2850,
      "æĶ¾è¿ĽäºĨ": 2851,
      "å¥¹æĢ»æĺ¯": 2852,
      "æĴŀ": 2853,
      "ç¥ŀå¥ĩçļĦ": 2854,
      "åĽ½çİĭ": 2855,
      "å¾Īé«ĺåħ´èĩªå·±": 2856,
      "åıªè¦ģ": 2857,
      "å¿«éĢŁ": 2858,
      "è®°ä½ı": 2859,
      "ç«Ļåľ¨": 2860,
      "å®ĥåľ¨": 2861,
      "æĿ°åħĭåĴĮ": 2862,
      "åŃĺ": 2863,
      "è¯ģ": 2864,
      "è¿Ľåħ¥": 2865,
      "åıĺå¾ĹæĽ´": 2866,
      "ä¸ºä»ĸ": 2867,
      "å¥¹åĸľæ¬¢åľ¨": 2868,
      "èľĺèĽĽ": 2869,
      "åģļåĪ°": 2870,
      "å®½": 2871,
      "åıĶ": 2872,
      "çĦ¶åĲİä»ĸä»¬": 2873,
      "éľĢè¦ģå¸®åĬ©": 2874,
      "äºĽæĹ¶åĢĻ": 2875,
      "å®ĿèĹı": 2876,
      "å®Ī": 2877,
      "å¥¹åİ»": 2878,
      "éĩİé¤Ĳ": 2879,
      "æł¡": 2880,
      "éĻĦè¿ĳçļĦ": 2881,
      "åı²": 2882,
      "çĶ¨æĿ¥": 2883,
      "æ¯ıå½ĵ": 2884,
      "ä»ĸéĿŀå¸¸åĸľæ¬¢": 2885,
      "æĿĲ": 2886,
      "çĿ¡çĿĢ": 2887,
      "äºĨä¸Ģæ®µ": 2888,
      "éĩĩ": 2889,
      "é«ĺåħ´åľ°": 2890,
      "ç®Ń": 2891,
      "åļ": 2892,
      "éķ¿çļĦ": 2893,
      "ä¸ºèĩªå·±çļĦ": 2894,
      "å·¥åħ·": 2895,
      "å¸ĮæľĽèĩªå·±": 2896,
      "å¹¶åĲĳ": 2897,
      "å¿µ": 2898,
      "åħ¶ä»ĸåĬ¨çī©": 2899,
      "è¡¨ç¤º": 2900,
      "å¯»æ±Ĥå¸®åĬ©": 2901,
      "åºĨç¥Ŀ": 2902,
      "ä¸ĭåİ»": 2903,
      "å¼ĹéĽ·": 2904,
      "è¿ľå¤Ħ": 2905,
      "è¿ŀ": 2906,
      "ä¿®çĲĨ": 2907,
      "ç¿»": 2908,
      "ãĢĤâĢĺ": 2909,
      "ç¾İå¥½çļĦä¸Ģå¤©": 2910,
      "æ¡ĥ": 2911,
      "è®¾": 2912,
      "åĲĥå®Į": 2913,
      "åĴĮæľ¬": 2914,
      "éĤ£æł·": 2915,
      "æģ¶": 2916,
      "çĶµè¯Ŀ": 2917,
      "åĴĮå¥¹": 2918,
      "åĩºçİ°äºĨ": 2919,
      "ä¸įè§ģäºĨ": 2920,
      "æĪĳåĸľæ¬¢": 2921,
      "æģĲ": 2922,
      "åĴĮå®¶äºº": 2923,
      "èĻ½çĦ¶": 2924,
      "è§ģåĪ°": 2925,
      "ä¿®å¥½": 2926,
      "çĤ¹å¿ĥ": 2927,
      "ç¯®": 2928,
      "éĺ²": 2929,
      "åĳ½": 2930,
      "èĭ¦": 2931,
      "ä½ĨåĲİæĿ¥": 2932,
      "æĦŁåĪ°éĿŀå¸¸éļ¾è¿ĩ": 2933,
      "å¥¹åĲĳ": 2934,
      "çº¦ç¿°å°¼": 2935,
      "æŃ£åľ¨çİ©": 2936,
      "çļĦçĶ·äºº": 2937,
      "èĥĸ": 2938,
      "éĹ®ä»ĸ": 2939,
      "æ°´ä¸Ń": 2940,
      "è®¿": 2941,
      "æ¯įäº²": 2942,
      "çļĦè£ĻåŃĲ": 2943,
      "åŃ¤åįķ": 2944,
      "ãĢĤ\"": 2945,
      "ä¸Ģå£°": 2946,
      "å¤ªå¤ª": 2947,
      "å¥¹åıĳçİ°": 2948,
      "åģļä¸ĢäºĽ": 2949,
      "æ²¡äºĭ": 2950,
      "æĹłæ¯Ķ": 2951,
      "æľīä¸Ģè¾Ĩ": 2952,
      "è¸ı": 2953,
      "åı·": 2954,
      "çļĦå®¶": 2955,
      "å°ģ": 2956,
      "å¨ģ": 2957,
      "èī¾ç±³ä¸½": 2958,
      "ä»Ļå¥³": 2959,
      "å¤§ç¬ĳ": 2960,
      "éĤ£ä¸ªäºº": 2961,
      "è¿Ļæł¹": 2962,
      "åİ»æİ¢ç´¢": 2963,
      "æ¯Ķå¦Ĥ": 2964,
      "ä»ĸéĿŀå¸¸åħ´å¥ĭ": 2965,
      "åİħ": 2966,
      "çĭ¼": 2967,
      "æĪĳä»¬ä¸Ģèµ·": 2968,
      "æĦŁåĪ°éªĦåĤ²": 2969,
      "æĺ¯å¾Īéĩįè¦ģçļĦ": 2970,
      "å¹¶æĬĬå®ĥ": 2971,
      "çļĦæīĭ": 2972,
      "ä¼´": 2973,
      "äºĨä¸Ģæ¬¡": 2974,
      "å¥½åĲ§": 2975,
      "åĪ°ä¸Ģä¸ª": 2976,
      "äº«çĶ¨": 2977,
      "æĻļäºĽæĹ¶åĢĻ": 2978,
      "è±Ĩ": 2979,
      "è¿ĩäºĨ": 2980,
      "æľīä¸Ģä¸ªå¤§": 2981,
      "çīĻ": 2982,
      "æľīä¸Ģä¸ªå°ıçĶ·åŃ©": 2983,
      "æĸ°äºĭçī©": 2984,
      "æĺİäº®çļĦ": 2985,
      "è¿Ļä»¶": 2986,
      "æĺ¯æĹ¶åĢĻ": 2987,
      "éĿŀå¸¸å®³æĢķ": 2988,
      "æĺİæ²»": 2989,
      "ä¸īæĺİæ²»": 2990,
      "åºĬä¸Ĭ": 2991,
      "éĻ¢åŃĲéĩĮ": 2992,
      "ä¸½ä¸Ŀ": 2993,
      "æĽ¼": 2994,
      "éģį": 2995,
      "æµ·è±": 2996,
      "å¤ĸå¥Ĺ": 2997,
      "åĭº": 2998,
      "æĥ³çĿĢ": 2999,
      "å°ıçĨĬ": 3000,
      "å¥¹çľĭåĪ°äºĨ": 3001,
      "å½ĵå¥¹ä»¬": 3002,
      "çļĦçĮ«": 3003,
      "æ··åĲĪ": 3004,
      "è½»è½»åľ°": 3005,
      "çļĦå°ıåħĶåŃĲ": 3006,
      "é³Ħ": 3007,
      "å¾Īéĩįè¦ģ": 3008,
      "ç¥ŀç§ĺ": 3009,
      "æ¯Ľæ¯Ľ": 3010,
      "å¥¥": 3011,
      "çĽĴåŃĲéĩĮ": 3012,
      "äºĨæĳĩ": 3013,
      "éĤ£æĺ¯ä¸Ģåıª": 3014,
      "æĪ´çĿĢ": 3015,
      "åı¸æľº": 3016,
      "æĢİä¹ĪäºĨ": 3017,
      "æīĭéĩĮ": 3018,
      "æĬ¥": 3019,
      "æĤ¦": 3020,
      "ä»ĸåı¯ä»¥": 3021,
      "æĬĸ": 3022,
      "åįĩ": 3023,
      "èĵĿèī²çļĦ": 3024,
      "æ°´åĿĳ": 3025,
      "ï¼Į'": 3026,
      "åľ¨æ£®æŀĹéĩĮ": 3027,
      "æĦıæĢĿ": 3028,
      "èįīåľ°": 3029,
      "çļĦèįī": 3030,
      "æĻº": 3031,
      "æ¸©æŁĶ": 3032,
      "æ±łå¡ĺéĩĮ": 3033,
      "èµ°åĪ°å¤ĸéĿ¢": 3034,
      "ç»ıå¸¸": 3035,
      "èĥ½æī¾åĪ°": 3036,
      "æĢ¥": 3037,
      "æĳĩäºĨæĳĩ": 3038,
      "éĿ¢åĮħ": 3039,
      "æĮĸ": 3040,
      "èµ¢å¾Ĺ": 3041,
      "æĿ¯åŃĲ": 3042,
      "æħ°": 3043,
      "å©´": 3044,
      "èĸ": 3045,
      "å°ĸåı«": 3046,
      "å®ĥä¼ļ": 3047,
      "å±ķç¤ºç»Ļ": 3048,
      "éĴ®": 3049,
      "èĴĤå§ĨåĴĮ": 3050,
      "åıĺå¾ĹéĿŀå¸¸": 3051,
      "éħ±": 3052,
      "æį¢": 3053,
      "åĽ°æĥĳ": 3054,
      "æľīä¸ĢäºĽ": 3055,
      "åģľæŃ¢äºĨ": 3056,
      "è°·": 3057,
      "å©´åĦ¿": 3058,
      "ä»ĸçľĭåĪ°äºĨ": 3059,
      "æĭĽ": 3060,
      "éĤ£è¾Ĩ": 3061,
      "èĪªè¡Į": 3062,
      "ä½ıçĿĢ": 3063,
      "èĴĤç±³çļĦå°ıçĶ·åŃ©": 3064,
      "æĬ±çĿĢ": 3065,
      "æ¯ıä¸ªäºº": 3066,
      "å¹¶è¯´éģĵ": 3067,
      "æ£ĴäºĨ": 3068,
      "è£ħæ»¡äºĨ": 3069,
      "īåŃĲ": 3070,
      "åŃ¦åĪ°äºĨ": 3071,
      "èĵĿèī²": 3072,
      "æľīå¤ļ": 3073,
      "çĪ±ä¸½ä¸Ŀ": 3074,
      "æ¤ħåŃĲ": 3075,
      "ç»ĵæŀľ": 3076,
      "è£¹": 3077,
      "è¿Ļåıªå°ıé¸Ł": 3078,
      "éĤ£é¢Ĺ": 3079,
      "æ»ĳç¨": 3080,
      "ä¸ĽæŀĹ": 3081,
      "æ»ĳç¨½": 3082,
      "æ¢ħ": 3083,
      "çļĦä¸ĢåĪĩ": 3084,
      "ä½Ĩæľīä¸Ģå¤©": 3085,
      "æĹ©ä¸Ĭ": 3086,
      "æ¸©æļĸçļĦ": 3087,
      "ä»ĸåıĳçİ°": 3088,
      "çĪªåŃĲ": 3089,
      "ç½®": 3090,
      "åİ»äºĨåķĨåºĹ": 3091,
      "æ¸´": 3092,
      "ä»ĸä»¬ä¼ļ": 3093,
      "æĢ§": 3094,
      "çĶŁæĹ¥": 3095,
      "åŃ¦æł¡": 3096,
      "æĮĩçĿĢ": 3097,
      "éħª": 3098,
      "èĥĮ": 3099,
      "çıł": 3100,
      "å¥¶éħª": 3101,
      "åı¤": 3102,
      "åģľäºĨä¸ĭæĿ¥": 3103,
      "èĦ±": 3104,
      "æĸ¹æ³ķ": 3105,
      "éĵĥ": 3106,
      "å¥¹çļĦçĪ¸çĪ¸": 3107,
      "éĺ¿": 3108,
      "åĴ¯åĴ¯": 3109,
      "æĺĵ": 3110,
      "æĿĤ": 3111,
      "å¤©æ°Ķ": 3112,
      "æ°¸è¿ľä¸įä¼ļ": 3113,
      "é¼»åŃĲ": 3114,
      "èĩ´": 3115,
      "å¥¹æľĢåĸľæ¬¢çļĦ": 3116,
      "åĩºäºĨä¸Ģä¸ª": 3117,
      "æĲŃ": 3118,
      "çĮª": 3119,
      "çĿ¡çĿĢäºĨ": 3120,
      "å¤±æľĽ": 3121,
      "æľīä¸Ģä¸ªçĶ·åŃ©": 3122,
      "å¿į": 3123,
      "è·ĳåĪ°å¤ĸéĿ¢": 3124,
      "æķ´æ´ģ": 3125,
      "åĽ°éļ¾": 3126,
      "ä½łæĺ¯": 3127,
      "åİ¨æĪ¿éĩĮ": 3128,
      "åŀĭ": 3129,
      "ä»ĸéĿŀå¸¸é«ĺåħ´": 3130,
      "ä¸įä½ı": 3131,
      "è¿Ļå¤ª": 3132,
      "è¿Ļæ£µæłĳ": 3133,
      "éĿŀå¸¸éļ¾è¿ĩ": 3134,
      "æĪĳèĥ½": 3135,
      "åĩ»": 3136,
      "åİ»çľĭ": 3137,
      "èħ¿": 3138,
      "æĬĬæīĭ": 3139,
      "çī©åĵģ": 3140,
      "æģ¢": 3141,
      "ç§°": 3142,
      "æģ¢å¤į": 3143,
      "æĪĺ": 3144,
      "æŃ£åľ¨åħ¬åĽŃéĩĮ": 3145,
      "èĬĴ": 3146,
      "åľ°æĿ¿ä¸Ĭ": 3147,
      "åı£è¢ĭéĩĮ": 3148,
      "çļĦèľ": 3149,
      "ç©¿ä¸ĬäºĨ": 3150,
      "éº»": 3151,
      "æĻ®éĢļ": 3152,
      "å²¸": 3153,
      "çħ§çīĩ": 3154,
      "éĽħ": 3155,
      "æĦŁåĪ°å¼Ģå¿ĥ": 3156,
      "ä¾Ľ": 3157,
      "å®³ç¾ŀ": 3158,
      "åı£æ°Ķ": 3159,
      "åľ¨å¥¹": 3160,
      "åįĹ": 3161,
      "éĢĲ": 3162,
      "å¯¹å¥¹": 3163,
      "ä½ľåĵģ": 3164,
      "çĥŃçĪ±": 3165,
      "é£ŀè¡Į": 3166,
      "çĳŀ": 3167,
      "èī²å½©": 3168,
      "å¸¦ä»ĸ": 3169,
      "å¿ĺè®°äºĨ": 3170,
      "èĴĤç±³çļĦå¦Īå¦Ī": 3171,
      "è¡¨çİ°": 3172,
      "ä»İåīįæľīä¸Ģä¸ªåĲįåı«": 3173,
      "çľĭåĪ°ä¸Ģåıª": 3174,
      "æľ¨å¤´": 3175,
      "éĤ£ä¸ªå£°éŁ³": 3176,
      "å¤¹": 3177,
      "å¹¿": 3178,
      "è¿ĽæĿ¥": 3179,
      "åĪĨéĴŁ": 3180,
      "æµĨ": 3181,
      "æŃ£ç¡®": 3182,
      "åħīèĬĴ": 3183,
      "å¾®ç¬ĳäºĨ": 3184,
      "æľĪ": 3185,
      "æı¡": 3186,
      "ä¸ĢåĪĩéĥ½": 3187,
      "æľŁå¾ħ": 3188,
      "ä¸Ģçľĭ": 3189,
      "åĨįè§ģ": 3190,
      "ä¼ĺ": 3191,
      "åĵ¨": 3192,
      "è¡¬": 3193,
      "å®ĿçŁ³": 3194,
      "æĪĳåľ¨": 3195,
      "å¸®å¥¹": 3196,
      "çĸļ": 3197,
      "èį¡ç§ĭåįĥ": 3198,
      "ä»ĸä»¬å¼Ģå§ĭ": 3199,
      "åľ¨å¤ĸéĿ¢çİ©èĢį": 3200,
      "ç½ĲåŃĲ": 3201,
      "æĸ°çİ©åħ·": 3202,
      "å¥¹åı¯ä»¥": 3203,
      "äºĨä»ĸçļĦ": 3204,
      "å¥¹éĿŀå¸¸å¼Ģå¿ĥ": 3205,
      "ä»»åĬ¡": 3206,
      "ç¼¸": 3207,
      "æĿ¥åĪ°äºĨ": 3208,
      "æ³¡æ³¡": 3209,
      "å¸ķ": 3210,
      "æ£įåŃĲ": 3211,
      "åĨ°ç®±": 3212,
      "èĥ¶": 3213,
      "çļĦåŃ©åŃĲ": 3214,
      "çĶµè§Ĩ": 3215,
      "å¤§åĸĬ": 3216,
      "é¦Ļèķ": 3217,
      "è¿Ļä¸ªçĶ·äºº": 3218,
      "é¦Ļèķī": 3219,
      "æĥ³è±¡": 3220,
      "å¸®åĬ©å¥¹": 3221,
      "å®łçī©": 3222,
      "è¡«": 3223,
      "æĥĬè®¶åľ°": 3224,
      "å¾Īåħ´å¥ĭ": 3225,
      "ä¸įè¿ĩ": 3226,
      "æĸĩ": 3227,
      "æĭįæīĭ": 3228,
      "åĴª": 3229,
      "å£ģ": 3230,
      "å°ıæĹ¶": 3231,
      "åľ¨åħ¬åĽŃ": 3232,
      "æŀľæ±ģ": 3233,
      "äºīåĲµ": 3234,
      "è£Ļ": 3235,
      "ä¸ºäºĨ": 3236,
      "çĦ¶åĲİä»ĸ": 3237,
      "éĴĪ": 3238,
      "çİ©å¥¹çļĦçİ©åħ·": 3239,
      "æĹłèģĬ": 3240,
      "æĳ©": 3241,
      "åĿ¡": 3242,
      "æŁł": 3243,
      "ç³Łç³ķ": 3244,
      "ç£": 3245,
      "ä»ĸä»¬è¯´": 3246,
      "èī¾èİī": 3247,
      "è¡¬è¡«": 3248,
      "ä»ĸä»¬ä¸Ģèµ·çİ©": 3249,
      "ä¸įçĶ¨": 3250,
      "èĢģå¤ªå¤ª": 3251,
      "äº«åıĹçĿĢ": 3252,
      "ç»Ļå¦Īå¦Īçľĭ": 3253,
      "ä»ĸå¦Īå¦Ī": 3254,
      "åĲĮæĹ¶": 3255,
      "åĨ³å¿ĥ": 3256,
      "æĦŁåĪ°å¿«ä¹Ĳ": 3257,
      "è®©ä½ł": 3258,
      "æľīçĤ¹å®³æĢķ": 3259,
      "çļĦæĹ¶åħī": 3260,
      "åħģ": 3261,
      "ä¸Ģä¸ªäºº": 3262,
      "åħģè®¸": 3263,
      "åĸľæĤ¦": 3264,
      "èĦĳ": 3265,
      "å¥½å¥½": 3266,
      "è²": 3267,
      "è¿Ļè®©": 3268,
      "ç²īèī²": 3269,
      "èŁ¹": 3270,
      "å¥¹éĿŀå¸¸é«ĺåħ´": 3271,
      "è²Į": 3272,
      "åĴĮçİ©èĢį": 3273,
      "è°ĥ": 3274,
      "åĿĲä¸ĭæĿ¥": 3275,
      "èĴĤå§ĨçļĦå°ıçĶ·åŃ©": 3276,
      "è§ĴèĲ½": 3277,
      "è·ĳå¾Ĺ": 3278,
      "å¹³éĿĻ": 3279,
      "¬èıľ": 3280,
      "éĽ¾": 3281,
      "ç´§å¼ł": 3282,
      "ä¸ĭéĽ¨": 3283,
      "çĦ¶åĲİå¥¹": 3284,
      "æŁĶè½¯çļĦ": 3285,
      "åıĳåĩºäºĨ": 3286,
      "çľ¨": 3287,
      "èµ°è¿ĽäºĨ": 3288,
      "çĤ¹çĤ¹å¤´": 3289,
      "å®ĮæĪĲåĲİ": 3290,
      "ä¸¹": 3291,
      "èľ¡ç¬Ķ": 3292,
      "éĤ£ä¸Ģå¤©": 3293,
      "èİ·": 3294,
      "æĪĳçŁ¥éģĵ": 3295,
      "æľĢæ£ĴçļĦ": 3296,
      "ĥèŁ¹": 3297,
      "çĶµå½±": 3298,
      "çīµ": 3299,
      "åĢ¾": 3300,
      "è¿ĺæľī": 3301,
      "çĥ¤ç®±": 3302,
      "æĪĳæĺ¯": 3303,
      "æĭľè®¿": 3304,
      "åľ¨èįīåľ°ä¸Ĭ": 3305,
      "æ´»åĬ¨": 3306,
      "å¥¹çļĦçĪ¶æ¯į": 3307,
      "èŃ¦å¯Ł": 3308,
      "è¯į": 3309,
      "å¦¹å¦¹": 3310,
      "å«": 3311,
      "æĪĳå¾Īé«ĺåħ´": 3312,
      "å¤§åĪ©": 3313,
      "ä¸įå¥½": 3314,
      "èĢ³": 3315,
      "ç»ĻæĪĳ": 3316,
      "é²ģ": 3317,
      "çİĭåŃĲ": 3318,
      "ä»£": 3319,
      "å¯¹ä»ĸ": 3320,
      "æ¬¢ç¬ĳ": 3321,
      "æĺİå¤©": 3322,
      "è¢ĭåŃĲ": 3323,
      "æĦıå¤§åĪ©": 3324,
      "åį§": 3325,
      "çļĦèĵĿ": 3326,
      "åĩ¶": 3327,
      "éĹŃä¸Ĭ": 3328,
      "åľ°éĩĮ": 3329,
      "åįİ": 3330,
      "æ½": 3331,
      "åĲ¬èµ·æĿ¥": 3332,
      "åĽŀåºĶ": 3333,
      "éĤ£åıªçĮ«": 3334,
      "çļĦèĭ": 3335,
      "æĪĲäºĨå¥½æľĭåıĭ": 3336,
      "å¯Įæľī": 3337,
      "ty": 3338,
      "æµĨæŀľ": 3339,
      "åħ½": 3340,
      "è¿·è·¯": 3341,
      "åıĺå¾ĹæĽ´åĬł": 3342,
      "åħŃ": 3343,
      "ä¿®å¥½äºĨ": 3344,
      "äºĨå¾Īå¤ļ": 3345,
      "æĥ³æ³ķ": 3346,
      "éĹ¹": 3347,
      "æį¡èµ·æĿ¥": 3348,
      "æĪĳä»¬çļĦ": 3349,
      "´å°": 3350,
      "å°´å°": 3351,
      "å¥ĩæĢªçļĦ": 3352,
      "å°´å°¬": 3353,
      "æĽ¼è¿ª": 3354,
      "åĪº": 3355,
      "ä½ıåľ¨ä¸Ģä¸ª": 3356,
      "çĹħ": 3357,
      "éĢı": 3358,
      "æĬ±æŃī": 3359,
      "èĩªçĶ±": 3360,
      "ç¬¼": 3361,
      "æī¾åĪ°ä¸Ģä¸ª": 3362,
      "åĩłä¹İ": 3363,
      "æĥ³äºĨä¸Ģä¼ļåĦ¿": 3364,
      "åıĺæĪĲ": 3365,
      "è¿Ļä¸ªä¸ĸçķĮ": 3366,
      "æĮīéĴ®": 3367,
      "ä¸¤åıª": 3368,
      "åįĹçĵľ": 3369,
      "å¥¹ä»¬ä¸Ģèµ·": 3370,
      "å¾Īéķ¿": 3371,
      "æĦıå¤§åĪ©éĿ¢": 3372,
      "åĢ¼": 3373,
      "æ³¥åľŁ": 3374,
      "æĭĽåĳ¼": 3375,
      "åĲ¬è¯Ŀ": 3376,
      "æĤ¨": 3377,
      "çĿģ": 3378,
      "ä¸ĭæ¬¡": 3379,
      "åĽŀåĪ°å®¶æĹ¶": 3380,
      "åıį": 3381,
      "äºĨä¸ª": 3382,
      "å¹¸ç¦ıçļĦ": 3383,
      "ä¸Ģé¢Ĺ": 3384,
      "åĴĮä½ł": 3385,
      "å¸®ä»ĸ": 3386,
      "éĹŃä¸Ĭçľ¼çĿĽ": 3387,
      "èµ¶ç´§": 3388,
      "é³Ħé±¼": 3389,
      "åĭºåŃĲ": 3390,
      "ä¸ĭéĿ¢": 3391,
      "åĴĮå®ĥ": 3392,
      "åľ°æ¯¯": 3393,
      "å·§åħĭ": 3394,
      "åı¤èĢģ": 3395,
      "åģľä¸ĭ": 3396,
      "çļĦèĿ": 3397,
      "æĦıè¯ĨåĪ°èĩªå·±": 3398,
      "æ´ŀéĩĮ": 3399,
      "ä¼¸æīĭ": 3400,
      "çļĦçĪ¸çĪ¸": 3401,
      "ä¸ĭå±±": 3402,
      "çī¹æ®ĬçļĦ": 3403,
      "å·§åħĭåĬĽ": 3404,
      "çļĦèĿ´èĿ¶": 3405,
      "åı¯éĿł": 3406,
      "åŃ¦åĪ°äºĨä¸Ģä¸ª": 3407,
      "è·ĳæŃ¥": 3408,
      "å¿«äºĨ": 3409,
      "è¿ĻåıªçĮ«": 3410,
      "åĹ¡": 3411,
      "éľĩ": 3412,
      "æĦŁåĪ°éĿŀå¸¸æĥĬè®¶": 3413,
      "ä»ĸçŁ¥éģĵèĩªå·±": 3414,
      "åģļäºĨä¸Ģä¸ª": 3415,
      "æĻļé¥Ń": 3416,
      "åį§å®¤": 3417,
      "èĥİ": 3418,
      "ç±³èİī": 3419,
      "çīĽå¥¶": 3420,
      "ä¸įåĬ¨": 3421,
      "åĮ¹": 3422,
      "ä¹Ķä¼Ĭ": 3423,
      "éº¦åħĭæĸ¯": 3424,
      "èī³": 3425,
      "ç¤¼è²Į": 3426,
      "ĮçĶŁ": 3427,
      "åĪ°å¤Ħå¯»æī¾": 3428,
      "èĸĦ": 3429,
      "èĤī": 3430,
      "èº«ä½ĵ": 3431,
      "æ¯Ľæ¯ĽèĻ«": 3432,
      "èİīæĭī": 3433,
      "çĭĤ": 3434,
      "é½¿": 3435,
      "ä»ĸæ³¨æĦıåĪ°": 3436,
      "æĸĹ": 3437,
      "æºª": 3438,
      "èħ°": 3439,
      "æĸĳçĤ¹": 3440,
      "èł": 3441,
      "æ·±åĲ¸": 3442,
      "éĻĮçĶŁ": 3443,
      "å¯¹çļĦ": 3444,
      "åĩłä¸ªå°ıæĹ¶": 3445,
      "æĦ¿æľĽ": 3446,
      "å¼¯": 3447,
      "å®ŀçİ°": 3448,
      "åĲĵåĿıäºĨ": 3449,
      "éĴ»": 3450,
      "åľ¨å¥¹çļĦ": 3451,
      "ä»ĸä»¬ä¿©": 3452,
      "èĭıè¥¿": 3453,
      "æ¥ļ": 3454,
      "æľ¬ä¹¦": 3455,
      "å¿ĺäºĨ": 3456,
      "å¥¹åıªæľīä¸īå²ģ": 3457,
      "éĿŀå¸¸çĶŁæ°Ķ": 3458,
      "å¥¹æľīä¸Ģä¸ª": 3459,
      "çĲ´": 3460,
      "åĽ¾çīĩ": 3461,
      "æ²Ļåıĳ": 3462,
      "æ´Ĺæ¾¡": 3463,
      "åľ¨åħ¬åĽŃéĩĮçİ©èĢį": 3464,
      "ä½łå¿ħé¡»": 3465,
      "ï¼ŁâĢĿâĢľ": 3466,
      "é»Ħèī²çļĦ": 3467,
      "åıĳçĶŁäºĨä»Ģä¹Īäºĭ": 3468,
      "è¿Ļçīĩ": 3469,
      "ç¬¨": 3470,
      "åĮ»éĻ¢": 3471,
      "å¤§çĭĹ": 3472,
      "èµ°è¿ĩæĿ¥": 3473,
      "æľīè¶£çļĦä¸ľè¥¿": 3474,
      "è¿Ļæĺ¯ä¸ª": 3475,
      "åįĸ": 3476,
      "åįļ": 3477,
      "æĿ¾äºĨä¸Ģåı£æ°Ķ": 3478,
      "åĩłåĪĨéĴŁ": 3479,
      "ä½ľä¸º": 3480,
      "ä¸¥": 3481,
      "çªĹå¤ĸ": 3482,
      "åıĭå¥½çļĦ": 3483,
      "äºĨä¸Ģåľº": 3484,
      "é¸½åŃĲ": 3485,
      "ä¸ĢäºĽçī¹åĪ«çļĦä¸ľè¥¿": 3486,
      "ç»¿èī²çļĦ": 3487,
      "å±±é¡¶": 3488,
      "å§ĳ": 3489,
      "åĨ³å®ļåİ»": 3490,
      "å¯¼": 3491,
      "ä»ĸä»¬çİ©": 3492,
      "é£İåĲ¹": 3493,
      "å®ģ": 3494,
      "åħ¹": 3495,
      "éĢĢ": 3496,
      "ä¸¢äºĨ": 3497,
      "¤åŃĲ": 3498,
      "ĿçĽĸ": 3499,
      "åĪĿ": 3500,
      "è¯¾": 3501,
      "å°ıéķĩ": 3502,
      "ä¸Ģä¸ªçī¹åĪ«çļĦ": 3503,
      "è¿Ļä¸Ģå¤©": 3504,
      "éĿŀå¸¸æĦŁæ¿Ģ": 3505,
      "è¿Ļç§į": 3506,
      "æĦŁåĪ°æĥĬè®¶": 3507,
      "åħį": 3508,
      "åŃ¤çĭ¬": 3509,
      "æĬĺ": 3510,
      "æĥ³çŁ¥éģĵ": 3511,
      "èİīèİīè¯´éģĵ": 3512,
      "èĻİ": 3513,
      "å¥¹ä¸īå²ģäºĨ": 3514,
      "çĦ¶èĢĮ": 3515,
      "çĶľç¾İ": 3516,
      "éĿŀå¸¸æľī": 3517,
      "åĽ´çĿĢ": 3518,
      "åĽŀåĪ°äºĨå®¶": 3519,
      "åĭĩæķ¢çļĦ": 3520,
      "ä¸ŃçļĦ": 3521,
      "ä¸¤ä¸ªæľĭåıĭ": 3522,
      "å¥¹å¾®ç¬ĳçĿĢ": 3523,
      "å°ıé±¼": 3524,
      "æ²ĻåŃĲ": 3525,
      "å¸®åĬ©åĪ«äºº": 3526,
      "æ¡ĮåŃĲä¸Ĭ": 3527,
      "æª": 3528,
      "çľŁæŃ£": 3529,
      "çľŁçļĦå¾Ī": 3530,
      "èĭ±": 3531,
      "åĸľæ¬¢åľ¨å¤ĸéĿ¢": 3532,
      "ä½łéľĢè¦ģ": 3533,
      "æĳĩæĻĥ": 3534,
      "ä¸ĵ": 3535,
      "æĽ´å¥½": 3536,
      "å¯Ĵ": 3537,
      "åĬĽéĩı": 3538,
      "è®¨": 3539,
      "è¾Ľ": 3540,
      "ç¨į": 3541,
      "æ±¤å§Ĩè¯´": 3542,
      "åĳĢ": 3543,
      "æŁłæª": 3544,
      "æŁłæª¬": 3545,
      "æ¬¢ä¹Ĳ": 3546,
      "æ¸ħæ¥ļ": 3547,
      "çļ®çī¹": 3548,
      "è¡¡": 3549,
      "æµĭéĩı": 3550,
      "åĽŀå®¶çļĦæĹ¶åĢĻ": 3551,
      "äºĶå½©": 3552,
      "éĽĦ": 3553,
      "çĲĨè§£": 3554,
      "çŃĳ": 3555,
      "å¿įä¸įä½ı": 3556,
      "ä¸įåºĶè¯¥": 3557,
      "åºĦ": 3558,
      "æł·åŃĲ": 3559,
      "å·«": 3560,
      "æĿİ": 3561,
      "æīĢä»¥ä»ĸ": 3562,
      "æ¢¦æĥ³": 3563,
      "çļĦæķħäºĭ": 3564,
      "æłı": 3565,
      "å¥¹æ³¨æĦıåĪ°": 3566,
      "å²©": 3567,
      "èĦ¸ä¸Ĭå¸¦çĿĢ": 3568,
      "äºĨä¸ĢæĿ¡": 3569,
      "èĮ¶": 3570,
      "ç´«èī²": 3571,
      "æ¨¡": 3572,
      "å°ıåŃ©": 3573,
      "æĪĳä»¬éľĢè¦ģ": 3574,
      "ç©ºæ°Ķ": 3575,
      "å¼Ģå§ĭåĵŃæ³£": 3576,
      "çĮ©": 3577,
      "çĮĽ": 3578,
      "èİ±": 3579,
      "èŀĥèŁ¹": 3580,
      "æŃĮåĶ±": 3581,
      "åľ¨ä»ĸ": 3582,
      "éĺ´": 3583,
      "ä¸Ģå¤©ç»ĵæĿŁæĹ¶": 3584,
      "æĬĬçĲĥ": 3585,
      "çļĦèĽ": 3586,
      "è¿Ļæĺ¯ä»Ģä¹Ī": 3587,
      "ä»ĺ": 3588,
      "åģļçļĦ": 3589,
      "å¥¹æŃ£åľ¨": 3590,
      "å¥¹éĹ®éģĵ": 3591,
      "åĭĩæ°Ķ": 3592,
      "çŃĴ": 3593,
      "ä¸įèĪĴæľį": 3594,
      "åĨ»": 3595,
      "äºĨä¸Ģéĺµ": 3596,
      "åĬ¨çī©åĽŃ": 3597,
      "çİ©åģ¶": 3598,
      "æ¡¥": 3599,
      "ä¸ĢåıªåĲįåı«": 3600,
      "æĪ´ä¸Ĭ": 3601,
      "æīĵæī«": 3602,
      "æĭ¼åĽ¾": 3603,
      "å¥¹æľīä¸Ģ": 3604,
      "åĿļæŀľ": 3605,
      "æ¯ĽèĮ¸èĮ¸çļĦ": 3606,
      "äºĨè§£": 3607,
      "æ£Ģ": 3608,
      "èĪĶ": 3609,
      "ç¾İåĳ³çļĦé£Łçī©": 3610,
      "æīĭå¥Ĺ": 3611,
      "ç«Ł": 3612,
      "éĨĴæĿ¥æĹ¶": 3613,
      "åıĺå¾Ĺè¶ĬæĿ¥è¶Ĭ": 3614,
      "æľīè¶£çļĦäºĭæĥħ": 3615,
      "æłĳæŀĿä¸Ĭ": 3616,
      "åĴĮæľĭåıĭä»¬ä¸Ģèµ·": 3617,
      "éª¨å¤´": 3618,
      "çĶ¨åĬĽ": 3619,
      "çľĭèµ·æĿ¥åĥı": 3620,
      "ä»¤äººåħ´å¥ĭ": 3621,
      "å®¢åİħ": 3622,
      "è·³äºĨèµ·æĿ¥": 3623,
      "è§¦æĳ¸": 3624,
      "éĤ£æ£µæłĳ": 3625,
      "çĪ½": 3626,
      "åĨįæĿ¥": 3627,
      "æ¹ĸè¾¹": 3628,
      "åı¦ä¸Ģè¾¹": 3629,
      "æłĳæŀĹéĩĮ": 3630,
      "æ°¸è¿ľä¸įä¼ļå¿ĺè®°": 3631,
      "æĪĳè¦ģ": 3632,
      "éģĩåĪ°": 3633,
      "åıĪå¼Ģå¿ĥ": 3634,
      "ç»ĵæĿŁåĲİ": 3635,
      "å®īæħ°": 3636,
      "æī¾åĪ°äºĨä¸Ģä¸ª": 3637,
      "è¿ľç¦»": 3638,
      "æłĳä¸ĭ": 3639,
      "æĭĴç»ĿäºĨ": 3640,
      "ä»ĸä»¬çİ©å¾Ĺå¾Īå¼Ģå¿ĥ": 3641,
      "æ£ĢæŁ¥": 3642,
      "ä½©": 3643,
      "å¥¶çīĽ": 3644,
      "åĴĮèİīèİī": 3645,
      "åĪ°è¾¾äºĨ": 3646,
      "åĵŃæ³£": 3647,
      "çİ©å¾Ĺå¼Ģå¿ĥ": 3648,
      "èł¢": 3649,
      "å½ķ": 3650,
      "çº·": 3651,
      "çıŃå°¼": 3652,
      "å²©çŁ³": 3653,
      "åĴĮä¸Ģä¸ª": 3654,
      "ä¼¸åĩº": 3655,
      "ä½łä¼ļ": 3656,
      "éĢĤåĲĪ": 3657,
      "ä¸ĢçĽ´åľ¨": 3658,
      "çļĦé¸Ł": 3659,
      "å±Ģ": 3660,
      "æĪĳå¾Ī": 3661,
      "åºĬçĿ¡è§ī": 3662,
      "æĩĴ": 3663,
      "åĩºåİ»çİ©": 3664,
      "åĽ¾æ¡Ī": 3665,
      "å¢Ļä¸Ĭ": 3666,
      "è¿Ļå°±æĺ¯": 3667,
      "å¹³è¡¡": 3668,
      "å¾Ĺå¥½": 3669,
      "åħ¨åĬĽ": 3670,
      "éĢĥè·ĳ": 3671,
      "å¯¹èĩªå·±": 3672,
      "åħ°": 3673,
      "åĽłæŃ¤": 3674,
      "ä»ĸæŃ£åľ¨": 3675,
      "æĬ«": 3676,
      "èİīèİīéĿŀå¸¸å¼Ģå¿ĥ": 3677,
      "éģĵæŃī": 3678,
      "é¾Ł": 3679,
      "æĦŁåĪ°é«ĺåħ´": 3680,
      "æĿĳåºĦ": 3681,
      "ĥåľ": 3682,
      "äºĨå®ĥ": 3683,
      "åĨµ": 3684,
      "åŀĥåľ": 3685,
      "åŀĥåľ¾": 3686,
      "æ£µå¤§æłĳ": 3687,
      "çİ©æįīè¿·èĹı": 3688,
      "èĥľ": 3689,
      "ç¾İå¦ĻçļĦ": 3690,
      "æĬĵä½ıå®ĥ": 3691,
      "å°ıèĪ¹": 3692,
      "ç¡®å®ŀ": 3693,
      "åľ°çľĭçĿĢ": 3694,
      "æ¡ĮåŃĲ": 3695,
      "èĩªå·±çļĦçİ©åħ·": 3696,
      "é£ŀåĪ°": 3697,
      "ä½Ĩåį´": 3698,
      "çĿĢæīĭ": 3699,
      "è·³åĪ°": 3700,
      "å´": 3701,
      "åĸĤ": 3702,
      "åİ»åķĨåºĹ": 3703,
      "è§¦ç¢°": 3704,
      "åŀ«": 3705,
      "çļĦé£Łçī©": 3706,
      "å¹¶æĬĬ": 3707,
      "èĽĩ": 3708,
      "äºĨåıĪ": 3709,
      "è´Ŀå£³": 3710,
      "åī§": 3711,
      "ä½Ĩèİīèİī": 3712,
      "åŁº": 3713,
      "äºĨä¸Ģä¸ªå¤§": 3714,
      "åİ»çİ©": 3715,
      "ee": 3716,
      "çĽĽ": 3717,
      "éĿŀå¸¸æ¿ĢåĬ¨": 3718,
      "æĦļ": 3719,
      "è°ħ": 3720,
      "é¢ľåħŃ": 3721,
      "äºĶé¢ľåħŃ": 3722,
      "éħį": 3723,
      "è¿ĻåıªçĭĹ": 3724,
      "ļåŃĲ": 3725,
      "é¡¹éĵ¾": 3726,
      "è§īå¾Ĺèĩªå·±": 3727,
      "å¥¹åĳĬè¯ī": 3728,
      "å¹¶æī¿è¯º": 3729,
      "æĦ§": 3730,
      "èīĺèĪ¹": 3731,
      "åĩłå¤©": 3732,
      "åĤ»": 3733,
      "å¿Ĩ": 3734,
      "è¿ĻæĬĬ": 3735,
      "äºĨä¸ĢåĿĹ": 3736,
      "ä»¥åīįä»İæľªè§ģè¿ĩ": 3737,
      "è¯ļå®ŀ": 3738,
      "æıĲä¾Ľ": 3739,
      "åıĪä¸Ģæ¬¡": 3740,
      "æµ·æ´ĭ": 3741,
      "æīĭæĮĩ": 3742,
      "åįĪé¤Ĳ": 3743,
      "è£Ĥ": 3744,
      "é½Ĳ": 3745,
      "ä¸įæĺİçĻ½": 3746,
      "ç¼©": 3747,
      "æİ¥åıĹ": 3748,
      "æ²Ļæ»©": 3749,
      "çļĦåĨĴéĻ©": 3750,
      "éĿŀå¸¸çī¹åĪ«çļĦ": 3751,
      "è´§": 3752,
      "ç¥¨": 3753,
      "æī§": 3754,
      "å®ĥæĥ³": 3755,
      "éĢģç»Ļ": 3756,
      "å¥¹åĴĮ": 3757,
      "ä»İåīįæľīä¸Ģ": 3758,
      "æĶ¾æĿ¾": 3759,
      "æĪĳæĿ¥": 3760,
      "æ¼«": 3761,
      "åİ»å¯»æī¾": 3762,
      "åĻª": 3763,
      "è¯¯": 3764,
      "å¿§": 3765,
      "è®©ä»ĸä»¬": 3766,
      "é£İæļ´": 3767,
      "å®īåħ¨åľ°": 3768,
      "åĽĽå¤Ħå¯»æī¾": 3769,
      "çĽĺåŃĲ": 3770,
      "åĨĻçĿĢ": 3771,
      "é²ľèī³": 3772,
      "éº»çĥ¦": 3773,
      "éĿŀå¸¸å¥½å¥ĩ": 3774,
      "çŁ¥è¯Ĩ": 3775,
      "è½®æµģ": 3776,
      "çĥĪ": 3777,
      "éĺĶ": 3778,
      "æĹ¶åĪ»": 3779,
      "é©¾": 3780,
      "èĢģèĻİ": 3781,
      "äºĨä¸Ģåº§": 3782,
      "æ¯ıå¤©æĹ©æĻ¨": 3783,
      "åİŁè°ħ": 3784,
      "æŀķ": 3785,
      "å¾Īå¤§": 3786,
      "èĦĨ": 3787,
      "éĤ£å¤©æĻļä¸Ĭ": 3788,
      "å·²ç»ıå¤ª": 3789,
      "åĳ¨åĽ´çļĦä¸ĸçķĮ": 3790,
      "è®°æľ¬": 3791,
      "è¢«åĽ°": 3792,
      "äºĨæĥ³": 3793,
      "å°ıè·¯": 3794,
      "å¾Ĺè¶ĬæĿ¥è¶Ĭ": 3795,
      "æ¢³": 3796,
      "å¾ĹåĪ°äºĨ": 3797,
      "åĹ¨": 3798,
      "ä»ĸè¯ķåĽ¾": 3799,
      "æ¼Ķå¥ı": 3800,
      "å¿Ĺ": 3801,
      "ä»ĸéĹ®å¦Īå¦Ī": 3802,
      "äºĨä¸Ģå¤§": 3803,
      "èĬ±çĵ¶": 3804,
      "æ¶Īéĺ²": 3805,
      "å¿ł": 3806,
      "ç»Ļå®ĥ": 3807,
      "èī¾æĭī": 3808,
      "çļĦä¸»äºº": 3809,
      "éĥ¨åĪĨ": 3810,
      "ä¹Łèĥ½": 3811,
      "å·¨å¤§": 3812,
      "å°½åĬĽ": 3813,
      "çļĦèĦ¸": 3814,
      "ä¸Ģå¤§": 3815,
      "å¤©é¹ħ": 3816,
      "åº¦è¿ĩäºĨæĦīå¿«": 3817,
      "ç§įåŃĲ": 3818,
      "å®ĮåĲİ": 3819,
      "å¾Īé«ĺåħ´èĥ½": 3820,
      "èİīèİīéĿŀå¸¸é«ĺåħ´": 3821,
      "æ°ĳ": 3822,
      "å®Įç¾İçļĦ": 3823,
      "ä¼Ļ": 3824,
      "å¥¹çļĦæĸ°": 3825,
      "è·ĳåĽŀå®¶": 3826,
      "èĶ¬èıľ": 3827,
      "ä»ĸä»İ": 3828,
      "çķĻä¸ĭ": 3829,
      "æĦļèł¢": 3830,
      "å°±ä¸įä¼ļ": 3831,
      "æģ©": 3832,
      "è§Ĥçľĭ": 3833,
      "åı«çĿĢ": 3834,
      "é¢Ĩ": 3835,
      "æīĢä»¥å¥¹": 3836,
      "å®ģéĿĻ": 3837,
      "åĴĮæľĭåıĭ": 3838,
      "ç±»": 3839,
      "æ²¡èĥ½": 3840,
      "çļĦå¦Īå¦Īè¯´": 3841,
      "åºĹä¸»": 3842,
      "åĪ·": 3843,
      "ä¿Ŀè¯ģ": 3844,
      "æĪ´å¤«": 3845,
      "çĭ¬çī¹": 3846,
      "çİ©èĢįåĴĮ": 3847,
      "è¿Īåħĭ": 3848,
      "å°Ħ": 3849,
      "æħ¨": 3850,
      "å¼ĹéĽ·å¾·": 3851,
      "éľ²è¥¿çļĦå°ıå¥³åŃ©": 3852,
      "æĬ¬èµ·": 3853,
      "im": 3854,
      "æĿĸ": 3855,
      "æĺ¯æľĭåıĭ": 3856,
      "åĸľæ¬¢æİ¢ç´¢": 3857,
      "åĲĳå¥¹": 3858,
      "è¿½éĢĲ": 3859,
      "æĦŁåıĹåĪ°": 3860,
      "ä¸½èİİ": 3861,
      "ç«ł": 3862,
      "ä¹Ķæ²»": 3863,
      "·æħ¨": 3864,
      "èµ°è¿ĩåİ»": 3865,
      "æħ·æħ¨": 3866,
      "çľĭåĪ°äºĨè®¸å¤ļ": 3867,
      "è¿Ľå±ĭ": 3868,
      "ä¹¦æŀ¶": 3869,
      "æ©±": 3870,
      "çĦ¶åĲİå¼Ģå§ĭ": 3871,
      "å±±åĿ¡": 3872,
      "æŀķå¤´": 3873,
      "å¥ĸåĬ±": 3874,
      "éģĩåĪ°äºĨä¸Ģåıª": 3875,
      "åĮħè£¹": 3876,
      "¬ī": 3877,
      "å¬ī": 3878,
      "å®īå¦®": 3879,
      "å©ļ": 3880,
      "ä¸ĬåºĬçĿ¡è§ī": 3881,
      "æĶ¾åĽŀ": 3882,
      "å¯ĴåĨ·": 3883,
      "æĥħåĨµ": 3884,
      "ä»İåīįæľīä¸Ģä¸ªå°ıçĶ·åŃ©": 3885,
      "ä¸Ģç¬ĳ": 3886,
      "æĤĦ": 3887,
      "åģĩè£ħèĩªå·±": 3888,
      "ç¾İå¥½çļĦæĹ¶åħī": 3889,
      "åħĦ": 3890,
      "ç®±åŃĲéĩĮ": 3891,
      "èĬ¬": 3892,
      "çĪ¬ä¸ĬäºĨ": 3893,
      "ä»ĸä»¬åı¯ä»¥": 3894,
      "æĪĳåıªæĺ¯": 3895,
      "ç»Ĵ": 3896,
      "é¢ľæĸĻ": 3897,
      "æĥ³çİ©": 3898,
      "æľīè¶£äºĨ": 3899,
      "éķ¿æ¤ħ": 3900,
      "è´Ŀæĭī": 3901,
      "éĴ±åĮħ": 3902,
      "ï¼ģ\"": 3903,
      "é«ĺäºĨ": 3904,
      "çĪ¬åĪ°": 3905,
      "ä»ĸéĿŀå¸¸å¼Ģå¿ĥ": 3906,
      "åİ»åħ¬åĽŃçİ©": 3907,
      "ä½łçľŁ": 3908,
      "çļĦè´": 3909,
      "åĪ°è¾¾æĹ¶": 3910,
      "ä»ĸä»¬çĶ¨": 3911,
      "åı£åĵ¨": 3912,
      "èº«ä¸Ĭ": 3913,
      "æŁ¥çľĭ": 3914,
      "å®Ŀè´Ŀ": 3915,
      "éĽªäºº": 3916,
      "åĪĨäº«äºĨ": 3917,
      "æľºåĻ¨äºº": 3918,
      "ä»ĸå¿ħé¡»": 3919,
      "èīĩ": 3920,
      "æīĢæľīçļĦæľĭåıĭ": 3921,
      "å¤§æµ·": 3922,
      "å¥¹çļĦå°ı": 3923,
      "åį·": 3924,
      "æĭ¿èµ°": 3925,
      "èºģ": 3926,
      "çİ©æ¸¸æĪı": 3927,
      "å®īåħ¨çļĦ": 3928,
      "äºĨåı£æ°Ķ": 3929,
      "å¾Īéļ¾": 3930,
      "åĲĥæİī": 3931,
      "èĹıåľ¨": 3932,
      "æĪĲäºĨæľĭåıĭ": 3933,
      "æ²³è¾¹": 3934,
      "å°½åı¯èĥ½": 3935,
      "æĦŁåĪ°æĹłæ¯Ķ": 3936,
      "çŃīçĿĢ": 3937,
      "çļĦæľĭåıĭä»¬": 3938,
      "èİīèİīçľĭåĪ°": 3939,
      "é£ŀæĿ¥": 3940,
      "çļ±": 3941,
      "é«ĺå¤§çļĦ": 3942,
      "æĦŁåĪ°å¾ĪæĥĬè®¶": 3943,
      "éĵħ": 3944,
      "åıĳçİ°äºĨä¸Ģåıª": 3945,
      "æĬĢ": 3946,
      "çī¹åĪ«çļĦäºĭæĥħ": 3947,
      "ä»ĸæľĢåĸľæ¬¢çļĦ": 3948,
      "éĵħç¬Ķ": 3949,
      "èĻĳ": 3950,
      "è¡Ĺéģĵ": 3951,
      "çļĦæŃĮ": 3952,
      "å®ĥå¤ª": 3953,
      "åľ°çĶŁæ´»": 3954,
      "âĢĿãĢĤ": 3955,
      "æĥ³çľĭçľĭ": 3956,
      "å°ıé¸ŃåŃĲ": 3957,
      "ä¸Ģèµ·åľ¨": 3958,
      "çļĦèĤ": 3959,
      "æĻ¯è±¡": 3960,
      "çļĦèĽĭ": 3961,
      "åİ»åĨĴéĻ©": 3962,
      "éªĮ": 3963,
      "ä½ıåľ¨ä¸Ģåº§": 3964,
      "å¹¶åĨ³å®ļ": 3965,
      "æĳĩäºĨæĳĩå¤´": 3966,
      "æĹ¶èµ·": 3967,
      "å°¼èİ«": 3968,
      "æµ·è±ļ": 3969,
      "å§Ĳå§Ĳ": 3970,
      "å°ıçĿ¡": 3971,
      "è¿ĻåıªçĨĬ": 3972,
      "å²Ľ": 3973,
      "å°ĳ": 3974,
      "è®¤çľŁ": 3975,
      "ä¸Ģæ£µå¤§æłĳ": 3976,
      "çĲĨåıĳ": 3977,
      "ä¸ĺ": 3978,
      "åĲ¬äºĨ": 3979,
      "åĲĳä»ĸ": 3980,
      "æĸ°ä¸ľè¥¿": 3981,
      "åħ¶ä»ĸçļĦ": 3982,
      "Fl": 3983,
      "å»ºçŃĳ": 3984,
      "æķ°åŃĹ": 3985,
      "çĦ¶åĲİè¯´": 3986,
      "æ²¡æľīåĲ¬": 3987,
      "ä»İéĤ£æĹ¶èµ·": 3988,
      "ç¥·": 3989,
      "éĶĻè¯¯": 3990,
      "it": 3991,
      "¡èĲ": 3992,
      "æ¢¯åŃĲ": 3993,
      "¡èĲĦ": 3994,
      "è¦ģæ±Ĥ": 3995,
      "åĩ¯èĴĤ": 3996,
      "è®¾è®¡": 3997,
      "Tw": 3998,
      "æĪĳä¸įçŁ¥éģĵ": 3999,
      "è®©èĩªå·±": 4000,
      "ĺæ°Ķ": 4001,
      "çĽ¯": 4002,
      "å°ıäºĨ": 4003,
      "é¡º": 4004,
      "ç´¢èı²": 4005,
      "éĤ£éĩĮæĹ¶": 4006,
      "åĲ¼": 4007,
      "ä¹ĺ": 4008,
      "èµ°åĬ¨": 4009,
      "å®«": 4010,
      "æĺ¯ä¸į": 4011,
      "æĿ¥çļĦ": 4012,
      "æĽ´åĬłå°ıå¿ĥ": 4013,
      "çķĻåľ¨": 4014,
      "ä¸Ģä»½": 4015,
      "ä»ĸæĦŁåĪ°éĿŀå¸¸": 4016,
      "åĴĮåħ¶ä»ĸ": 4017,
      "å¹¶æĦŁè°¢äºĨ": 4018,
      "åį«": 4019,
      "éĢĶ": 4020,
      "è¿ĩä¸ĬäºĨ": 4021,
      "æīĵåį°": 4022,
      "æ¸¸è¡Į": 4023,
      "çļĦæłĳ": 4024,
      "çļĦæ°´": 4025,
      "æĻļäºĨ": 4026,
      "ä½łåľ¨åģļä»Ģä¹Ī": 4027,
      "å¿ĥæĥħ": 4028,
      "åĽŀåĪ°å®¶åĲİ": 4029,
      "çĩĥ": 4030,
      "çļĦäººä»¬": 4031,
      "å½ĵå®ĥ": 4032,
      "åħ»": 4033,
      "æĪĳåı¯ä»¥å¸®ä½ł": 4034,
      "ä»ĸä¹Ł": 4035,
      "éĻį": 4036,
      "åĴ¬äºĨä¸Ģåı£": 4037,
      "çļĦæĹ¶éĹ´": 4038,
      "ä»ĸçļĦçĪ¶æ¯į": 4039,
      "éĴ¢": 4040,
      "å¥¹ä¹Ł": 4041,
      "æį¡èµ·äºĨ": 4042,
      "éĤ£å¤©æĻļäºĽæĹ¶åĢĻ": 4043,
      "åĬªåĬĽå·¥ä½ľ": 4044,
      "ä¸Ģä¸ªå°ıçĶ·åŃ©": 4045,
      "æķ´å¤©éĥ½åľ¨": 4046,
      "æĹĹ": 4047,
      "æ·ĺæ°Ķ": 4048,
      "å°Ĩå®ĥ": 4049,
      "éģ¿": 4050,
      "å¯Ħ": 4051,
      "éªĳå£«": 4052,
      "çļĦçĨĬ": 4053,
      "æħ¢è·ĳ": 4054,
      "æĿ¥è¯´å¤ª": 4055,
      "èĩŃ": 4056,
      "ä¸¤ä½į": 4057,
      "ä¸įå·²": 4058,
      "éĺħ": 4059,
      "æł·çļĦ": 4060,
      "åº¦è¿ĩäºĨä¸Ģæ®µ": 4061,
      "è¡Ĺä¸Ĭ": 4062,
      "æĶ¹åıĺ": 4063,
      "çľĭçĿĢå®ĥ": 4064,
      "çīĻé½¿": 4065,
      "çİ©ä»ĸçļĦçİ©åħ·": 4066,
      "å°ıå°ıçļĦ": 4067,
      "åĻªéŁ³": 4068,
      "å¹ķ": 4069,
      "æ»¡æĺ¯": 4070,
      "ä½łèĥ½å¸®æĪĳ": 4071,
      "è½¦éĩĮ": 4072,
      "èµ·æĿ¥äºĨ": 4073,
      "çĤī": 4074,
      "æīĺæ¯Ķ": 4075,
      "åı¯æĺ¯": 4076,
      "åĵ®": 4077,
      "å°½åħ¨åĬĽ": 4078,
      "Ĩåĵ®": 4079,
      "åĴĨåĵ®": 4080,
      "æĪĳä»¬åºĶè¯¥": 4081,
      "æĮĳéĢī": 4082,
      "éĽķ": 4083,
      "å¤ªæ£ĴäºĨ": 4084,
      "æīĢæľīäºº": 4085,
      "æĳĶåĢĴäºĨ": 4086,
      "åĵŃäºĨèµ·æĿ¥": 4087,
      "åĽŀå®¶çļĦè·¯": 4088,
      "éĹ»èµ·æĿ¥": 4089,
      "è¹¦è¹¦è·³è·³åľ°": 4090,
      "çĦ°": 4091,
      "å¸®åĬ©äºĨ": 4092,
      "è§īå¾Ĺè¿Ļ": 4093,
      "åĨħçĸļ": 4094,
      "çĦ¶åĲİç»§ç»Ń": 4095,
      "å°ıèĻ«åŃĲ": 4096,
      "æĭīéĵ¾": 4097,
      "åģļä¸Ģä¸ª": 4098,
      "çģ«çĦ°": 4099,
      "è·³ä¸Ĭ": 4100,
      "ä»ĸä»¬äºĴçĽ¸": 4101,
      "å¤ľæĻļ": 4102,
      "å·¨äºº": 4103,
      "èİīèİīæĺİçĻ½äºĨ": 4104,
      "å¥¹çļĦåĲįåŃĹåı«": 4105,
      "å¦Ĵ": 4106,
      "èººåľ¨": 4107,
      "éľ²åĩºäºĨç¬ĳå®¹": 4108,
      "ä¹Įé¾Ł": 4109,
      "é¥±": 4110,
      "ä»İåīįæľīä¸Ģä½į": 4111,
      "īå¦Ĵ": 4112,
      "ä»ĸè¿ħéĢŁ": 4113,
      "åĳĬè¯īäºĨ": 4114,
      "å«īå¦Ĵ": 4115,
      "è®¤è¯Ĩ": 4116,
      "èŀį": 4117,
      "å¾Īæ£ĴçļĦ": 4118,
      "Twee": 4119,
      "åĽŀæĿ¥äºĨ": 4120,
      "çļĦèĵĿèī²": 4121,
      "èµŀ": 4122,
      "æľīæĹ¶": 4123,
      "åıĹä¼¤äºĨ": 4124,
      "èµ·åĪĿ": 4125,
      "èģĬå¤©": 4126,
      "åıĳåħī": 4127,
      "ä»ĸçľĭåĪ°äºĨä¸Ģ": 4128,
      "ä¸Ģè·¯": 4129,
      "æĬĵèµ·": 4130,
      "ä½Ĩè¿Ļ": 4131,
      "æľĪäº®": 4132,
      "åĽłä¸ºä»ĸä»¬": 4133,
      "æľīä¸ª": 4134,
      "ä¼ļåıĳçĶŁ": 4135,
      "èµ°åİ»": 4136,
      "èİīèİīåĴĮæľ¬": 4137,
      "æłª": 4138,
      "èķ¾": 4139,
      "å¾Īåĭĩæķ¢": 4140,
      "è·³çĿĢ": 4141,
      "åĩºåİ»æķ£æŃ¥": 4142,
      "ä»ħ": 4143,
      "æĺ¯æľĢå¥½çļĦæľĭåıĭ": 4144,
      "é£ŀè¿ĩ": 4145,
      "åĩºåıĳäºĨ": 4146,
      "è¿Ļå¼ł": 4147,
      "åİļ": 4148,
      "éĢŁåº¦": 4149,
      "å¿łè¯ļ": 4150,
      "ç»Ĭ": 4151,
      "æĭĸ": 4152,
      "æľīä¸Ģåıªåı«": 4153,
      "çļĦèĭ¹æŀľ": 4154,
      "ç¯®åŃĲ": 4155,
      "è¿·è·¯äºĨ": 4156,
      "è·ĳåĽŀ": 4157,
      "åĢ¾åĲ¬": 4158,
      "å¾Īéķ¿æĹ¶éĹ´": 4159,
      "è½»æĿ¾": 4160,
      "èĻļ": 4161,
      "æľ¯": 4162,
      "æ¯Ķå°Ķ": 4163,
      "åĽŀå®¶çļĦè·¯ä¸Ĭ": 4164,
      "å¾®ç¬ĳçĿĢè¯´éģĵ": 4165,
      "éģ¥": 4166,
      "éĵĽ": 4167,
      "æ©Ļèī²": 4168,
      "éĵĥéĵĽ": 4169,
      "äºĨå¾Īä¹ħ": 4170,
      "åıĮæīĭ": 4171,
      "ä»ĵ": 4172,
      "çĽ´åĪ°å®ĥ": 4173,
      "èĢ¸": 4174,
      "è¡¨æĥħ": 4175,
      "èĩªç§": 4176,
      "å¾Ĺå¾Īé«ĺ": 4177,
      "ä¼ĺéĽħ": 4178,
      "äºĨä¸Ģå¼ł": 4179,
      "æīĭèĩĤ": 4180,
      "çĥ§": 4181,
      "é¡¶ç«¯": 4182,
      "æµ´ç¼¸": 4183,
      "æī¶": 4184,
      "æīĵå¼ĢéĹ¨": 4185,
      "çľĭè§ģäºĨä¸Ģåıª": 4186,
      "å¸ĥæľĹ": 4187,
      "éľ²åĩºäºĨå¾®ç¬ĳ": 4188,
      "åľ¨çİ©": 4189,
      "ä»İåīįæľīä¸Ģä¸ªçĶ·åŃ©": 4190,
      "å¥¹çľĭåĪ°äºĨä¸Ģ": 4191,
      "å®īåħ¨äºĨ": 4192,
      "èº«åĲİ": 4193,
      "å®¹æĺĵ": 4194,
      "çĮľ": 4195,
      "æ¯Ľå·¾": 4196,
      "å¥½åķĬ": 4197,
      "è¡ĮæĿİ": 4198,
      "ç¯·": 4199,
      "å®ĥå¼Ģå§ĭ": 4200,
      "æĪĳä»¬ä¼ļ": 4201,
      "åģľåľ¨": 4202,
      "å±ķç¤ºäºĨ": 4203,
      "¨Ģ": 4204,
      "çĪĨ": 4205,
      "ç¡®å®ļ": 4206,
      "äºĨè¿Ľåİ»": 4207,
      "æĿĨ": 4208,
      "åĩĮ": 4209,
      "ä¸Ģåıªå°ıé¸Ł": 4210,
      "çļĦéĹ¨": 4211,
      "çļĦæ¸¸æĪı": 4212,
      "å¥¹æĭ¿èµ·": 4213,
      "æ³¼": 4214,
      "é£ŀåĲĳ": 4215,
      "æĥ³èµ·": 4216,
      "é£ŀåİ»": 4217,
      "åħ±": 4218,
      "æĬĬçİ©åħ·": 4219,
      "èĨĿçĽĸ": 4220,
      "åĨł": 4221,
      "å¤´ä¸Ĭ": 4222,
      "my": 4223,
      "å¯¹èĩªå·±çļĦ": 4224,
      "æĹ¥åŃĲ": 4225,
      "è¡£æŁľ": 4226,
      "è§ĨçĿĢ": 4227,
      "æ©¡çļ®": 4228,
      "çĶ°éĩİéĩĮ": 4229,
      "æĺŁæľŁ": 4230,
      "åĨįä¹Łä¸įä¼ļ": 4231,
      "åıĳçĶŁäºĨä¸Ģä»¶": 4232,
      "èĭ±éĽĦ": 4233,
      "©¹": 4234,
      "å¥¹çŁ¥éģĵèĩªå·±": 4235,
      "æĬ½": 4236,
      "ç¼Ŀ": 4237,
      "æĪĲåĬŁäºĨ": 4238,
      "ä¼ŀ": 4239,
      "æľīä¸Ģåº§": 4240,
      "åĦ¿åŃĲ": 4241,
      "èİīèİīåĸľæ¬¢": 4242,
      "åĬ¨ä½ľ": 4243,
      "è¶³çĲĥ": 4244,
      "è©¹": 4245,
      "å¼Ħå¾Ĺ": 4246,
      "çĭ¬ç«ĭ": 4247,
      "éĤ£çīĩ": 4248,
      "å®ĥåıĪ": 4249,
      "åĴĮçĪ¸çĪ¸": 4250,
      "åķĨåºĹéĩĮ": 4251,
      "æĻķ": 4252,
      "å¥¹æ¯ıå¤©éĥ½": 4253,
      "çİ©äºĨä¸Ģæķ´å¤©": 4254,
      "çĮİ": 4255,
      "æĬ¬å¤´çľĭçĿĢ": 4256,
      "æľīäºĨ": 4257,
      "èĥ½çľĭåĪ°": 4258,
      "åĽ´å·¾": 4259,
      "å¥¹è¿ĺ": 4260,
      "å°¤": 4261,
      "æĭįäºĨ": 4262,
      "åĬ¨äºĨ": 4263,
      "åı¼": 4264,
      "éĤ£ä½įå¥³å£«": 4265,
      "éĻĮçĶŁäºº": 4266,
      "ff": 4267,
      "«çĳ": 4268,
      "é£ŀèµ°": 4269,
      "åħīæ»ĳ": 4270,
      "çİ«çĳ": 4271,
      "ä»İæĿ¥": 4272,
      "ç¥Ī": 4273,
      "çİ«çĳ°": 4274,
      "éĩįäºĨ": 4275,
      "å±±ä¸ĺ": 4276,
      "è¿Ļä¸ªå°ıå¥³åŃ©": 4277,
      "æĬ«èĲ¨": 4278,
      "éĿŀå¸¸æľīè¶£": 4279,
      "å¸Ĥåľº": 4280,
      "uff": 4281,
      "åİ»æĭ¿": 4282,
      "æ¸¸ä¹Ĳ": 4283,
      "èģļä¼ļ": 4284,
      "è¨Ģ": 4285,
      "åłĤ": 4286,
      "æļ´é£İ": 4287,
      "åħµ": 4288,
      "äº¨": 4289,
      "çķª": 4290,
      "å¥ĩæĢªçļĦäºĭæĥħ": 4291,
      "å¦Īå¦Īè¯´éģĵ": 4292,
      "ä»ĸåıĪ": 4293,
      "æīĳ": 4294,
      "èŀº": 4295,
      "åģļäºĽ": 4296,
      "èľĤèľľ": 4297,
      "å¤§çĨĬ": 4298,
      "æĥ³åĪ°äºĨä¸Ģä¸ª": 4299,
      "æĬĬä»ĸ": 4300,
      "æĢĴ": 4301,
      "åĵįå£°": 4302,
      "è¸©": 4303,
      "ä»ĻåŃĲ": 4304,
      "ä»ĸä»¬ç»§ç»Ń": 4305,
      "å¥¹æĦŁåĪ°éĿŀå¸¸": 4306,
      "åľ¨ä»ĸçļĦ": 4307,
      "å®īè¿ª": 4308,
      "å¥¹æĺİçĻ½äºĨ": 4309,
      "åĴĮæ±¤å§Ĩ": 4310,
      "æµ·éĩĮ": 4311,
      "äºķ": 4312,
      "è¿Ļä¸ªäºº": 4313,
      "äº¤è°Ī": 4314,
      "çĥĺ": 4315,
      "è¡Įä¸º": 4316,
      "ä¹Ĳäºİ": 4317,
      "éħĴ": 4318,
      "åĪ°å¤Ħéĥ½æĺ¯": 4319,
      "æĬļ": 4320,
      "æ²Ļåł¡": 4321,
      "è·ĳçĿĢ": 4322,
      "æķĳäºĨ": 4323,
      "éĺħè¯»": 4324,
      "å¯¹æĸ¹": 4325,
      "åĢ¼å¾Ĺ": 4326,
      "æľīçĿĢ": 4327,
      "é£ĺ": 4328,
      "å¬īæĪı": 4329,
      "è¿Ļæł·åģļ": 4330,
      "åŁĭ": 4331,
      "æİ¨è½¦": 4332,
      "ç¯±": 4333,
      "æĥ³åİ»": 4334,
      "çģ«ç®Ń": 4335,
      "ç¬ĳè¯Ŀ": 4336,
      "æ¢¨": 4337,
      "ä¸Ģä¸ªæľĭåıĭ": 4338,
      "æĭ¿åĪ°": 4339,
      "ç¼ĵ": 4340,
      "æ¸´æľĽ": 4341,
      "åīªåĪĢ": 4342,
      "äºĶé¢ľåħŃèī²çļĦ": 4343,
      "è½¬åľĪ": 4344,
      "å¥ĩæĢªçļĦä¸ľè¥¿": 4345,
      "æĴĴ": 4346,
      "å¹´è½»": 4347,
      "çļĦçĶ»": 4348,
      "åĽ¾ä¹¦": 4349,
      "åĺ¿": 4350,
      "é«ĺé«ĺçļĦ": 4351,
      "è¿Ļè¾Ĩè½¦": 4352,
      "åĲĳå¦Īå¦Ī": 4353,
      "é²¸": 4354,
      "è°·ä»ĵ": 4355,
      "åĲ»": 4356,
      "æī£": 4357,
      "éĤ£å¼ł": 4358,
      "èĤ©": 4359,
      "èİīèİīåĴĮå¥¹çļĦå¦Īå¦Ī": 4360,
      "åľŁè±Ĩ": 4361,
      "å¼Ĺæĭī": 4362,
      "åľ¨å¤ĸéĿ¢çİ©": 4363,
      "å°¤åħ¶": 4364,
      "åŁİå¸Ĥ": 4365,
      "åľ¨ç©ºä¸Ń": 4366,
      "å¤ļæ±ģ": 4367,
      "åİī": 4368,
      "å¸¦åĽŀäºĨå®¶": 4369,
      "æĵħ": 4370,
      "ä»ĸä»¬æĢ»æĺ¯": 4371,
      "ä¹ĭéĹ´": 4372,
      "éĿŀå¸¸åĭĩæķ¢": 4373,
      "ä¸ĢæŃ¥": 4374,
      "ä¸Ģä¸ªæĭ¥æĬ±": 4375,
      "æ±ĤåĬ©": 4376,
      "é©¾é©¶": 4377,
      "ä¹Łåı¯ä»¥": 4378,
      "åīįè¡Į": 4379,
      "æĿ¥çľĭ": 4380,
      "uffy": 4381,
      "å¥½åĩłä¸ªå°ıæĹ¶": 4382,
      "æľīä¸Ģä¸ªåĲįåı«æıĲç±³çļĦå°ıçĶ·åŃ©": 4383,
      "çĻ½èī²": 4384,
      "åħĦå¼Ł": 4385,
      "è½¬è¿ĩ": 4386,
      "å¤§é¸Ł": 4387,
      "æĬĬå¥¹": 4388,
      "å¾Īå¥½å¥ĩ": 4389,
      "å¾ĪçĶŁæ°Ķ": 4390,
      "èİīèİīçļĦæľĭåıĭ": 4391,
      "è½®åŃĲ": 4392,
      "æµ·æ»©ä¸Ĭ": 4393,
      "äºĳæľµ": 4394,
      "çĹĴ": 4395,
      "æĸĵ": 4396,
      "ä½łä¸įèĥ½": 4397,
      "æĸĳæĸĵ": 4398,
      "æĪĳéľĢè¦ģ": 4399,
      "éĺ»": 4400,
      "åģļçļĦäºĭæĥħ": 4401,
      "çľĭåĪ°äºĨä¸ĢäºĽ": 4402,
      "ä»ĸä¸ĢçĽ´": 4403,
      "æĪ·å¤ĸ": 4404,
      "åĲĪéĢĤ": 4405,
      "åį¡çīĩ": 4406,
      "éģ¥è¿ľ": 4407,
      "çļĦåĬ¨çī©": 4408,
      "åĲ¬åĪ°äºĨä¸Ģå£°": 4409,
      "åĩºæĿ¥äºĨ": 4410,
      "å¼Ģå¿ĥäºĨ": 4411,
      "Fluffy": 4412,
      "å¤ı": 4413,
      "é¸¦": 4414,
      "éļıæĹ¶": 4415,
      "å¥ĩæĢªçļĦå£°éŁ³": 4416,
      "æĮĤåľ¨": 4417,
      "è°¦": 4418,
      "åħ¬åĽŃæĹ¶": 4419,
      "ç¢İçīĩ": 4420,
      "å²¸è¾¹": 4421,
      "é¥¿äºĨ": 4422,
      "åŃ¦åĪ°": 4423,
      "æĻ¯èī²": 4424,
      "ä»»ä½ķäºº": 4425,
      "äº¨åĪ©": 4426,
      "ä¹Łä¸į": 4427,
      "æīĭéĩĮæĭ¿çĿĢ": 4428,
      "çŀ": 4429,
      "åĳĬè¯īå¦Īå¦Ī": 4430,
      "åĢ¦": 4431,
      "æļ´é£İéĽ¨": 4432,
      "çļĦæĸ°": 4433,
      "å¦ĩ": 4434,
      "åıĶåıĶ": 4435,
      "çĽ¯çĿĢ": 4436,
      "æĺ¯ä»İ": 4437,
      "çļĦæĦŁè§ī": 4438,
      "éĤ£åº§": 4439,
      "èĩªè±ªåľ°": 4440,
      "åĩĨå¤ĩå¥½äºĨ": 4441,
      "æĵħéķ¿": 4442,
      "å¹¸ç¦ıçļĦçĶŁæ´»": 4443,
      "éĽķåĥı": 4444,
      "æĬ¬èµ·å¤´": 4445,
      "æĺ¯å¤ļä¹Ī": 4446,
      "æĪĳæŃ£åľ¨": 4447,
      "å®īåħ¨çļĦåľ°æĸ¹": 4448,
      "é¦ĸåħĪ": 4449,
      "å¤ªå¤ļ": 4450,
      "åıĳçİ°éĩĮéĿ¢": 4451,
      "éĹªèĢĢ": 4452,
      "çļĦèĽĭç³ķ": 4453,
      "æīŃ": 4454,
      "å¥¹å¾Īåĸľæ¬¢": 4455,
      "æ³¢æ³¢": 4456,
      "çĶ²": 4457,
      "ä»ĸçļĦæĸ°": 4458,
      "æĬ¢": 4459,
      "é²¸é±¼": 4460,
      "çİ©çĿĢ": 4461,
      "åĩºéĹ¨": 4462,
      "æ´Ľæĭī": 4463,
      "åī©": 4464,
      "å¸¦å¥¹": 4465,
      "åĲĥæİīäºĨ": 4466,
      "éĿŀå¸¸æ¼Ĥäº®": 4467,
      "ä¸Ģå£°å·¨åĵį": 4468,
      "ä½Ĩæĺ¯åĲİæĿ¥": 4469,
      "ä¸Ģæ£µæłĳ": 4470,
      "æĥ³äºĨæĥ³": 4471,
      "åĮĨ": 4472,
      "çļĦäºĭ": 4473,
      "åĲĵäºº": 4474,
      "å¸Ĳ": 4475,
      "ç»ĳ": 4476,
      "çĬ¯": 4477,
      "ä¸Ģå®ļè¦ģ": 4478,
      "è¿«ä¸įåıĬå¾ħåľ°æĥ³è¦ģ": 4479,
      "åĬ¨çī©éĥ½": 4480,
      "æĸĩä»¶": 4481,
      "åħ½åĮ»": 4482,
      "å¹¶æĥ³": 4483,
      "çĪ±ä½ł": 4484,
      "ä»ĸåĸľæ¬¢åľ¨": 4485,
      "å¥¹è¯ķåĽ¾": 4486,
      "åĲĪä½ľ": 4487,
      "æħ§": 4488,
      "åĪ¶éĢł": 4489,
      "çĩ¥": 4490,
      "è¿ĻæľµèĬ±": 4491,
      "ç«ŁçĦ¶": 4492,
      "æĮ¥åĬ¨": 4493,
      "èĩªç§ģ": 4494,
      "æĹ©é¤Ĳ": 4495,
      "çļĦæĹ¥åŃĲéĩĮ": 4496,
      "è§ĴèĲ½éĩĮ": 4497,
      "å¸Ĳç¯·": 4498,
      "æľīä¸ľè¥¿": 4499,
      "ä¸ĢäºĽä¸ľè¥¿": 4500,
      "ä¸ºä½ł": 4501,
      "å£«åħµ": 4502,
      "å¸®åĬ©ä½ł": 4503,
      "æ¡ĳ": 4504,
      "èĭıèĮľ": 4505,
      "ä¿®å¤į": 4506,
      "èµ°åĪ°åĵªéĩĮ": 4507,
      "åĸľæ¬¢çİ©ä»ĸçļĦçİ©åħ·": 4508,
      "æĪĳè§īå¾Ĺ": 4509,
      "æģĲé¾Ļ": 4510,
      "ä»ĸçİ¯é¡¾åĽĽåĳ¨": 4511,
      "è§Ħ": 4512,
      "æīĭä¸Ń": 4513,
      "æļĸåĴĮ": 4514,
      "åļı": 4515,
      "ä¹Łåĸľæ¬¢": 4516,
      "å¹²ä»Ģä¹Ī": 4517,
      "è¡£è£Ļ": 4518,
      "è·³è¿Ľ": 4519,
      "èĪĴéĢĤçļĦ": 4520,
      "åĩłåĪĨéĴŁåĲİ": 4521,
      "èĢĮæĦŁåĪ°èĩªè±ª": 4522,
      "ä¸Ģèµ·çİ©åĲĹ": 4523,
      "è´Ń": 4524,
      "å¼Ĺæĭīèı²": 4525,
      "åľ¨åħ¬åĽŃéĩĮçİ©": 4526,
      "èĤ¤": 4527,
      "äºļåİĨ": 4528,
      "è®©äºº": 4529,
      "æıĲç±³åĸľæ¬¢": 4530,
      "æ±ª": 4531,
      "æĻ¶": 4532,
      "éĴ»çŁ³": 4533,
      "éĹªéĹªåıĳåħīçļĦ": 4534,
      "ä»°": 4535,
      "äºĨåĩł": 4536,
      "æĪ³": 4537,
      "è¿ŀè¡£è£Ļ": 4538,
      "æĶ¶æĭ¾å¥½": 4539,
      "èİīèİīåľ¨": 4540,
      "éĻªä¼´": 4541,
      "å¾ĭ": 4542,
      "ä»ĸä»¬çİ©å¾ĹéĿŀå¸¸å¼Ģå¿ĥ": 4543,
      "åĴĮä¸ĢäºĽ": 4544,
      "è¿ĺèĥ½": 4545,
      "èĳ¡èĲĦ": 4546,
      "ä»·": 4547,
      "å¥¹è¿ħéĢŁ": 4548,
      "åĸµ": 4549,
      "æ³¨æĦıåĪ°äºĨ": 4550,
      "èĭį": 4551,
      "é£ŀæĿ¥é£ŀåİ»": 4552,
      "æ³ª": 4553,
      "æĪĳä¸įæĥ³": 4554,
      "çľĭäºĨä¸Ģ": 4555,
      "Kit": 4556,
      "åĽŀå¿Ĩ": 4557,
      "é¼ĵåĬ±": 4558,
      "èĩªå·±æľĢåĸľæ¬¢çļĦ": 4559,
      "éģĩåĪ°äºĨä¸Ģä¸ª": 4560,
      "æĿ¥èĩª": 4561,
      "æľīä¸Ģä¸ªåı«æıĲç±³çļĦå°ıçĶ·åŃ©": 4562,
      "ľåŃĲ": 4563,
      "æĺĨ": 4564,
      "çĶŁæ°ĶäºĨ": 4565,
      "çĽĹ": 4566,
      "ç»Ħ": 4567,
      "å¿ĥçļĦ": 4568,
      "èİīèİīéĿŀå¸¸åħ´å¥ĭ": 4569,
      "çĤ«": 4570,
      "Kitty": 4571,
      "éĩĮéĿ¢æľīä»Ģä¹Ī": 4572,
      "ä¸¹å°¼": 4573,
      "è¿Ļæĺ¯ä¸Ģ": 4574,
      "æ¦": 4575,
      "å¥½äºĭ": 4576,
      "ç»ĵæĿŁäºĨ": 4577,
      "è´µçļĦ": 4578,
      "èĦĨå¼±": 4579,
      "éĤ¦": 4580,
      "éĢĬ": 4581,
      "åĲĵåĪ°äºĨ": 4582,
      "æĮīçħ§": 4583,
      "ç«Ļèµ·æĿ¥": 4584,
      "å°ıæºª": 4585,
      "èĩªçĦ¶": 4586,
      "è¡Įèµ°": 4587,
      "æĻºæħ§": 4588,
      "åıªèĥ½": 4589,
      "é²įæ¯Ķ": 4590,
      "¤çº·": 4591,
      "ä»ĸäºº": 4592,
      "ä½Ĩå·²ç»ıå¤ª": 4593,
      "ç¼¤çº·": 4594,
      "ä¼ĳæģ¯ä¸Ģä¸ĭ": 4595,
      "éĹ²": 4596,
      "å¤®": 4597,
      "æĥ³è¦ģå¸®åĬ©": 4598,
      "åİĮ": 4599,
      "ä¿Ŀç½Ĺ": 4600,
      "ç¬ĳå¾Ĺ": 4601,
      "çļĦèħ": 4602,
      "å¹²çĩ¥": 4603,
      "ä¹Įé¸¦": 4604,
      "å°ıæĪ¿åŃĲéĩĮ": 4605,
      "åıĳæĬĸ": 4606,
      "æ¨±": 4607,
      "æŃ»": 4608,
      "çŁ¿": 4609,
      "æĺĨèĻ«": 4610,
      "åĪ°å®¶": 4611,
      "å¾Īæľī": 4612,
      "å¤Łä¸įåĪ°": 4613,
      "Tim": 4614,
      "çļĦéĩįè¦ģ": 4615,
      "èŃ¦åĳĬ": 4616,
      "ä¸¾åĬŀ": 4617,
      "æĸ¹åĲĳ": 4618,
      "çĪ¬ä¸Ĭåİ»": 4619,
      "åģļåĩº": 4620,
      "è¶ħ": 4621,
      "ç¥Īç¥·": 4622,
      "æľ±": 4623,
      "çĥĽ": 4624,
      "è¿ĩä¸ĬäºĨå¹¸ç¦ıçļĦçĶŁæ´»": 4625,
      "éĤ£æĬĬ": 4626,
      "éĻ·": 4627,
      "åĮº": 4628,
      "æ¨±æ¡ĥ": 4629,
      "ä»¿": 4630,
      "çĵ¶åŃĲ": 4631,
      "çĶ·åŃĲ": 4632,
      "åĲīä»ĸ": 4633,
      "ä»ĸä¸ºèĩªå·±": 4634,
      "æ·±åĪ»": 4635,
      "å¸®å¦Īå¦Ī": 4636,
      "ä»Ģä¹Īéĥ½": 4637,
      "ä¸įæĸŃåľ°": 4638,
      "æĳ©æīĺ": 4639,
      "ä»ĸæ¯ıå¤©éĥ½": 4640,
      "å¼ºå¤§çļĦ": 4641,
      "å¥¹çľĭåĪ°ä¸Ģä¸ª": 4642,
      "åħľ": 4643,
      "ä¸ºæŃ¢": 4644,
      "åĲ¬åĪ°äºĨä¸Ģä¸ª": 4645,
      "çľĭåĪ°ä»ĸ": 4646,
      "é£ŀå¿«åľ°": 4647,
      "æĿ°åħĭåĴĮåĲīå°Ķ": 4648,
      "åı¯çĪ±çļĦ": 4649,
      "éĺ³åħīæĺİåªļçļĦæĹ¥åŃĲ": 4650,
      "ä½Ĩä¹Ł": 4651,
      "é£ŀèĪŀ": 4652,
      "æ£Ĵæ£Ĵ": 4653,
      "éļĲ": 4654,
      "æīĵæĭĽåĳ¼": 4655,
      "è¿Ļè®©å¥¹": 4656,
      "å¿ĥéĩĮ": 4657,
      "æłĳé¡¶": 4658,
      "èĬ±åĽŃéĩĮçİ©èĢį": 4659,
      "å¥¹åıĳçİ°äºĨä¸Ģ": 4660,
      "åĽĽå¤Ħèµ°åĬ¨": 4661,
      "åı¹äºĨåı£æ°Ķ": 4662,
      "èĦļæŃ¥": 4663,
      "ä¸Ģå®ļä¼ļ": 4664,
      "èĳ±": 4665,
      "é¢¤": 4666,
      "éĴĵ": 4667,
      "æĺ¯ä¸Ģä¸ªéĿŀå¸¸": 4668,
      "æ£Ĵæ£Ĵç³ĸ": 4669,
      "ç®Ģåįķ": 4670,
      "éķľåŃĲ": 4671,
      "éŀ": 4672,
      "éĵ¶": 4673,
      "ä¸įåı¯ä»¥": 4674,
      "çĨŁ": 4675,
      "ä¸ªåŃĲ": 4676,
      "æĦŁè§īèĩªå·±": 4677,
      "ä½Ĩæ²¡æľī": 4678,
      "è·ĳåĽŀäºĨå®¶": 4679,
      "ä¸įå¤ª": 4680,
      "æ¥¼æ¢¯": 4681,
      "éĺ»æŃ¢": 4682,
      "éĹªéĹªåıĳäº®": 4683,
      "å¥½åĲĹ": 4684,
      "è¿ĺä¼ļ": 4685,
      "ç®ĢçĽ´ä¸įæķ¢çĽ¸ä¿¡èĩªå·±çļĦ": 4686,
      "ä»ĸæľīä¸Ģ": 4687,
      "ä»ĸæĦıè¯ĨåĪ°": 4688,
      "èįīèİĵ": 4689,
      "åĲ¸å¼ķ": 4690,
      "çģŃ": 4691,
      "äºļåİĨåħĭæĸ¯": 4692,
      "éĤ£ä»¶": 4693,
      "æĦıåĳ³": 4694,
      "æĭ¿åĩºäºĨ": 4695,
      "æĭ¿èµ°äºĨ": 4696,
      "é¾Ļå¤´": 4697,
      "åĸ·åļı": 4698,
      "å¥¹éĥ½": 4699,
      "æĺ¯å¯¹çļĦ": 4700,
      "æĶ¾åĪ°": 4701,
      "æĦŁåĪ°éĿŀå¸¸éªĦåĤ²": 4702,
      "åħ¨éĥ½": 4703,
      "çĦ¦": 4704,
      "å¼¯ä¸ĭ": 4705,
      "ä½Ĩä»ĸçŁ¥éģĵ": 4706,
      "å¤©ä½¿": 4707,
      "éĤ£ä¸ªçĶ·åŃ©": 4708,
      "å¥ĩå¦Ļ": 4709,
      "å®ĥçľĭèµ·æĿ¥": 4710,
      "ä½Ĩæĺ¯æľīä¸Ģå¤©": 4711,
      "ä¸įçŁ¥éģĵè¯¥": 4712,
      "æ¶Īéĺ²åĳĺ": 4713,
      "ç®Ĺ": 4714,
      "è´£": 4715,
      "è¿½èµ¶": 4716,
      "æĦīå¿«åľ°": 4717,
      "æĥ³å¿µ": 4718,
      "å°¤åħ¶æĺ¯": 4719,
      "ç®¡åŃĲ": 4720,
      "åıĤè§Ĥ": 4721,
      "åį°è±¡": 4722,
      "åº¦è¿ĩäºĨæĦīå¿«çļĦä¸Ģå¤©": 4723,
      "äºĨä¸Ģæł¹": 4724,
      "ä½ıåľ¨ä¸Ģ": 4725,
      "æ¬¢åĳ¼èµ·æĿ¥": 4726,
      "æĳ©æīĺè½¦": 4727,
      "ä»ĸæľīä¸Ģä¸ª": 4728,
      "å°ıæ±½è½¦": 4729,
      "åĽ´æłı": 4730,
      "è¿Ļä¸Ģ": 4731,
      "èī¾ç±³èİī": 4732,
      "ä¸¾èµ·": 4733,
      "å¦Īå¦Īç¬ĳçĿĢè¯´": 4734,
      "å®ĥä»¬éĥ½": 4735,
      "ä½Ĩå¾Īå¿«": 4736,
      "ä»¤äººæĥĬåı¹": 4737,
      "ç§ĥ": 4738,
      "è¿Ļæĺ¯ä¸ªå¥½ä¸»æĦı": 4739,
      "å¥¹å¿ħé¡»": 4740,
      "çĶŁçĹħ": 4741,
      "å¸¦åĪ°": 4742,
      "æīĵäºĨä¸ª": 4743,
      "æĿĲæĸĻ": 4744,
      "æĿ°åħĭè¯´": 4745,
      "é²¨": 4746,
      "ç¥ŀç§ĺçļĦ": 4747,
      "å¥¹æĦıè¯ĨåĪ°": 4748,
      "éľ²åĩº": 4749,
      "èĥŀ": 4750,
      "ä»ĸéĹ®éģĵ": 4751,
      "åħĭæĭī": 4752,
      "æĦ¤": 4753,
      "äºİæĺ¯å®ĥ": 4754,
      "ä½Ĩå¥¹çŁ¥éģĵ": 4755,
      "è¡¥": 4756,
      "æ¡ĥåŃĲ": 4757,
      "ä»ĸåĴĮ": 4758,
      "éªĳçĿĢ": 4759,
      "æĲŃå»º": 4760,
      "èĬ±çĶŁ": 4761,
      "ç¾İå¦Ļ": 4762,
      "æŁ´": 4763,
      "æīĵå¼Ģå®ĥ": 4764,
      "åĹ¯": 4765,
      "ä»İæłĳä¸Ĭ": 4766,
      "è´¹": 4767,
      "åħ¶ä»ĸåŃ©åŃĲ": 4768,
      "æĦŁåĪ°å¾Īé«ĺåħ´": 4769,
      "çľĭåĲĳ": 4770,
      "éĹªçĥ": 4771,
      "å¸Ĩ": 4772,
      "æľīä¸Ģé¢Ĺ": 4773,
      "å¦ĩäºº": 4774,
      "ly": 4775,
      "åĴĮæĿ°åħĭ": 4776,
      "å¾Ĺå¾Īå¥½": 4777,
      "å¹¸ç¦ıåľ°çĶŁæ´»": 4778,
      "æĦŁåĪ°åįģåĪĨ": 4779,
      "å¸¦æľī": 4780,
      "ä¸Ńå¤®": 4781,
      "æ·±åĲ¸äºĨä¸Ģåı£æ°Ķ": 4782,
      "ä¼Ĺ": 4783,
      "åºķä¸ĭ": 4784,
      "¾æ°Ķ": 4785,
      "åľ°åĽ¾": 4786,
      "å¹¶çĶ¨": 4787,
      "å¿«è¦ģ": 4788,
      "éĹªçĥģ": 4789,
      "éĿŀå¸¸æĥĬè®¶": 4790,
      "å¦Īå¦Īå¾®ç¬ĳçĿĢè¯´": 4791,
      "ä½łæĥ³åĴĮæĪĳ": 4792,
      "é²¨é±¼": 4793,
      "è¯´äºĨ": 4794,
      "ä»ĸæĭ¿èµ·": 4795,
      "å¥¹åıĪ": 4796,
      "å¼Ģå§ĭäºĨ": 4797,
      "ç¦»å¼ĢæĹ¶": 4798,
      "åĴĮå¿«ä¹Ĳ": 4799,
      "è·ª": 4800,
      "äºĨä¸Ģçīĩ": 4801,
      "åħ³å¿ĥ": 4802,
      "ä¹ĲäºİåĬ©": 4803,
      "ä½łåĸľæ¬¢": 4804,
      "æºħ": 4805,
      "çļĦè¡¨æĥħ": 4806,
      "æĥ³åĲĥ": 4807,
      "åĴĮä¸Ģåıª": 4808,
      "çļĤ": 4809,
      "æĦ¤æĢĴ": 4810,
      "éķ¿éķ¿çļĦ": 4811,
      "è¿Ļæł·çļĦ": 4812,
      "å¹¶å¯¹": 4813,
      "å¼Ģå§ĭåľ¨": 4814,
      "æĬļæĳ¸": 4815,
      "åģļçĤ¹": 4816,
      "æĦŁè§īåĪ°": 4817,
      "åĵįäº®": 4818,
      "çĿĢä¸Ģä¸ª": 4819,
      "èĤ¥": 4820,
      "èİīèİīéĹ®éģĵ": 4821,
      "ç¬ĳçĿĢè¯´éģĵ": 4822,
      "åħ´å¥ĭæŀģäºĨ": 4823,
      "èĲ½å±±": 4824,
      "ç²¾çģµ": 4825,
      "çļĦä¸Ģä¸ª": 4826,
      "åĩ¯çī¹": 4827,
      "åī©ä¸ĭ": 4828,
      "åĩīçĪ½": 4829,
      "çİī": 4830,
      "æĬ±äºĨ": 4831,
      "æľīä¸Ģä¸ªåı«èĴĤç±³çļĦå°ıçĶ·åŃ©": 4832,
      "çĥŃæĥħ": 4833,
      "å¼ĢçĿĢ": 4834,
      "éķĩä¸Ĭ": 4835,
      "æ¤Ĵ": 4836,
      "çİīç±³": 4837,
      "è¿Ļä¼ļ": 4838,
      "æĬĬå¥¹çļĦ": 4839,
      "è¿ĩç¨ĭ": 4840,
      "æķĻå¥¹": 4841,
      "ä»ĸéľĢè¦ģ": 4842,
      "æĮ¥äºĨ": 4843,
      "èŀįåĮĸ": 4844,
      "å¿ĥæĥ³": 4845,
      "æŃ£å¸¸": 4846,
      "éĤ£ä¸ªçĲĥ": 4847,
      "å¤ªéĺ³å¼Ģå§ĭ": 4848,
      "æ³¥å·´": 4849,
      "æĬķ": 4850,
      "å»Ĭ": 4851,
      "ä¸Ĭä¸ĭ": 4852,
      "å¤§çŁ³å¤´": 4853,
      "æµĩ": 4854,
      "è§ģè¿ĩçļĦæľĢ": 4855,
      "æŁ¥çĲĨ": 4856,
      "ä»¥ä¸º": 4857,
      "éĿ¢åĽ¢": 4858,
      "åı¯æĢķçļĦ": 4859,
      "ä¹°ä¸Ģä¸ª": 4860,
      "å°ıä¸ĳ": 4861,
      "èµ°è·¯": 4862,
      "æī¾åĪ°çļĦ": 4863,
      "åį³å°Ĩ": 4864,
      "åĲ¬å¦Īå¦ĪçļĦè¯Ŀ": 4865,
      "æŀľçĦ¶": 4866,
      "æ¯ıå¤©å¥¹éĥ½ä¼ļ": 4867,
      "èĩªå·±çļĦæĪ¿éĹ´": 4868,
      "è¿Ļä»¶äºĭ": 4869,
      "æĦıåĳ³çĿĢ": 4870,
      "å¾Īéħ·": 4871,
      "æľºä¼ļ": 4872,
      "ä¸īå²ģçļĦåŃ©åŃĲ": 4873,
      "å¹ħçĶ»": 4874,
      "èİ·å¾Ĺ": 4875,
      "å¥¹ä»İ": 4876,
      "è¿Ļå®¶äºº": 4877,
      "æ¤ħåŃĲä¸Ĭ": 4878,
      "éĿŀå¸¸ç¾İåĳ³": 4879,
      "èĤļåŃĲ": 4880,
      "ä»ĸæĺİçĻ½äºĨ": 4881,
      "çıĬ": 4882,
      "æµĭè¯ķ": 4883,
      "æ£ķèī²": 4884,
      "çĿģå¼Ģ": 4885,
      "ä¸¤ä½įæľĭåıĭ": 4886,
      "ä»ĸå¾®ç¬ĳçĿĢ": 4887,
      "ç»ĵå®ŀ": 4888,
      "ä»»ä½ķä¸ľè¥¿": 4889,
      "æļ´èºģ": 4890,
      "åĽ¾ä¹¦é¦Ĩ": 4891,
      "çİ°ä»£": 4892,
      "en": 4893,
      "ä¸Ģéģį": 4894,
      "ï¼ģâĢľ": 4895,
      "åīĳ": 4896,
      "çº³": 4897,
      "èĢ³æľµ": 4898,
      "æĢ»ä¼ļ": 4899,
      "ä»Ĭ": 4900,
      "ä»ĸæ²¡æľī": 4901,
      "åľ¨ä»ĸä»¬": 4902,
      "æģ¼": 4903,
      "éĿŀå¸¸çī¹åĪ«": 4904,
      "ä»ĸæĺ¯": 4905,
      "ä¹°äºĨ": 4906,
      "æ³ī": 4907,
      "ä»ĭ": 4908,
      "åĲĳæĹ¥": 4909,
      "ç»ĵå±Ģ": 4910,
      "æľ¬è¯´": 4911,
      "èĳµ": 4912,
      "ç´§ç´§åľ°æĬ±ä½ıäºĨ": 4913,
      "èİīèİīéĹ®": 4914,
      "èĦ¾æ°Ķ": 4915,
      "å±±ç¾Ĭ": 4916,
      "å®īå¨ľåĴĮæľ¬": 4917,
      "æĦŁåĪ°æĹ¢": 4918,
      "å¥¹çļĦçĪ¸çĪ¸å¦Īå¦Ī": 4919,
      "åıĹæ¬¢è¿İ": 4920,
      "æľīä¸Ģæł¹": 4921,
      "è·³èµ·æĿ¥": 4922,
      "æĥĬè®¶çļĦæĺ¯": 4923,
      "æĭħå¿§": 4924,
      "çľī": 4925,
      "åģļé¥Ń": 4926,
      "å¿«ä¹Ĳåľ°": 4927,
      "ä»ĸæĦŁè°¢": 4928,
      "éģĩåĪ°äºĨ": 4929,
      "é»ı": 4930,
      "ä¼Ł": 4931,
      "æ°´é¾Ļå¤´": 4932,
      "å¼ºå¤§": 4933,
      "åĴ¯åĴ¯åľ°": 4934,
      "å°ĺ": 4935,
      "åį°è±¡æ·±åĪ»": 4936,
      "ä»ĸçļĦåĲįåŃĹåı«": 4937,
      "åĸĦæĦı": 4938,
      "æł¼èķ¾": 4939,
      "ä»ĸçľĭçĿĢ": 4940,
      "æĢ¨": 4941,
      "å¿«çľĭ": 4942,
      "å¾Īå¿«ä¹Ĳ": 4943,
      "ç»§ç»Ńçİ©": 4944,
      "è¡ĮåĬ¨": 4945,
      "æµ·çĽĹ": 4946,
      "æłĳæľ¨åĴĮ": 4947,
      "åĲĳæĹ¥èĳµ": 4948,
      "å¤ªå¤§äºĨ": 4949,
      "åıĳçİ°äºĨä¸ĢäºĽ": 4950,
      "è¯¥æĢİä¹Īåģļ": 4951,
      "åĺ´éĩĮ": 4952,
      "æĢľ": 4953,
      "åĲĥçĿĢ": 4954,
      "åĬªåĬĽåľ°": 4955,
      "éĶ¤åŃĲ": 4956,
      "éĵº": 4957,
      "åľ¨åĵªéĩĮ": 4958,
      "æīİ": 4959,
      "æ£ķèī²çļĦ": 4960,
      "éĤ£åıªçĨĬ": 4961,
      "æ¸ħæ´Ĺ": 4962,
      "ä¸įåĨįæĦŁåĪ°": 4963,
      "å¥³äºº": 4964,
      "çļĦèº": 4965,
      "è·ĳè¿ĩæĿ¥": 4966,
      "æīĺå°¼": 4967,
      "ä»ĸè¿ĺ": 4968,
      "éĽ¨ä¸Ń": 4969,
      "åĲ¸åıĸ": 4970,
      "ä»ĸä»¬åıĪ": 4971,
      "æĬĽ": 4972,
      "å¤ªå°ıäºĨ": 4973,
      "ä¸Ģåıªé¸Ł": 4974,
      "çį": 4975,
      "æĦŁåĪ°æľīäºĽ": 4976,
      "åº§ä½į": 4977,
      "ä¸ĸçķĮä¸Ĭ": 4978,
      "åģ·åģ·": 4979,
      "ä¸¢å¤±": 4980,
      "ç£¨": 4981,
      "åģļåĪ°äºĨ": 4982,
      "æľ¨æ£į": 4983,
      "çĤ«èĢĢ": 4984,
      "å¸¦å¥¹åİ»": 4985,
      "æŀľéħ±": 4986,
      "æ©ĻåŃĲ": 4987,
      "åĲ¬ä»İäºĨ": 4988,
      "çļĦå¿«ä¹Ĳ": 4989,
      "æĿ¥åĲ§": 4990,
      "çĶļèĩ³è¿ĺ": 4991,
      "æ¹ĸéĩĮ": 4992,
      "æ±łå¡ĺè¾¹": 4993,
      "è¯¥åĽŀå®¶äºĨ": 4994,
      "çļĦèĦļ": 4995,
      "è½¬è¿ĩèº«": 4996,
      "éĤ£åĦ¿": 4997,
      "èĢģå¦ĩäºº": 4998,
      "æ¼ī": 4999,
      "å¥¹çľĭçĿĢ": 5000,
      "å¥¹å¾Īé«ĺåħ´": 5001,
      "å¥½èµ·æĿ¥": 5002,
      "é¥®": 5003,
      "æ´»æ³¼": 5004,
      "ä¸ªä¸įåģľ": 5005,
      "ç»´": 5006,
      "å¹¶ä¸įæĺ¯": 5007,
      "å¼¹çıł": 5008,
      "å¥¹çļĦæīĭ": 5009,
      "èĴĤç±³åĸľæ¬¢": 5010,
      "è·¯è¿ĩ": 5011,
      "ä¼łæĿ¥ä¸Ģéĺµ": 5012,
      "ç±³èĬ±": 5013,
      "çĶ¨æīĭ": 5014,
      "æĬ±æĢ¨": 5015,
      "ä»°æľĽ": 5016,
      "æ²Ļæ»©ä¸Ĭ": 5017,
      "çĪĨç±³èĬ±": 5018,
      "ä½įç½®": 5019,
      "ä¸ĭéĽ¨äºĨ": 5020,
      "æµ·æµª": 5021,
      "ä¼łæĿ¥çļĦ": 5022,
      "åİŁæĿ¥æĺ¯": 5023,
      "å¾Īå¿«å°±ä¼ļ": 5024,
      "æ¸Ĳæ¸Ĳ": 5025,
      "æ£®æŀĹä¸Ń": 5026,
      "å·´è¿ª": 5027,
      "å¥¹æį¡èµ·": 5028,
      "ä¹Łä¼ļ": 5029,
      "æ¹¿äºĨ": 5030,
      "çļĦæł·åŃĲ": 5031,
      "æĺ¯è°ģ": 5032,
      "æ°´éĿ¢": 5033,
      "æµ®": 5034,
      "æľīä¸Ģä¸ªçĶ·åŃ©åı«": 5035,
      "è°ĥçļ®": 5036,
      "å½ĵå¤©": 5037,
      "å¾®å¾®": 5038,
      "çĶ²èĻ«": 5039,
      "çĴ": 5040,
      "è¿Ļä¸ªå®¶åºŃ": 5041,
      "æ°´ç®¡": 5042,
      "ç¢Į": 5043,
      "é¹¦": 5044,
      "ä»ĸçľĭåĪ°ä¸Ģä¸ª": 5045,
      "åįĬ": 5046,
      "æĭ¿åĩºæĿ¥": 5047,
      "çļĦèº«": 5048,
      "æĿ¥åĽŀ": 5049,
      "æĥľ": 5050,
      "ä¸įä¸Ģæł·": 5051,
      "è¿Ļä¸Ģæ¬¡": 5052,
      "é¹ī": 5053,
      "å®ŀåľ¨": 5054,
      "æīĵå¼ĢäºĨéĹ¨": 5055,
      "ä»Ķç»Ĩåľ°": 5056,
      "é¹¦é¹ī": 5057,
      "çĪ¬æłĳ": 5058,
      "åĵªåĦ¿": 5059,
      "å®ĥè¯´": 5060,
      "é£ŀäºĨ": 5061,
      "çĲĨåıĳå¸Ī": 5062,
      "å¥³å·«": 5063,
      "æĨ": 5064,
      "ä¸Ģé¦ĸ": 5065,
      "éĿŀå¸¸èģªæĺİ": 5066,
      "ä¸Ģç¾¤": 5067,
      "èµ¢äºĨ": 5068,
      "ä¸įæĦ¿æĦı": 5069,
      "æľįè£ħ": 5070,
      "çľĭè§ģäºĨä¸Ģ": 5071,
      "ç´«èī²çļĦ": 5072,
      "éķ¿æ¤ħä¸Ĭ": 5073,
      "å¿Ļç¢Į": 5074,
      "å¥¹ä¸ºèĩªå·±": 5075,
      "é¸£": 5076,
      "ä»ĸèĥ½": 5077,
      "å¥¹ä¸º": 5078,
      "åľ¨æłĳä¸Ĭ": 5079,
      "æĭ¯": 5080,
      "èİīèİīå¾Īé«ĺåħ´": 5081,
      "ç¯®çĲĥ": 5082,
      "ä»ĸéĥ½": 5083,
      "æ¼Ĩ": 5084,
      "æĸĳé©¬": 5085,
      "å¥¹å¸ĮæľĽ": 5086,
      "å¸¦æĿ¥äºĨ": 5087,
      "æ¸¸ä¹Ĳåľº": 5088,
      "å¥¹ä¸ĢçĽ´": 5089,
      "æ»´": 5090,
      "æīĩéĹ¨": 5091,
      "è¿Ļæĺ¯æĪĳçļĦ": 5092,
      "å¹¸è¿ĲçļĦæĺ¯": 5093,
      "åı¤èĢģçļĦ": 5094,
      "ç¬ĳå£°": 5095,
      "ç¿±": 5096,
      "çŃ¾": 5097,
      "éĩįçļĦ": 5098,
      "å®¶ä¼Ļ": 5099,
      "ç¿±ç¿Ķ": 5100,
      "éĢĴç»ĻäºĨ": 5101,
      "åĴķ": 5102,
      "æ»ĳæĿ¿": 5103,
      "çİ©åħ·åĴĮ": 5104,
      "èĶĵ": 5105,
      "èµ°åĲ§": 5106,
      "æŀľåĨ»": 5107,
      "å¸ĥæľĹå°¼": 5108,
      "ä½Ĩè¿ĻæĹ¶": 5109,
      "å°ıå¿ĥçĤ¹": 5110,
      "æįŁ": 5111,
      "åĸĬåı«": 5112,
      "çģ«é¸¡": 5113,
      "çľĭåĪ°çļĦ": 5114,
      "ä»ĸæĦŁè°¢äºĨ": 5115,
      "ä½łåºĶè¯¥": 5116,
      "ç»ĻäºĨå¥¹ä¸Ģä¸ªå¤§å¤§çļĦæĭ¥æĬ±": 5117,
      "æĹłåĬ©": 5118,
      "å¾ĹéĿŀå¸¸å¿«": 5119,
      "çľĭäºĨä¸Ģçľ¼": 5120,
      "æĪĳæĥ³è¦ģ": 5121,
      "å½ĵä½ł": 5122,
      "æ¡ĳè¿ª": 5123,
      "ä¸Ģä¸ªæ¸¸æĪı": 5124,
      "äºĨèĩªå·±çļĦ": 5125,
      "å°½æĥħ": 5126,
      "åŁĥ": 5127,
      "åı¯æĢľ": 5128,
      "æĬ¤å£«": 5129,
      "è¿ĻåĿĹçŁ³å¤´": 5130,
      "é£ŀåĪ°äºĨ": 5131,
      "å¡«": 5132,
      "æ¬ł": 5133,
      "åı¯åı¯": 5134,
      "ie": 5135,
      "éĿŀå¸¸çĪ±": 5136,
      "å¹¶ä¸º": 5137,
      "éĥ½å¾Ī": 5138,
      "å½±åŃĲ": 5139,
      "å¥¹æĦŁè°¢": 5140,
      "å¯¹å¥¹è¯´": 5141,
      "äºĨä¸Ģé¦ĸ": 5142,
      "åĿıæİī": 5143,
      "æĻ®éĢļçļĦ": 5144,
      "èĢĮæĺ¯": 5145,
      "å¤´æĻķ": 5146,
      "æĦŁåĪ°å¾Īä¼¤å¿ĥ": 5147,
      "ä¹ĸ": 5148,
      "æ¯Ľçº¿": 5149,
      "è¶³å¤ŁçļĦ": 5150,
      "å¥¹çļĦå¦Īå¦Īå¾®ç¬ĳçĿĢè¯´": 5151,
      "åĪļåĪļ": 5152,
      "éģĵäºĨ": 5153,
      "ä¼¸å±ķ": 5154,
      "ä¿¡ä»»": 5155,
      "åĲĦç§įåĲĦ": 5156,
      "èĩªå·±çļĦä¸ľè¥¿": 5157,
      "è¿½çĿĢ": 5158,
      "ä»Ģä¹Īä¹Ł": 5159,
      "è½¬åĬ¨": 5160,
      "çĸ¯": 5161,
      "èµ¢å¾ĹäºĨ": 5162,
      "çķĻä¸ĭæĿ¥": 5163,
      "åı¦ä¸Ģ": 5164,
      "è¿Ļä¸¤ä¸ªæľĭåıĭ": 5165,
      "åıĳçĶŁçļĦäºĭæĥħ": 5166,
      "æĪĸèĢħ": 5167,
      "ĹåĲį": 5168,
      "å¤§èĢĮ": 5169,
      "ç¬Ľ": 5170,
      "å¹²èįī": 5171,
      "å®ĥåı¯ä»¥": 5172,
      "çĶµèĦĳ": 5173,
      "çļĦå»ºè®®": 5174,
      "çĤİ": 5175,
      "ç¢ĹéĩĮ": 5176,
      "æĩĤ": 5177,
      "å¥¹å¸¦çĿĢ": 5178,
      "æī®": 5179,
      "è¿Ļä¸ªçİ©åħ·": 5180,
      "åľ°éĿ¢ä¸Ĭ": 5181,
      "ä¹İä¹İ": 5182,
      "çļĦè¢": 5183,
      "ä¸Ģå¤©æĻļä¸Ĭ": 5184,
      "å®¢æ°Ķ": 5185,
      "è¿Ļå¯¹": 5186,
      "æ¸¯": 5187,
      "ä¸ĢåĽ¢": 5188,
      "å§Ĩæĸ¯": 5189,
      "çļĦèĥ¡": 5190,
      "åĲĲ": 5191,
      "çī¹åĪ«åĸľæ¬¢": 5192,
      "èİīèİīçļĦå¦Īå¦Īè¯´": 5193,
      "èľ¡çĥĽ": 5194,
      "å½Ĵ": 5195,
      "ä¸ĭåįĪ": 5196,
      "æĪĳä»¬å¿ħé¡»": 5197,
      "å¯¹çĿĢ": 5198,
      "è¡¨è¾¾": 5199,
      "çŃĶæ¡Ī": 5200,
      "æħİ": 5201,
      "è½»å£°": 5202,
      "åĲĦèĩª": 5203,
      "ä¸įé«ĺåħ´": 5204,
      "å¼Ģå§ĭçİ©": 5205,
      "é¸Łå·¢": 5206,
      "åģľä¸ĭäºĨ": 5207,
      "ç½Ĺæĸ¯": 5208,
      "çĤİçĥŃ": 5209,
      "æĪĳçİ°åľ¨": 5210,
      "ç©·": 5211,
      "æŃ£ç¡®çļĦ": 5212,
      "ä¸Ģåı£": 5213,
      "è©¹å§Ĩæĸ¯": 5214,
      "éĶĭ": 5215,
      "åĪĽéĢłåĬĽ": 5216,
      "çĺ": 5217,
      "åı¯ä»¥çİ©": 5218,
      "åĶ±çĿĢ": 5219,
      "æīĵæī°": 5220,
      "åİ»åĵªéĩĮ": 5221,
      "æ¸Ķ": 5222,
      "è´Ł": 5223,
      "å¾Īå¿«ä¼ļ": 5224,
      "åļ¼": 5225,
      "ä¸Ģèµ·åĪĨäº«": 5226,
      "ä¸īè§Ĵ": 5227,
      "éĶĭåĪ©": 5228,
      "è°¨": 5229,
      "åıĳçİ°èĩªå·±": 5230,
      "æľ«": 5231,
      "åĹ¡åĹ¡": 5232,
      "éģµ": 5233,
      "çº¹": 5234,
      "æİ¨çī¹": 5235,
      "æģ¢å¤įäºĨ": 5236,
      "ï¼ĮâĢĻ": 5237,
      "çļĦç¾İä¸½": 5238,
      "ä¸įå®ī": 5239,
      "ç©¶": 5240,
      "ä¸¤äºº": 5241,
      "çĶ¨ä»ĸçļĦ": 5242,
      "çļĦå°ıçĮ«": 5243,
      "çĿģå¼Ģçľ¼çĿĽ": 5244,
      "è¿ĩçļĦæľĢ": 5245,
      "å¤«äºº": 5246,
      "ç»Ļä»ĸä»¬": 5247,
      "å¸ķçī¹": 5248,
      "ä¸ĭå®ļ": 5249,
      "æĸ°é²ľ": 5250,
      "çļĦåı¦ä¸Ģè¾¹": 5251,
      "ä½Ĩæ²¡æľīäºº": 5252,
      "éļ§": 5253,
      "é¥¥": 5254,
      "èĥ¶æ°´": 5255,
      "éĩĮçİ©": 5256,
      "å¼ĦåĿıäºĨ": 5257,
      "éĿŀå¸¸å¿«ä¹Ĳ": 5258,
      "æľīä¸Ģå¼ł": 5259,
      "çľĭåĪ°å¥¹": 5260,
      "çĽĶ": 5261,
      "éĤ£ä¸ªçİ©åħ·": 5262,
      "åĨħå¿ĥ": 5263,
      "å¸ĺ": 5264,
      "å®ĥåĸľæ¬¢": 5265,
      "è¿Ļä¸ªå¥³åŃ©": 5266,
      "æĭ¿äºĨä¸ĢäºĽ": 5267,
      "æ³¨è§ĨçĿĢ": 5268,
      "æį¡äºĨèµ·æĿ¥": 5269,
      "çļĦéĩįè¦ģæĢ§": 5270,
      "å¯¹ä»ĸè¯´": 5271,
      "åĽ½å®¶": 5272,
      "æ²¡äºĭçļĦ": 5273,
      "è°¨æħİ": 5274,
      "è½®èĥİ": 5275,
      "äºĨä¸Ĭåİ»": 5276,
      "æ£ĭ": 5277,
      "è¿Ļä¸ªçĶ·åŃ©": 5278,
      "æ°´æĻ¶": 5279,
      "éķ¿å¤§": 5280,
      "èĴĤå§Ĩè¯´": 5281,
      "çĻ½èī²çļĦ": 5282,
      "ç²ĺ": 5283,
      "éĵ²": 5284,
      "ç£ģ": 5285,
      "æ¯ıæĻļ": 5286,
      "æĴŃ": 5287,
      "éļ§éģĵ": 5288,
      "åħ¶ä»ĸäºº": 5289,
      "ä»ĸä¸įæĥ³": 5290,
      "çľĭåĪ°å®ĥ": 5291,
      "æķ´å¤©éĥ½": 5292,
      "ä¸įçĶ¨è°¢": 5293,
      "è®¨è®º": 5294,
      "ĳèı": 5295,
      "ĺĳèı": 5296,
      "ĺĳèıĩ": 5297,
      "¥èľ": 5298,
      "èĲ¥": 5299,
      "ä½İå¤´": 5300,
      "¥èľ´": 5301,
      "ä½łæĦ¿æĦı": 5302,
      "çļĦèĻ": 5303,
      "åħ¶ä¸Ńä¸Ģä¸ª": 5304,
      "å°Ĭ": 5305,
      "æĬ½å±": 5306,
      "çĶľçĤ¹": 5307,
      "å¾Īå¤§çļĦå£°éŁ³": 5308,
      "æĬ½å±ī": 5309,
      "åĲĥä¸ľè¥¿": 5310,
      "åĿļå¼º": 5311,
      "äºĶå½©ç¼¤çº·": 5312,
      "åİīå®³": 5313,
      "è¿Ļåľº": 5314,
      "å¾Īçī¹åĪ«": 5315,
      "å¯¹å¾ħ": 5316,
      "æľīä¸Ģä¸ªå°ıå¥³åŃ©åı«": 5317,
      "åĭĩæķ¢åľ°": 5318,
      "ä¸īè§Ĵå½¢": 5319,
      "ä¸Ģæ®µ": 5320,
      "èİīèİīæĢ»æĺ¯": 5321,
      "å¸¦ä¸Ĭ": 5322,
      "æĪĳçļĦæľĭåıĭ": 5323,
      "ä¸ĬåŃ¦": 5324,
      "æĪĳä»¬èĥ½": 5325,
      "åĮħéĩĮ": 5326,
      "åıĳçİ°äºĨä¸ĢåĿĹ": 5327,
      "åįı": 5328,
      "è¿Ļä¸ªçĲĥ": 5329,
      "ä¸įå°ıå¿ĥæĬĬ": 5330,
      "çĮİäºº": 5331,
      "ä»ĸå¾Īé«ĺåħ´": 5332,
      "å¥¹çİ¯é¡¾åĽĽåĳ¨": 5333,
      "æ»ļåĬ¨": 5334,
      "ç«łé±¼": 5335,
      "çİ»": 5336,
      "ä¹¡": 5337,
      "æ¯ıä¸Ģä¸ª": 5338,
      "æįķ": 5339,
      "æİ¥ä¸ĭæĿ¥": 5340,
      "çĪ¸çĪ¸å¦Īå¦Īä¸Ģèµ·": 5341,
      "è¿Ľåħ¥äºĨ": 5342,
      "é¢¤æĬĸ": 5343,
      "æ¸©åĴĮ": 5344,
      "åĬłåħ¥äºĨ": 5345,
      "åħ®": 5346,
      "ï¼Ł\"": 5347,
      "çº§": 5348,
      "æ´ĭèĳ±": 5349,
      "çļĦèĬ±": 5350,
      "èĢĮæĦŁåĪ°é«ĺåħ´": 5351,
      "éĿ´åŃĲ": 5352,
      "é«ĺåħ´å¾Ĺ": 5353,
      "å¥¹åĸľæ¬¢çİ©": 5354,
      "åĪ°å¤ĸéĿ¢çİ©èĢį": 5355,
      "ä»ĸå¸¦çĿĢ": 5356,
      "ä¹Łå¾Īå¼Ģå¿ĥ": 5357,
      "æĥĬå¥ĩ": 5358,
      "æ³°å¾·": 5359,
      "åĲ¬çĿĢ": 5360,
      "æľīä¸ĢåĿĹ": 5361,
      "æĪĲåĬŁåľ°": 5362,
      "ä»Ķç»Ĩè§Ĥå¯Ł": 5363,
      "ä¸įéľĢè¦ģ": 5364,
      "è·ĳåİ»æī¾": 5365,
      "æĵį": 5366,
      "æ´»åĬĽ": 5367,
      "åĴĮæľĭåıĭä»¬ä¸Ģèµ·çİ©": 5368,
      "éĤ®ç®±": 5369,
      "çĶŁéķ¿": 5370,
      "ç¥ĸ": 5371,
      "å¯¹å¥¹çļĦ": 5372,
      "èĥ½å¤Łå¸®åĬ©": 5373,
      "åįĪé¥Ń": 5374,
      "çļĦçī¹åĪ«": 5375,
      "åĴĮä¸Ģ": 5376,
      "åĵĪæ¬ł": 5377,
      "å¾Īæ£Ĵ": 5378,
      "çĴĥ": 5379,
      "çİ»çĴĥ": 5380,
      "å±Ĥ": 5381,
      "æł·ä¸ľè¥¿": 5382,
      "çļ®èĤ¤": 5383,
      "è¿°": 5384,
      "è·ĳå¼Ģ": 5385,
      "è°Ĭ": 5386,
      "åģļå¥½": 5387,
      "é¸µ": 5388,
      "ä»Ģä¹Īä¸ľè¥¿": 5389,
      "ç¡®ä¿¡": 5390,
      "èĤ¡": 5391,
      "é¸µé¸Ł": 5392,
      "æĥ§": 5393,
      "ç¨³": 5394,
      "éĩĩæĳĺ": 5395,
      "æł¼èķ¾ä¸Ŀ": 5396,
      "æĪĳä¸įä¼ļ": 5397,
      "åİ»åħ¬åĽŃæķ£æŃ¥": 5398,
      "åĨľåľºéĩĮ": 5399,
      "çļĦåĳ³éģĵ": 5400,
      "è¡Įé©¶": 5401,
      "éĿŀå¸¸åħ´å¥ĭåľ°": 5402,
      "æĪĳä¼ļå¸®ä½ł": 5403,
      "ä¸įç¡®å®ļ": 5404,
      "äºĨä¸ĢæĬĬ": 5405,
      "æ°Ķåĳ³": 5406,
      "æľīä¸Ģä¸ªåĲįåı«èĴĤç±³çļĦå°ıçĶ·åŃ©": 5407,
      "å±ĭé¡¶": 5408,
      "å¥¹çľĭåĪ°ä¸Ģåıª": 5409,
      "ä»ĸç»§ç»Ń": 5410,
      "ä»ĸä»¬åĲ¬åĪ°": 5411,
      "åıĭè°Ĭ": 5412,
      "åĲ¹åı£åĵ¨": 5413,
      "èĻļå¼±": 5414,
      "ä»ĸä»¬æ¯ıå¤©éĥ½": 5415,
      "éĿŀå¸¸å¤§": 5416,
      "ä½Ĩå¦Īå¦Ī": 5417,
      "åĿ¦": 5418,
      "è½¬èº«": 5419,
      "ä»»ä½ķäºĭæĥħ": 5420,
      "åıĮèĥŀ": 5421,
      "åıĮèĥŀèĥİ": 5422,
      "æľĢå¥½": 5423,
      "åı½": 5424,
      "ä¸įå¥½çļĦ": 5425,
      "æĭ¿ç»Ļ": 5426,
      "æīĢæľīä¸ľè¥¿": 5427,
      "å¼¯ä¸ĭèħ°": 5428,
      "å°Ķå¤«": 5429,
      "æ³¢èİī": 5430,
      "èĤ¥çļĤ": 5431,
      "éĩĮçİ©èĢį": 5432,
      "é¢ĳ": 5433,
      "å¦Īå¦Īåľ¨": 5434,
      "åħľé£İ": 5435,
      "æĥ°": 5436,
      "éĤ£åıªå°ıé¸Ł": 5437,
      "æĩĴæĥ°": 5438,
      "ä»ĸä»¬çľĭåĪ°äºĨ": 5439,
      "æĪĳä»¬çİ°åľ¨": 5440,
      "éŁ³æľº": 5441,
      "ç¨Ģ": 5442,
      "è¯»ä¹¦": 5443,
      "åĴĸ": 5444,
      "ä»ĸä»¬çŁ¥éģĵ": 5445,
      "éħ¸å¥¶": 5446,
      "åħĭæĭīæĭī": 5447,
      "åĨįçİ©": 5448,
      "çģ«æŁ´": 5449,
      "å¢ĥ": 5450,
      "æ²Ļæĭī": 5451,
      "ç»ĻäºĨä»ĸä¸Ģä¸ªå¤§å¤§çļĦæĭ¥æĬ±": 5452,
      "ä¼¸åĩºæīĭ": 5453,
      "ç®ĢçĽ´ä¸įæķ¢çĽ¸ä¿¡èĩªå·±çļĦçľ¼çĿĽ": 5454,
      "åıĺæĪĲäºĨ": 5455,
      "å¥¹è¿«ä¸įåıĬå¾ħåľ°æĥ³": 5456,
      "åīįå¾Ģ": 5457,
      "æķ´é½Ĳ": 5458,
      "å¹²å¾Ĺå¥½": 5459,
      "å¥¹åĸľæ¬¢çİ©å¥¹çļĦçİ©åħ·": 5460,
      "å¥¥åĪ©": 5461,
      "å¾®å¾®ä¸Ģç¬ĳ": 5462,
      "é£ŀå¾Ĺ": 5463,
      "é»Ħæ²¹": 5464,
      "åĪ°æĿ¥": 5465,
      "å®ľ": 5466,
      "çĦ¶åĲİä»ĸä»¬ä¸Ģèµ·": 5467,
      "å°ıå®¶ä¼Ļ": 5468,
      "æĬĬä»ĸçļĦ": 5469,
      "æĮ¤": 5470,
      "åħ¬çīĽ": 5471,
      "çľĭçĿĢä»ĸ": 5472,
      "å¹¶ä¸Ķåĸľæ¬¢": 5473,
      "éĤ£åĿĹçŁ³å¤´": 5474,
      "äºĨè¿Ļä¸ª": 5475,
      "å®ĥéĥ½ä¼ļ": 5476,
      "èĢĥè¯ķ": 5477,
      "é¸¡èĽĭ": 5478,
      "èµĭ": 5479,
      "æ°´èĬ±": 5480,
      "æ»ĳæĿ¿è½¦": 5481,
      "«åŃĲ": 5482,
      "éļ¾ä»¥": 5483,
      "æ²³æµģ": 5484,
      "åŃ¦åĪ°äºĨä¸Ģä¸ªéĩįè¦ģçļĦ": 5485,
      "è¿Ł": 5486,
      "å¾Īåį±éĻ©": 5487,
      "è¿ĺåľ¨": 5488,
      "åĲĵäºĨä¸Ģ": 5489,
      "çįŃ": 5490,
      "æĶĢ": 5491,
      "åķ¡": 5492,
      "åĴĸåķ¡": 5493,
      "ä»ĸè·³": 5494,
      "æ£®æŀĹéĩĮæķ£æŃ¥": 5495,
      "çļĦèħ¿": 5496,
      "åģļæľĭåıĭ": 5497,
      "åĲįåı«èİīèİī": 5498,
      "è¢ľåŃĲ": 5499,
      "ä½Ĩä»ĸè¿ĺæĺ¯": 5500,
      "å¾Īè¿ľ": 5501,
      "æīĢæľīæľĭåıĭ": 5502,
      "åĸ·æ³ī": 5503,
      "åĲĵäºĨä¸Ģè·³": 5504,
      "çľŁæŃ£çļĦ": 5505,
      "å¹¶æİ¢ç´¢": 5506,
      "æĬĬæīĢæľīçļĦ": 5507,
      "ä¹Łå¾Īé«ĺåħ´": 5508,
      "åı¦ä¸Ģåıª": 5509,
      "é¦Ļåĳ³": 5510,
      "æĬĬå®ĥæĶ¾åľ¨": 5511,
      "æĥ³èµ·äºĨ": 5512,
      "åºĵ": 5513,
      "ä½Ĩå®ĥå¤ª": 5514,
      "éĩĳå±ŀ": 5515,
      "å¹¶æĬĬå®ĥä»¬": 5516,
      "èĮī": 5517,
      "ç¾ŀæĦ§": 5518,
      "åľ¨æĪ¿éĹ´éĩĮ": 5519,
      "éĿŀå¸¸éĩįè¦ģ": 5520,
      "ä½ĨæĪĳ": 5521,
      "å¥¹æĦŁåĪ°å¾Ī": 5522,
      "å¿«çļĦ": 5523,
      "è¯¥åĽŀå®¶çļĦæĹ¶åĢĻ": 5524,
      "æīĵå¼ĢçĽĴåŃĲ": 5525,
      "è¹Ī": 5526,
      "æľīä¸Ģä¸ªå°ıçĶ·åŃ©åı«": 5527,
      "éģĵçĲĨ": 5528,
      "åıĪå®³æĢķ": 5529,
      "æ¯Ľè¡£": 5530,
      "ä¸įå®¢æ°Ķ": 5531,
      "åĲĥé¥Ń": 5532,
      "ä¿¡å°ģ": 5533,
      "åĪĽæĦı": 5534,
      "ä»ĸä¸įçŁ¥éģĵ": 5535,
      "æłĭ": 5536,
      "æ¯ıå¤©ä»ĸéĥ½ä¼ļ": 5537,
      "åĿĲçĿĢ": 5538,
      "èĢĮä¸įæĺ¯": 5539,
      "çľŁæ¼Ĥäº®": 5540,
      "éĹªçĶµ": 5541,
      "ç§ĭåįĥä¸Ĭ": 5542,
      "æĳĺä¸ĭ": 5543,
      "æ©±æŁľ": 5544,
      "ä»ĸæĦŁåĪ°å¾Ī": 5545,
      "å¥¹çļĦæĪ¿éĹ´": 5546,
      "å±ı": 5547,
      "æī¾åĪ°äºĨä¸ĢäºĽ": 5548,
      "çħ®": 5549,
      "ä¹°ä¸ĢäºĽ": 5550,
      "çļĦäºĭçī©": 5551,
      "å¤´çĽĶ": 5552,
      "æıĲç±³çļĦ": 5553,
      "éĹŃä¸ĬäºĨ": 5554,
      "æµĵ": 5555,
      "çĽ´åĪ°ä»ĸ": 5556,
      "è¿ĲåĬ¨": 5557,
      "çŃīå¾ħçĿĢ": 5558,
      "ç£ģéĵģ": 5559,
      "ä¸įäºĨ": 5560,
      "å¥¹æĦŁè°¢äºĨ": 5561,
      "çĶ¨çļĦ": 5562,
      "æĥ³åĪ°ä¸Ģä¸ª": 5563,
      "èİīèİīä¸įæĥ³": 5564,
      "æĳĩçĿĢ": 5565,
      "å¯Ĩæĸ¯": 5566,
      "æ¸¸åİ»": 5567,
      "æĬĬå®ĥå¸¦åĽŀå®¶": 5568,
      "ç²¾ç¥ŀ": 5569,
      "çĮ©çĮ©": 5570,
      "åİ»æķ£æŃ¥": 5571,
      "èĿ´èĿ¶ç»ĵ": 5572,
      "å¥¹å°ıå¿ĥç¿¼ç¿¼åľ°": 5573,
      "åı²å¯Ĩæĸ¯": 5574,
      "ä»ĸå¸ĮæľĽ": 5575,
      "åıł": 5576,
      "å½ĵå¥¹åĪ°è¾¾": 5577,
      "æĺ¯æľĢ": 5578,
      "æ¯Ľåıĳ": 5579,
      "èĪŀåı°": 5580,
      "èĪŀè¹Ī": 5581,
      "äºĨæķĻè®Ń": 5582,
      "ç±³æ»": 5583,
      "éĤ£ä¸ªå¤§": 5584,
      "åĴĮä»ĸçļĦçĪ¸çĪ¸": 5585,
      "ç±³æ»ķ": 5586,
      "çļĦè·¯": 5587,
      "³èĨ": 5588,
      "æĭĻ": 5589,
      "ç½ļ": 5590,
      "åĨ°æ¿Ģ": 5591,
      "è¿Ļä¹Īåģļ": 5592,
      "ç¬¨æĭĻ": 5593,
      "ä»ĸä»¬ä¸ĢçĽ´": 5594,
      "æ¯ģäºĨ": 5595,
      "å¯»æī¾ä¸Ģä¸ª": 5596,
      "æķĻä»ĸ": 5597,
      "åıĭåĸĦçļĦ": 5598,
      "åľ¨å®¶éĩĮ": 5599,
      "çº¦ç¿°åĴĮ": 5600,
      "çĶµæ±ł": 5601,
      "é¥¥é¥¿": 5602,
      "ä¸Ģè¯ķ": 5603,
      "äººæİĮ": 5604,
      "ï¼ģâĢĿâĢľ": 5605,
      "åĺİ": 5606,
      "³èĨĬ": 5607,
      "æĥ³åĩºäºĨä¸Ģä¸ª": 5608,
      "æ£ĴçĲĥ": 5609,
      "ä»ĻäººæİĮ": 5610,
      "æĿ°çĳŀ": 5611,
      "è¸ıä¸Ĭ": 5612,
      "æıī": 5613,
      "çľĭçĿĢå¥¹": 5614,
      "¤èĶĵ": 5615,
      "å¥¹ç»ĻäºĨ": 5616,
      "è·Ŀ": 5617,
      "å°ģä¿¡": 5618,
      "ç±³æ»ķæĸ¯": 5619,
      "éĽı": 5620,
      "åı£é¦Ļ": 5621,
      "å¼ĹéĽ·è¿ª": 5622,
      "çļĦæĸ¹æ³ķ": 5623,
      "å¥¹çļĦåĵ¥åĵ¥": 5624,
      "è·ĳè¿Ľ": 5625,
      "éĹªéĹªåıĳåħīçļĦä¸ľè¥¿": 5626,
      "æ¸¯åı£": 5627,
      "æĥ³åĴĮ": 5628,
      "æĦŁè§īå¥½äºĽ": 5629,
      "åı£é¦Ļç³ĸ": 5630,
      "æĪĳå¸ĮæľĽ": 5631,
      "çĻ»": 5632,
      "Tweet": 5633,
      "åĨ°æ¿ĢåĩĮ": 5634,
      "çıįæĥľ": 5635,
      "çļĦåľ°": 5636,
      "ä»ĸæį¡èµ·": 5637,
      "å®ĩ": 5638,
      "èµ°åĪ°äºĨ": 5639,
      "é¡µ": 5640,
      "æ¸¸æĿ¥": 5641,
      "è°¦éĢĬ": 5642,
      "ä¹ĲäºİåĬ©äºº": 5643,
      "çľ¨çľ¼": 5644,
      "ä¸įå¹¸": 5645,
      "å°½å¤´": 5646,
      "æµ·è±¹": 5647,
      "åĿļåĽº": 5648,
      "ä»ĸè¿«ä¸įåıĬå¾ħåľ°æĥ³": 5649,
      "è½¨": 5650,
      "å°ıé©¬": 5651,
      "æĦŁåĪ°åħ´å¥ĭ": 5652,
      "éĴīåŃĲ": 5653,
      "ä½Ĩå·²ç»ıå¤ªæĻļäºĨ": 5654,
      "æĸ°å¥ĩ": 5655,
      "åĲīæĻ®": 5656,
      "åĵŃäºĨ": 5657,
      "è·Ŀç¦»": 5658,
      "è¶¾": 5659,
      "çļĦå°ıèĢģé¼ł": 5660,
      "å¥ĩå¦ĻçļĦ": 5661,
      "é©¬åħĭæĸ¯åĴĮ": 5662,
      "éĽ¨æ°´": 5663,
      "å¤ªéĺ³ä¸ĭå±±": 5664,
      "ny": 5665,
      "èİīèİīè§īå¾Ĺ": 5666,
      "è°ľ": 5667,
      "çĶ¨å®ĥæĿ¥": 5668,
      "å¥¹ä¸įæĥ³": 5669,
      "è¯ķä¸Ģè¯ķ": 5670,
      "ä»İéĤ£ä¸Ģå¤©": 5671,
      "éĴ©": 5672,
      "æıĲç±³è¯´": 5673,
      "æĹłå®³": 5674,
      "åĸĦèī¯åĴĮ": 5675,
      "çªĹå¸ĺ": 5676,
      "èĳĹåĲį": 5677,
      "çļĦé¢ľèī²": 5678,
      "è·ĳåĽŀäºĨ": 5679,
      "å¥¹åĸľæ¬¢åľ¨å¤ĸéĿ¢çİ©èĢį": 5680,
      "ĭèŁ": 5681,
      "å¥¹éľĢè¦ģ": 5682,
      "åľ¨éĩĮéĿ¢": 5683,
      "æľīä¸ĢæĬĬ": 5684,
      "æĪĲçļĦ": 5685,
      "çĶµçŃĴ": 5686,
      "ä»İåīįæľīä¸Ģä¸ªå°ıå¥³åŃ©åı«": 5687,
      "å¾Ĺè¶ĬæĿ¥è¶Ĭé«ĺ": 5688,
      "ĭèŁĢ": 5689,
      "åĪĹ": 5690,
      "å¥¹çļĦå¦Īå¦ĪåĳĬè¯īå¥¹": 5691,
      "æģĲæĥ§": 5692,
      "ä¸ĭå®ļåĨ³å¿ĥ": 5693,
      "åħīäºĨ": 5694,
      "æ²³éĩĮ": 5695,
      "äºĨä¸Ģä»½": 5696,
      "æ¡Ĩ": 5697,
      "çĽ¸æľº": 5698,
      "åĲµéĹ¹": 5699,
      "çļĦèĻ«åŃĲ": 5700,
      "çļĦçľ¼çĿĽ": 5701,
      "æīĵç®Ĺ": 5702,
      "åĽŀå®¶çļĦæĹ¶éĹ´": 5703,
      "ä»ĸä»¬éĥ½ä¼ļ": 5704,
      "ç»½": 5705,
      "æĸ°çļĦä¸ľè¥¿": 5706,
      "ä¸Ģèµ·çİ©åĲ§": 5707,
      "çĸ¯çĭĤ": 5708,
      "åĴĮèĩªè±ª": 5709,
      "åĨįåĽŀæĿ¥": 5710,
      "ç³Ĭ": 5711,
      "æĶ¯æĮģ": 5712,
      "çļĦèĥĮ": 5713,
      "å¼Ģå§ĭæĦŁåĪ°": 5714,
      "æħķ": 5715,
      "ä¿¡æģ¯": 5716,
      "æİīäºĨä¸ĭæĿ¥": 5717,
      "äº«çĶ¨äºĨ": 5718,
      "éĹŃä¸ĬäºĨçľ¼çĿĽ": 5719,
      "è¿Ļä»½": 5720,
      "åĬ³": 5721,
      "å¿«çĤ¹": 5722,
      "çŃı": 5723,
      "é²įåĭĥåĴĮ": 5724,
      "æĶ¶åĪ°": 5725,
      "å¼Ģå§ĭåĵŃäºĨ": 5726,
      "éĵ²åŃĲ": 5727,
      "åĩºçİ°åľ¨": 5728,
      "åĲ¸åıĸäºĨæķĻè®Ń": 5729,
      "çļĦèĢģ": 5730,
      "è¿Ļè®©ä»ĸ": 5731,
      "ç¬Ķè®°æľ¬": 5732,
      "ä¸įéĶĻ": 5733,
      "ç±³é¡¿": 5734,
      "æ²³é©¬": 5735,
      "ç²¾èĩ´": 5736,
      "éĢĴç»Ļ": 5737,
      "è¿Ļæľ¬ä¹¦": 5738,
      "è¦Ĩ": 5739,
      "ä»ĸä»¬ç¬ĳçĿĢ": 5740,
      "å¹½": 5741,
      "æľīä¸Ģåıªå°ıé¸Ł": 5742,
      "åĨ°åĨ·": 5743,
      "çİĽä¸½äºļ": 5744,
      "çļĦçĪ¶æ¯į": 5745,
      "ç²īèī²çļĦ": 5746,
      "æľīä»Ģä¹Īä¸ľè¥¿": 5747,
      "è¯¢": 5748,
      "æĿ¾é¥¼": 5749,
      "çī¡": 5750,
      "ä¸Ģå¼Ģå§ĭ": 5751,
      "éªĳèĩªè¡Įè½¦": 5752,
      "åĸ³": 5753,
      "é©¯": 5754,
      "èĽİ": 5755,
      "è¶Ĭé«ĺ": 5756,
      "éĹ¨åı£": 5757,
      "ç²īçº¢èī²": 5758,
      "çī¡èĽİ": 5759,
      "æķĻå®¤": 5760,
      "èıĬ": 5761,
      "èİīèİīåĴĮæ±¤å§Ĩ": 5762,
      "éĿłè¿ĳæĹ¶": 5763,
      "è®²è¿°": 5764,
      "åľĨåľĪ": 5765,
      "å½ĵä»ĸä»¬åĪ°è¾¾æĹ¶": 5766,
      "éĴ¢çĲ´": 5767,
      "ç»½æĶ¾": 5768,
      "å¤§é±¼": 5769,
      "åħ¬å¹³": 5770,
      "çļĦæĪ¿éĹ´": 5771,
      "èİīèİīåĨ³å®ļ": 5772,
      "å¹¶å°Ĩ": 5773,
      "æĳĶåĢĴ": 5774,
      "æµ´å®¤": 5775,
      "åİ»åģļ": 5776,
      "å¹¶ä¸Ģèµ·": 5777,
      "è·³ä¸ĭ": 5778,
      "èĴĤå§ĨçļĦå¦Īå¦Ī": 5779,
      "è¢ĭåŃĲéĩĮ": 5780,
      "åº¦è¿ĩäºĨç¾İå¥½çļĦä¸Ģå¤©": 5781,
      "åĽºæī§": 5782,
      "æĥ©": 5783,
      "ä¼łæĿ¥ä¸Ģä¸ªå£°éŁ³": 5784,
      "ä¸Ģäºº": 5785,
      "ä»ĸä¸įåģľåľ°": 5786,
      "å¤©ä¸Ĭ": 5787,
      "çħ¤": 5788,
      "æĸĩä»¶å¤¹": 5789,
      "éĽıèıĬ": 5790,
      "ä¸Ģä¸ªæĥĬåĸľ": 5791,
      "èµ°æĿ¥": 5792,
      "æĤĶ": 5793,
      "å£¶": 5794,
      "æ°´çįŃ": 5795,
      "æ¶Īæģ¯": 5796,
      "ç²¾å½©": 5797,
      "æ½ľ": 5798,
      "çĤ¹ä¸ľè¥¿": 5799,
      "ä¾¿å®ľ": 5800,
      "çļĦä¸ĸçķĮ": 5801,
      "åħ¸": 5802,
      "åĴĮåħ´å¥ĭ": 5803,
      "åĲĥæĻļé¥Ń": 5804,
      "çĦĻ": 5805,
      "æĽ´å¥½çļĦ": 5806,
      "å¼Ħä¸¢äºĨ": 5807,
      "æ¢¦è§ģ": 5808,
      "å¹²åĩĢäºĨ": 5809,
      "çĥĺçĦĻ": 5810,
      "æĥ©ç½ļ": 5811,
      "çļĦçŁ³å¤´": 5812,
      "çŁ¥éģĵèĩªå·±å¿ħé¡»": 5813,
      "çĥŁèĬ±": 5814,
      "å¥¹çľĭåĪ°äºĨä¸Ģåıª": 5815,
      "å®ĥäºĨ": 5816,
      "éĤ£æľµ": 5817,
      "åīįè¿Ľ": 5818,
      "ç¬¬ä¸Ģä¸ª": 5819,
      "çĥ¦æģ¼": 5820,
      "å¾Ĺå¤ļ": 5821,
      "è¿¹": 5822,
      "èİīèİīåĴĮå¥¹çļĦ": 5823,
      "å¹¶åĳĬè¯ī": 5824,
      "å¿ĻçĿĢ": 5825,
      "çĥ«": 5826,
      "åĲīæĻ®è½¦": 5827,
      "äºĨè¿ĩæĿ¥": 5828,
      "å¼Ģå¿ĥåıĪ": 5829,
      "åĲĵå¾Ĺ": 5830,
      "é¡¶éĥ¨": 5831,
      "æŁĲä¸ª": 5832,
      "åĬ²": 5833,
      "çĲª": 5834,
      "æĻ´": 5835,
      "èľ¥èľ´": 5836,
      "å°ıå¥³åŃ©è¯´": 5837,
      "çĲ³": 5838,
      "æĭ¿èµ·äºĨ": 5839,
      "çļĦä¹¦": 5840,
      "å®ĥæĥ³è¦ģ": 5841,
      "é©¯é¹¿": 5842,
      "äºĪ": 5843,
      "ä¸Ģæľµ": 5844,
      "å®ĥåĨ³å®ļ": 5845,
      "éĤ£æľµèĬ±": 5846,
      "åĨ¬": 5847,
      "ä»İéĤ£ä¸Ģå¤©èµ·": 5848,
      "é«ĺå¤§": 5849,
      "ç¾¡": 5850,
      "èľ·": 5851,
      "å¤±åİ»äºĨ": 5852,
      "çļĦåħĶåŃĲ": 5853,
      "ç¾¡æħķ": 5854,
      "ä»ĸè¯´éģĵ": 5855,
      "æ»ĳæ¢¯ä¸Ĭ": 5856,
      "çģ°èī²çļĦ": 5857,
      "ĬåŃĲ": 5858,
      "åľ¨è·¯ä¸Ĭ": 5859,
      "æĥ¹": 5860,
      "å¯¹ä»ĸçļĦ": 5861,
      "çļĦäºĭæĥħåıĳçĶŁäºĨ": 5862,
      "èĤł": 5863,
      "é»ĳèī²": 5864,
      "åģļäºĽä»Ģä¹Ī": 5865,
      "åľ¨æĦı": 5866,
      "èĲ½åľ¨": 5867,
      "èµ°åķĬ": 5868,
      "æ··åĲĪåľ¨ä¸Ģèµ·": 5869,
      "æĮ¥äºĨæĮ¥æīĭ": 5870,
      "ä»ĸä»¬æŃ£åľ¨": 5871,
      "è®©å¦Īå¦Ī": 5872,
      "åķ¾": 5873,
      "æ¬£åĸľ": 5874,
      "å¥¹æĭ¥æĬ±äºĨ": 5875,
      "å°ıå±ĭ": 5876,
      "çģ«å±±": 5877,
      "æĺ¾å¾Ĺ": 5878,
      "ä»ĸä»¬ä¸Ģèµ·çİ©èĢį": 5879,
      "æ´Ĺç¢Ĺ": 5880,
      "æĦŁåĪ°å®īåħ¨": 5881,
      "åĽŀå¤´": 5882,
      "åĲĮæĥħ": 5883,
      "èļ¤": 5884,
      "çļĦçĲĥ": 5885,
      "ä¸Ģæ¬¡åıĪä¸Ģæ¬¡": 5886,
      "èĵĿèİĵ": 5887,
      "å¥ĸæĿ¯": 5888,
      "çļĦæĸ¹å¼ı": 5889,
      "æĶ¾ä¸ĭ": 5890,
      "çĪ¬åĪ°äºĨ": 5891,
      "ç²īç¬Ķ": 5892,
      "éģĹ": 5893,
      "è·³èļ¤": 5894,
      "å®ĮäºĨ": 5895,
      "åĴĮä»ĸçļĦæľĭåıĭ": 5896,
      "è§Ĩé¢ĳ": 5897,
      "æ³³æ±ł": 5898,
      "æĬĬè¿Ļä¸ª": 5899,
      "å½ĵä»ĸåĪ°è¾¾": 5900,
      "è½¦åºĵ": 5901,
      "è¿ĺç»ĻäºĨ": 5902,
      "æ²¡æľīæĶ¾å¼ĥ": 5903,
      "å¹¸ç¦ıåľ°çĶŁæ´»åľ¨ä¸Ģèµ·": 5904,
      "åĲĳåīį": 5905,
      "å¥¹èµ°åĪ°": 5906,
      "èİīèİīåĴĮé©¬åħĭæĸ¯": 5907,
      "æ¸¸æĿ¥æ¸¸åİ»": 5908,
      "çİ©ä»ĸçļĦ": 5909,
      "æĪĳä»¬å¾Ĺ": 5910,
      "ç®¡çĲĨ": 5911,
      "æĺ¯ä»Ģä¹ĪæĦıæĢĿ": 5912,
      "å¥¹åĴĮå¦Īå¦Ī": 5913,
      "å¤§æĪ¿åŃĲéĩĮ": 5914,
      "æĦıå¤ĸ": 5915,
      "æµ·è¾¹": 5916,
      "ä¿®å¥½å®ĥ": 5917,
      "ä¸Ģå®¶äºº": 5918,
      "ç»ĵå©ļ": 5919,
      "æĳ¸äºĨ": 5920,
      "åĵĪåĪ©": 5921,
      "äºİæĺ¯å¼Ģå§ĭ": 5922,
      "¹é¼ł": 5923,
      "ĹæĺŁ": 5924,
      "å½ĹæĺŁ": 5925,
      "æ±ī": 5926,
      "é¼¹é¼ł": 5927,
      "è§£éĩĬéģĵ": 5928,
      "è¿Ļæ£µ": 5929,
      "å¾Ĺå¤ªå¿«äºĨ": 5930,
      "èİīèİīæĦŁåĪ°": 5931,
      "æĳĩçĿĢå°¾å·´": 5932,
      "è·ĳåķĬ": 5933,
      "çļĦå¤§æłĳ": 5934,
      "å°Ĭéĩį": 5935,
      "ä»ĸå·²ç»ı": 5936,
      "ä»Ģä¹ĪåĲįåŃĹ": 5937,
      "è±¹": 5938,
      "æĤ¬": 5939,
      "çİ©ç¬ĳ": 5940,
      "åĴĮå°ıé¸Ł": 5941,
      "æľīä¸Ģä¸ªå°ı": 5942,
      "è¯Ĺ": 5943,
      "èį·": 5944,
      "æĶ¶éŁ³æľº": 5945,
      "å¸¦çĿĢå®ĥ": 5946,
      "é¦ĻèĤł": 5947,
      "å¹¿éĺĶ": 5948,
      "èĮīèİī": 5949,
      "ï¼Ľ": 5950,
      "èĴĤç±³è¯´": 5951,
      "ä¸Ģé¡¶": 5952,
      "ä»ĸçĶļèĩ³": 5953,
      "ä¸įå±ŀäºİ": 5954,
      "åıªéľĢè¦ģ": 5955,
      "å¥¹æĥ³èµ·äºĨ": 5956,
      "æłĩè®°": 5957,
      "éĻĭ": 5958,
      "å¥¹è·ĳåĪ°": 5959,
      "æĺ¯åĲ¦æĥ³": 5960,
      "æĺ¯ä¸Ģä½į": 5961,
      "åĪ°å¤ĸéĿ¢åİ»": 5962,
      "éļĲèĹı": 5963,
      "ä»ĸä»¬éľĢè¦ģ": 5964,
      "è¿Ļä¸ªæ¸¸æĪı": 5965,
      "ä¿ĿæĮģå¹³è¡¡": 5966,
      "èİīèİīçŁ¥éģĵ": 5967,
      "æķ°æķ°": 5968,
      "æ´ŀç©´éĩĮ": 5969,
      "å£ģçĤī": 5970,
      "ä¸Ģéģĵ": 5971,
      "æŃ£åĩĨå¤ĩ": 5972,
      "åĿıäºº": 5973,
      "çº¸ä¸Ĭ": 5974,
      "æĺ¯åľ¨": 5975,
      "æ²Ļåıĳä¸Ĭ": 5976,
      "éĿŀå¸¸å°ıå¿ĥ": 5977,
      "å¥½çİ©": 5978,
      "åľ¨åĽŀå®¶çļĦè·¯ä¸Ĭ": 5979,
      "è¿ĻèīĺèĪ¹": 5980,
      "å½©èī²": 5981,
      "å¥½å¥ĩå¿ĥ": 5982,
      "æ©Ļèī²çļĦ": 5983,
      "æķħäºĭç»ĵæĿŁäºĨ": 5984,
      "åľ°è¯´éģĵ": 5985,
      "å¤ļå½©": 5986,
      "éĤ£åıªèĿ´èĿ¶": 5987,
      "è¿Ļæĺ¯æĪĳ": 5988,
      "èĦ¾æ°Ķæļ´èºģ": 5989,
      "ä»ĸä¸īå²ģäºĨ": 5990,
      "æ¬£èµıçĿĢ": 5991,
      "å¤§éĹ¨": 5992,
      "æ¯Ķä»¥åīį": 5993,
      "åĺ²": 5994,
      "æ¨ª": 5995,
      "éĤ®ç¥¨": 5996,
      "åıīåŃĲ": 5997,
      "ç§¤": 5998,
      "æľīä¸Ģåıªå°ı": 5999,
      "éª¡": 6000,
      "èĪ¹ä¸Ĭ": 6001,
      "æĪĲä¸ºæľĭåıĭ": 6002,
      "æ±¤å§ĨåĴĮèİīèİī": 6003,
      "å¥³çİĭ": 6004,
      "åĳĨ": 6005,
      "æ¼Ĥäº®çļĦè£ĻåŃĲ": 6006,
      "å®ĥçľĭèµ·æĿ¥å¾Ī": 6007,
      "æĪĳåı«": 6008,
      "èµ°è¿ĩ": 6009,
      "æķ²éĹ¨": 6010,
      "ç¯®åŃĲéĩĮ": 6011,
      "ä¸įæĺİçĻ½ä¸ºä»Ģä¹Ī": 6012,
      "å·®": 6013,
      "çļĦå°ıçĨĬ": 6014,
      "èģĭ": 6015,
      "åıĳçİ°äºĨä¸Ģä¸ªå¤§": 6016,
      "ä½ĨæľĢç»Ī": 6017,
      "æľĢå¤§çļĦ": 6018,
      "åĽ¾çĶ»": 6019,
      "äºĴçĽ¸å¸®åĬ©": 6020,
      "ç¬ĳä¸ªä¸įåģľ": 6021,
      "éª¡åŃĲ": 6022,
      "âĢ¦": 6023,
      "çİ©åĲ§": 6024,
      "åı¯ä»¥åĲĥ": 6025,
      "æ¯Ľç»Ĵ": 6026,
      "å¼łå¼Ģ": 6027,
      "åħ¥çĿ¡": 6028,
      "ç¨Ģæľī": 6029,
      "ä¸´": 6030,
      "å¤©èµĭ": 6031,
      "çİ©äºĨä¸Ģä¼ļåĦ¿": 6032,
      "è·ĳåĪ°äºĨ": 6033,
      "çļĦèģ": 6034,
      "è¿ľäºĨ": 6035,
      "çĽ¾": 6036,
      "è¿ĺåĸľæ¬¢": 6037,
      "è¦ĨçĽĸ": 6038,
      "èľ·ç¼©": 6039,
      "å¥¹èĥ½": 6040,
      "ä»ĸä»¬æĥ³è¦ģ": 6041,
      "è±ĨåŃĲ": 6042,
      "Ħæ¦": 6043,
      "æĺ¯æĪĳ": 6044,
      "åĲİæĤĶ": 6045,
      "æ·¡": 6046,
      "æħĮ": 6047,
      "åľ¨åħ¬åĽŃéĩĮæķ£æŃ¥": 6048,
      "æ©Ħæ¦": 6049,
      "éĽ·å£°": 6050,
      "èģªæĺİçļĦèĢģ": 6051,
      "æ©Ħæ¦Ħ": 6052,
      "èĴĤå¨ľ": 6053,
      "å¼ĦåĿı": 6054,
      "æľĽåĲĳ": 6055,
      "æ¿Ģåħī": 6056,
      "çİĽåĲī": 6057,
      "ä¸ºä»Ģä¹Īä¸į": 6058,
      "æĪ´ä¸ĬäºĨ": 6059,
      "çİĭåĽ½": 6060,
      "çĹĽèĭ¦": 6061,
      "ä¼¯": 6062,
      "æľīä¸Ģä¸ªå¥³åŃ©": 6063,
      "çĶ»ä½ľ": 6064,
      "åħ³ä¸ĬäºĨ": 6065,
      "æŀ¶åŃĲä¸Ĭ": 6066,
      "éĽªåľ°éĩĮ": 6067,
      "å¢Ļå£ģ": 6068,
      "çļĦå°ıåŃ©": 6069,
      "å·´åħ¹": 6070,
      "æĮ¥æīĭéģĵåĪ«": 6071,
      "åľ¨ä¸Ģçīĩ": 6072,
      "åħ¬äº¤": 6073,
      "ä»ĸåıªæľīä¸īå²ģ": 6074,
      "ä¼ģ": 6075,
      "çľ¼æ³ª": 6076,
      "ä»ĸåıĳçİ°äºĨä¸Ģ": 6077,
      "ä»ĸä»¬åİ»": 6078,
      "èĬ¹": 6079,
      "æ®¿": 6080,
      "åĩłå¤©åĲİ": 6081,
      "ä½łäºĨ": 6082,
      "å°±è¿Ļæł·": 6083,
      "æŀľå®ŀ": 6084,
      "çĶ»äºĨä¸Ģ": 6085,
      "ä¸İä¼Ĺ": 6086,
      "åı«ä»Ģä¹ĪåĲįåŃĹ": 6087,
      "æ³½": 6088,
      "ä¸Ģå¤©æĹ©æĻ¨": 6089,
      "æ±¤å§ĨçļĦ": 6090,
      "æµĩæ°´": 6091,
      "åĲ¯": 6092,
      "æıĲçĲ´": 6093,
      "æĭįæīĵ": 6094,
      "éĺ³åħīæĺİåªļçļĦæĹ¥åŃĲéĩĮ": 6095,
      "åįİå¤«": 6096,
      "æ¢³åŃĲ": 6097,
      "çİ©å¾Ĺå¤ª": 6098,
      "éº¦åħĭ": 6099,
      "ä»ĸä¸º": 6100,
      "é¼ĵèµ·": 6101,
      "è®°å½ķ": 6102,
      "è®¨åİĮ": 6103,
      "æĥ³åĪ°äºĨä¸Ģä¸ªä¸»æĦı": 6104,
      "äºĨä¸ĢåľĪ": 6105,
      "éĿ¢å¸¦": 6106,
      "å¾®é£İ": 6107,
      "æ°´æ¯į": 6108,
      "ä¸ĢåĲį": 6109,
      "å®ĥåĲĹ": 6110,
      "å¹¶éĹ®": 6111,
      "åı«å£°": 6112,
      "éķ¿çĿĢ": 6113,
      "æľ±èİī": 6114,
      "éģµå®Ī": 6115,
      "èĬ¹èıľ": 6116,
      "äºĨä¸įèµ·": 6117,
      "å¥¹è·ĳåĲĳ": 6118,
      "åķ¦": 6119,
      "æł¼å¤ĸ": 6120,
      "åĲĲåı¸": 6121,
      "åįİå¤«é¥¼": 6122,
      "éĤ£æ£µ": 6123,
      "å¯»æī¾é£Łçī©": 6124,
      "èİīèİīçļĦå¦Īå¦ĪåĳĬè¯īå¥¹": 6125,
      "çİ©çļĦæĹ¶åĢĻ": 6126,
      "çĿ¡è§īäºĨ": 6127,
      "çģµæ´»": 6128,
      "è¿Ļåı°": 6129,
      "èİīèİīå¾Īå¼Ģå¿ĥ": 6130,
      "æĬ±äºĨæĬ±": 6131,
      "èİīèİīåĴĮå¥¹çļĦæľĭåıĭä»¬": 6132,
      "åĩ¶çĮĽ": 6133,
      "åĴĮå¥¹å¦Īå¦Ī": 6134,
      "ä¼½": 6135,
      "ç®±éĩĮ": 6136,
      "è¿Ļæł·ä»ĸ": 6137,
      "å¹¶æĥ³è¦ģ": 6138,
      "çĶ¨å¥¹çļĦ": 6139,
      "ä¸ĽæŀĹéĩĮ": 6140,
      "ä½Ĩå½ĵå¥¹": 6141,
      "å¥½åĥı": 6142,
      "åĵİ": 6143,
      "çļĦè£ħ": 6144,
      "è¯¢éĹ®": 6145,
      "ä»ĸä»¬å¾Īå¼Ģå¿ĥ": 6146,
      "åĳ¼åĲ¸": 6147,
      "éĩİçĶŁ": 6148,
      "è¸ıä¸ĬäºĨ": 6149,
      "ľä¼½": 6150,
      "æĸ½": 6151,
      "çī©é¦Ĩ": 6152,
      "æĢİä¹Īæł·": 6153,
      "åįļçī©é¦Ĩ": 6154,
      "çľĭåİ»": 6155,
      "ç»ĵäº¤": 6156,
      "çĳľä¼½": 6157,
      "ä¸įå¼Ģå¿ĥ": 6158,
      "æĮ¥èĪŀ": 6159,
      "åĵįäº®çļĦ": 6160,
      "çģĮæľ¨ä¸Ľä¸Ń": 6161,
      "æģ¶å¿ĥ": 6162,
      "è·³è¿ĽäºĨ": 6163,
      "åħ´å¥ĭäºĨ": 6164,
      "éĶļ": 6165,
      "çħ§èĢĢ": 6166,
      "ä»ĸä»¬ä¸¤ä¸ª": 6167,
      "èİīèİīå¾Īéļ¾è¿ĩ": 6168,
      "ç¼ĺ": 6169,
      "å®«æ®¿": 6170,
      "ä»ĸå°ıå¿ĥç¿¼ç¿¼åľ°": 6171,
      "é«ĺåıĪ": 6172,
      "æķĳæĬ¤": 6173,
      "é£ŀä¸ĭæĿ¥": 6174,
      "çĶµæ¢¯": 6175,
      "çĦ¦èĻĳ": 6176,
      "å®ĥä»¬çļĦ": 6177,
      "å¥¹ç»§ç»Ń": 6178,
      "æ¯ıå½ĵå¥¹": 6179,
      "æĸ°å®¶": 6180,
      "ä¿ĿåŃĺ": 6181,
      "å°Ŀè¯ķæĸ°äºĭçī©": 6182,
      "ä»ĸä»¬ä¸Ģèµ·çİ©å¾Ĺå¾Īå¼Ģå¿ĥ": 6183,
      "å¼Ģåħ³": 6184,
      "åİĤ": 6185,
      "ä½Ĩæİ¥çĿĢ": 6186,
      "ä½łæĥ³è¦ģ": 6187,
      "åįķè¯į": 6188,
      "è°Īè®º": 6189,
      "æĤĦæĤĦ": 6190,
      "ä¸įå¹¸çļĦæĺ¯": 6191,
      "ck": 6192,
      "ä»ĸèµ°åĪ°": 6193,
      "å°º": 6194,
      "éĿŀå¸¸æ»¡æĦı": 6195,
      "éĿ¢åħ·": 6196,
      "åĽŀå®¶æĹ¶": 6197,
      "è¿Ļæŀļ": 6198,
      "äºĨä¸Ģç§į": 6199,
      "çĦ¶åĲİåıĪ": 6200,
      "ç§ĥå¤´": 6201,
      "åı¯ä»¥çļĦ": 6202,
      "äºİæĺ¯ä»ĸåĨ³å®ļ": 6203,
      "åħ´å¥ĭå¾Ĺ": 6204,
      "æİīä¸ĭæĿ¥": 6205,
      "å±ĭåŃĲéĩĮ": 6206,
      "æĮĩåĲĳ": 6207,
      "è¿·äºº": 6208,
      "æłĩå¿Ĺ": 6209,
      "èĵ": 6210,
      "èĺĳèıĩ": 6211,
      "åĽŀåĪ°å±ĭéĩĮ": 6212,
      "å®ĮæĪĲæĹ¶": 6213,
      "åħ¬äº¤è½¦": 6214,
      "æĿ¥æĭľè®¿": 6215,
      "å®ĥèĥ½": 6216,
      "èĿĩ": 6217,
      "ä¼ģé¹ħ": 6218,
      "äºĨåĲĹ": 6219,
      "ä»ĸåĳĬè¯ī": 6220,
      "éľį": 6221,
      "äº®äºĨèµ·æĿ¥": 6222,
      "åģľäºĨ": 6223,
      "æĮĳæĪĺ": 6224,
      "å¥½å¿ĥ": 6225,
      "æīĭæľº": 6226,
      "çĽ´åįĩ": 6227,
      "ä¼¤åĪ°äºĨ": 6228,
      "åĬŀåħ¬": 6229,
      "åĪ°å¤ĸéĿ¢çİ©": 6230,
      "è¾£æ¤Ĵ": 6231,
      "ä»ĸä»¬ä¹Ł": 6232,
      "ä¸ĭèµ·äºĨ": 6233,
      "å¼Ħæ¸ħæ¥ļ": 6234,
      "éŁ³ä¹Ĳå®¶": 6235,
      "çĸ¼çĹĽ": 6236,
      "èİīèİīæĬĬ": 6237,
      "é©¬ä¸Ĭ": 6238,
      "æĪĳçļĦçİ©åħ·": 6239,
      "é£ŀè¡Įåĳĺ": 6240,
      "è¿Ļæľµ": 6241,
      "çľĭä¸įåĪ°": 6242,
      "èİīèİīå¯¹": 6243,
      "æł¹æľ¬": 6244,
      "çī©ä½ĵ": 6245,
      "æıĲåĩº": 6246,
      "æ¸¸èīĩ": 6247,
      "é©¬åħĭæĸ¯è¯´": 6248,
      "å®ĥçļĦæľĭåıĭä»¬": 6249,
      "èŁĭèŁĢ": 6250,
      "æĶ¾åĽŀäºĨ": 6251,
      "æ·±å¤Ħ": 6252,
      "åĽŀæĿ¥æĹ¶": 6253,
      "å¤¹åħĭ": 6254,
      "åĴĮçİ©åħ·": 6255,
      "å¤§åı«": 6256,
      "æĭĲ": 6257,
      "ä¸ĭä¸Ģæ¬¡": 6258,
      "éĺ±": 6259,
      "çĽ´æİ¥": 6260,
      "éĻ·éĺ±": 6261,
      "çİ©èĢįäºĨ": 6262,
      "å¸®åĬ©å®ĥ": 6263,
      "ç²īçº¢èī²çļĦ": 6264,
      "Sa": 6265,
      "ç§Ł": 6266,
      "ä¸ºå¥¹çļĦ": 6267,
      "æ¸ħæ´ģ": 6268,
      "æĦŁè§īå¥½ä¸ĢäºĽ": 6269,
      "ç«ŀ": 6270,
      "æĳ¸äºĨæĳ¸": 6271,
      "ä½łçŁ¥éģĵ": 6272,
      "åĸľæ¬¢åľ¨å¤ĸéĿ¢çİ©èĢį": 6273,
      "ä¸ĢåĽ¢ç³Ł": 6274,
      "çļĦèĥ¡èĲĿåįľ": 6275,
      "æķĳæĬ¤è½¦": 6276,
      "ä»Ģä¹Īæĺ¯": 6277,
      "æľŁå¾ħçĿĢ": 6278,
      "åıĺåĮĸ": 6279,
      "æĭ¼åĳ½": 6280,
      "çº¢çĲĥ": 6281,
      "æĺ¯æĪĳçļĦ": 6282,
      "æĺ¯ä¸ºäºĨ": 6283,
      "èī¾æ¯Ķ": 6284,
      "æĪĳä»¬åı¯ä»¥ä¸Ģèµ·": 6285,
      "çļĦè¡£æľį": 6286,
      "å¥¹æ²¡æľī": 6287,
      "æĸ°çļĦåľ°æĸ¹": 6288,
      "ç³Ļ": 6289,
      "å¼Ĥ": 6290,
      "åĪĽä½ľ": 6291,
      "ä»İæŃ¤ä»¥åĲİ": 6292,
      "å¥¹ä¸įçŁ¥éģĵ": 6293,
      "æľºåľº": 6294,
      "æ¼Ĥäº®çļĦèĬ±": 6295,
      "æĸŃäºĨ": 6296,
      "æī¶æīĭ": 6297,
      "å¥¹åħ´å¥ĭåľ°": 6298,
      "ä¸Ģåıªå°ı": 6299,
      "æ¯ıå¤©æĹ©ä¸Ĭ": 6300,
      "è®°ä½ıäºĨ": 6301,
      "éĻĦè¿ĳçļĦä¸Ģ": 6302,
      "Timmy": 6303,
      "æĪĳä»¬è¦ģ": 6304,
      "æ°´æīĭ": 6305,
      "å¤ĦçĲĨ": 6306,
      "åºĨå¹¸": 6307,
      "æľīä¸Ģä¸ªéĿŀå¸¸": 6308,
      "è¿Ļæł·å¥¹": 6309,
      "èµ°äºĨè¿Ľåİ»": 6310,
      "èĹ¤èĶĵ": 6311,
      "çķĻçĿĢ": 6312,
      "åº¦è¿ĩäºĨä¸Ģæ®µç¾İå¥½çļĦæĹ¶åħī": 6313,
      "æķĻå¥¹å¦Ĥä½ķ": 6314,
      "åŁİåł¡éĩĮ": 6315,
      "é«ĺçļĦ": 6316,
      "è®©å®ĥä»¬": 6317,
      "è¿İæİ¥": 6318,
      "ä¸ĳéĻĭ": 6319,
      "ĩåı": 6320,
      "åĸĩåı": 6321,
      "èĢ¶": 6322,
      "éģĩåĪ°äºĨä¸Ģä½į": 6323,
      "åĬŀåħ¬å®¤": 6324,
      "åĸĩåıŃ": 6325,
      "å±ķå¼Ģ": 6326,
      "éĢĥè·ĳäºĨ": 6327,
      "çĽ®æłĩ": 6328,
      "äº§": 6329,
      "ä»ĸä»¬æĭ¥æĬ±": 6330,
      "éĺ¿æ¯Ķ": 6331,
      "èµ°åķĬèµ°": 6332,
      "å¥¹æĬĬå®ĥ": 6333,
      "é©¬åħĭæĸ¯çļĦ": 6334,
      "æĪĲä¸ºäºĨæľĢå¥½çļĦæľĭåıĭ": 6335,
      "ä»ĸè·ĳåĪ°": 6336,
      "å°ıåģ·": 6337,
      "è¿Ļå¤´": 6338,
      "å¦Īå¦ĪæĬĬ": 6339,
      "å¹¶åĳĬè¯īå¥¹": 6340,
      "åĲİéĢĢ": 6341,
      "å¸¦åĽŀ": 6342,
      "æĳĩæĳĨ": 6343,
      "ç²Ĺç³Ļ": 6344,
      "åĲ±": 6345,
      "ä»ĸçļĦå¦Īå¦Īå¾®ç¬ĳçĿĢè¯´": 6346,
      "æľ¨çŃı": 6347,
      "æĴŀåĪ°äºĨ": 6348,
      "çľĭåĪ°ä¸Ģä¸ªå¤§": 6349,
      "å¸¦åĪ°äºĨ": 6350,
      "è£ħè¿Ľ": 6351,
      "é¹¤": 6352,
      "å¹¶ä¸İ": 6353,
      "åİ»äºĨæµ·æ»©": 6354,
      "çĵ£": 6355,
      "å¤§å£°åĸĬéģĵ": 6356,
      "å¥¹çĶļèĩ³": 6357,
      "ä½Ĩå¥¹è¿ĺæĺ¯": 6358,
      "è¶ħçº§": 6359,
      "å±ıå¹ķ": 6360,
      "åĽŀæĬ¥": 6361,
      "æĦŁè§īéĿŀå¸¸": 6362,
      "æĦŁåĪ°å¾Īåħ´å¥ĭ": 6363,
      "ç¬¬ä¸Ģæ¬¡": 6364,
      "é¸ŁåĦ¿ä»¬": 6365,
      "er": 6366,
      "çĬĢ": 6367,
      "èľĤå·¢": 6368,
      "åħħæ»¡äºĨåĸľæĤ¦": 6369,
      "ä½Ĩå¦Īå¦Īè¯´": 6370,
      "æķĪ": 6371,
      "è¾¹ç¼ĺ": 6372,
      "å¼ĵ": 6373,
      "ç¬Ĩ": 6374,
      "åĨ·éĿĻ": 6375,
      "çİĭåĨł": 6376,
      "èĥ¶å¸¦": 6377,
      "ç¯±ç¬Ĩ": 6378,
      "æľīä¸Ģå¤´": 6379,
      "ä¼ļå¾Īæľīè¶£": 6380,
      "æıĴ": 6381,
      "ãĢĤâĢĻâĢĺ": 6382,
      "æĬ¥çº¸": 6383,
      "çľīå¤´": 6384,
      "ä½Ľ": 6385,
      "çī¹å¨ģ": 6386,
      "åıĮèĩĤ": 6387,
      "ä»ĸçļĦä¸»äºº": 6388,
      "çĶ¨èĩªå·±çļĦ": 6389,
      "å¤ĸåĩº": 6390,
      "èĤ¯": 6391,
      "çĬĢçīĽ": 6392,
      "å¿½": 6393,
      "æľīä¸Ģæ£µ": 6394,
      "éĤ£æĿ¡é±¼": 6395,
      "ä»ĸä»¬çľĭåĪ°äºĨä¸Ģ": 6396,
      "ç»·": 6397,
      "æ¸Ķå¤«": 6398,
      "ä¸ĢæĶ¯": 6399,
      "åľ¨æłĳ": 6400,
      "åĴĮå°ı": 6401,
      "ä¸įåı¯": 6402,
      "ä½Ĩçİ°åľ¨": 6403,
      "æĦŁåĪ°éĿŀå¸¸æ»¡æĦı": 6404,
      "æ¶²": 6405,
      "å¥ĸåĵģ": 6406,
      "æľīå¤ļä¹Ī": 6407,
      "æĪĳå°±": 6408,
      "éĤ£å¤©ç¨į": 6409,
      "åľ¨éĺ³åħīä¸ĭéĹªéĹªåıĳåħī": 6410,
      "åī§éĻ¢": 6411,
      "çĽ¾çīĮ": 6412,
      "åĩºç§Ł": 6413,
      "ä¹ĭæĹħ": 6414,
      "ä»ĸåİ»": 6415,
      "å®Ļ": 6416,
      "é»ĳæļĹçļĦ": 6417,
      "éĢıè¿ĩ": 6418,
      "å¦Ĩ": 6419,
      "çģ¯åħī": 6420,
      "æ¤°": 6421,
      "æĺ¯å¥¹": 6422,
      "å¾Īå°ı": 6423,
      "æī¾åĪ°å®ĥ": 6424,
      "å¢¨": 6425,
      "çĬ¹": 6426,
      "åľ¨æ°´éĩĮ": 6427,
      "åħ¨èº«": 6428,
      "è¿Ļä¹Īå¤ļ": 6429,
      "èĦıäºĨ": 6430,
      "åĺ²ç¬ĳ": 6431,
      "ä¼¤äºĨ": 6432,
      "å·¥åİĤ": 6433,
      "éªĳè½¦": 6434,
      "é¡¹åľĪ": 6435,
      "ä»¿ä½Ľ": 6436,
      "çĽ´åįĩæľº": 6437,
      "åľ¨åķĨåºĹéĩĮ": 6438,
      "åģİ": 6439,
      "ç¤ģ": 6440,
      "åħ¶å®ŀ": 6441,
      "äº²åĲ»": 6442,
      "æºĲ": 6443,
      "å¸ĮæľĽèĩªå·±èĥ½": 6444,
      "å¹½çģµ": 6445,
      "çī¢": 6446,
      "å¯¹æŃ¤": 6447,
      "è·³ä¸ĬäºĨ": 6448,
      "åıĪå¤§åıĪçº¢": 6449,
      "éħĴåºĹ": 6450,
      "å¿ĥä¸Ń": 6451,
      "ä¹Łæ²¡æľī": 6452,
      "æįı": 6453,
      "çĩķ": 6454,
      "æŀ¶é£ŀæľº": 6455,
      "çĩķéº¦": 6456,
      "çļĦç¾İå¥½": 6457,
      "åĲ¦åĪĻ": 6458,
      "çīĽæİĴ": 6459,
      "æķ°åŃ¦": 6460,
      "çļĦä¹Ĳè¶£": 6461,
      "æĮĤçĿĢ": 6462,
      "éĿŀå¸¸åıĭå¥½": 6463,
      "å¤§åĸĬéģĵ": 6464,
      "å¹¶è¯ķåĽ¾": 6465,
      "å¹¶ä¸ºèĩªå·±": 6466,
      "è·Łéļı": 6467,
      "ä¾Ŀåģİ": 6468,
      "ä»ĸçľĭåĪ°äºĨä¸Ģåıª": 6469,
      "ä¸Ģèµ·åº¦è¿ĩ": 6470,
      "åıĳçİ°å®ĥ": 6471,
      "æĵ¦å¹²": 6472,
      "å®ĩå®Ļ": 6473,
      "æ§": 6474,
      "æĺ¯éĿŀå¸¸": 6475,
      "ä¹ĲæĦı": 6476,
      "åĴĮä»ĸçļĦå®¶äºº": 6477,
      "ä½ĵè´´": 6478,
      "åĸĿäºĨ": 6479,
      "çļĦå¸®åĬ©ä¸ĭ": 6480,
      "å¨ģå°Ķ": 6481,
      "ä¼ļåıĳçĶŁä»Ģä¹Ī": 6482,
      "åīĥ": 6483,
      "ä½Ĩä»įçĦ¶": 6484,
      "èīº": 6485,
      "åģ¶çĦ¶": 6486,
      "å°ıéķĩä¸Ĭ": 6487,
      "ä»ĸä»¬éĿŀå¸¸å¼Ģå¿ĥ": 6488,
      "ä¸īä¸ª": 6489,
      "å¡ĳ": 6490,
      "çļĦé±¼": 6491,
      "ä¸Ģå®¶": 6492,
      "åĴĮæ°´": 6493,
      "å¥½å¤ļäºĨ": 6494,
      "çº½": 6495,
      "é¡½": 6496,
      "Ben": 6497,
      "å¤ļä¹ħ": 6498,
      "è¿Ļåıªå°ıçĭĹ": 6499,
      "åľ°ä¸Ĭæľīä¸Ģä¸ª": 6500,
      "ä¸Ģåıªåı«": 6501,
      "åĲĮæł·": 6502,
      "ä¹°ä¸ĭ": 6503,
      "æĴķ": 6504,
      "ç±³é¡¿æĸ¯": 6505,
      "æĿ¥æī¾": 6506,
      "è¿Ļæĺ¯å¥¹": 6507,
      "æ¯ģ": 6508,
      "è¿ĺè¦ģ": 6509,
      "èİīèİīçļĦå¦Īå¦Īè®©å¥¹": 6510,
      "åĴĮå°ıå¥³åŃ©": 6511,
      "å°ıé¸Łè¯´": 6512,
      "åŃ¦åĪ°äºĨä¸Ģä¸ªéĩįè¦ģçļĦæķĻè®Ń": 6513,
      "±ä¹Ĳ": 6514,
      "ä»¥åīįä»İæľª": 6515,
      "æī¾åĪ°äºĨä¸Ģæł¹": 6516,
      "åĮ¹é©¬": 6517,
      "æ¼Ĥæµ®": 6518,
      "å½ĵå¥¹åľ¨": 6519,
      "è¢ĭé¼ł": 6520,
      "æľīäººåľ¨": 6521,
      "èİīåħ¹": 6522,
      "ä¸Ģèµ·çİ©å¾Ĺå¾Īå¼Ģå¿ĥ": 6523,
      "çĽĲ": 6524,
      "åĲĳä»ĸä»¬": 6525,
      "æĿ°åħĭçļĦå°ıçĶ·åŃ©": 6526,
      "æĹ¥è®°æľ¬": 6527,
      "æĲŀ": 6528,
      "æ·±æ·±": 6529,
      "èĬ±æľµåĴĮ": 6530,
      "éĢĶä¸Ń": 6531,
      "çĺ¦": 6532,
      "çĬ¹è±": 6533,
      "·é«": 6534,
      "æĮ¡": 6535,
      "éª·é«": 6536,
      "éª·é«ħ": 6537,
      "æĮ£": 6538,
      "åħ¨éĥ¨": 6539,
      "æľªçŁ¥": 6540,
      "æĢĢéĩĮ": 6541,
      "ä»ĸè·ĳåĲĳ": 6542,
      "æĭŃ": 6543,
      "æĸ§": 6544,
      "å°ıå¥³åŃ©éĿŀå¸¸åħ´å¥ĭ": 6545,
      "éĩįå¤į": 6546,
      "ä½łçļĦæľĭåıĭ": 6547,
      "æĵįåľº": 6548,
      "ä¸Ģæ¬¡åıĪä¸Ģæ¬¡åľ°": 6549,
      "å°ıçĮª": 6550,
      "è¿ĻçľŁæĺ¯å¤ª": 6551,
      "ç»µ": 6552,
      "æ¬¢å¿«åľ°": 6553,
      "æĿ°åħĭçļĦ": 6554,
      "èĴĤç±³çļĦ": 6555,
      "å¥¹åĸľæ¬¢åľ¨éĺ³åħīä¸ĭ": 6556,
      "æĺ¯ä¸Ģä»¶": 6557,
      "ç®¡çĲĨåĳĺ": 6558,
      "èİīèİīå¾Ī": 6559,
      "åľ¨å¤©ç©ºä¸Ńé£ŀç¿Ķ": 6560,
      "åĪ®": 6561,
      "åıĪå¼Ģå§ĭ": 6562,
      "æĿ°è¥¿": 6563,
      "äºĨå¾Īéķ¿æĹ¶éĹ´": 6564,
      "çĽ®çļĦåľ°": 6565,
      "å¥½åĲĥçļĦ": 6566,
      "æĦĪ": 6567,
      "ä»ĸçļĦçĪ¸çĪ¸å¦Īå¦Ī": 6568,
      "åĬ¨çĿĢ": 6569,
      "un": 6570,
      "çĽ´åĪ°å¥¹": 6571,
      "åºĬåŀ«": 6572,
      "ç§ĭåįĥåĴĮ": 6573,
      "çģ°å°ĺ": 6574,
      "å§ĳå§ĳ": 6575,
      "ç»ĬåĢĴäºĨ": 6576,
      "ä¸ºä»ĸä»¬": 6577,
      "å¥¹æĦŁåĪ°å®³æĢķ": 6578,
      "åİ»çľĭçľĭ": 6579,
      "é«ĺå°Ķå¤«": 6580,
      "åĩºç§Łè½¦": 6581,
      "ä¸Ģèµ·åİ»äºĨåħ¬åĽŃ": 6582,
      "æĿĤå¿Ĺ": 6583,
      "çļĦå·¥ä½ľ": 6584,
      "æĥ³æĬĬ": 6585,
      "ç¬¦": 6586,
      "æĦŁåĪ°åĽ°æĥĳ": 6587,
      "çŃīåĪ°": 6588,
      "è¡¨ç¤ºåĲĮæĦı": 6589,
      "å¤ŁåĪ°": 6590,
      "çľĭåĪ°è®¸å¤ļ": 6591,
      "æľ¬åĴĮ": 6592,
      "åīįéĿ¢": 6593,
      "èĪŀèĢħ": 6594,
      "è¿ĩç¨ĭä¸Ń": 6595,
      "ä¼Łå¤§çļĦ": 6596,
      "å¯»æī¾ä¸ĢäºĽ": 6597,
      "èĭıçļĦå°ıå¥³åŃ©": 6598,
      "æ§½": 6599,
      "äºİæĺ¯å¥¹åĨ³å®ļ": 6600,
      "è¾¾å¥ĩ": 6601,
      "éĻ¢åŃĲ": 6602,
      "æķĻåłĤ": 6603,
      "æĵ¦æĭŃ": 6604,
      "æ¡¶éĩĮ": 6605,
      "åľ¨èĬ±åĽŃéĩĮçİ©èĢį": 6606,
      "èĪĶäºĨ": 6607,
      "çĽ¹": 6608,
      "æŃĮå£°": 6609,
      "æĶĢçĪ¬": 6610,
      "å¤©èĬ±": 6611,
      "ä¹°äºĨä¸ĢäºĽ": 6612,
      "åĵ¦ä¸į": 6613,
      "éĹªäº®çļĦä¸ľè¥¿": 6614,
      "å¥¹å®¶": 6615,
      "æĬĹ": 6616,
      "å¤´é¡¶": 6617,
      "çºª": 6618,
      "æīĵçĶµè¯Ŀ": 6619,
      "èĴĤå§ĨçļĦçĶ·åŃ©": 6620,
      "ä¹ĭå¤Ħ": 6621,
      "æīĺçĽĺ": 6622,
      "è´«": 6623,
      "æĹłè®ºå¥¹": 6624,
      "èĦ¸ä¸Ĭå¸¦çĿĢçģ¿çĥĤçļĦç¬ĳå®¹": 6625,
      "åİ»æµ·æ»©": 6626,
      "è¥¿åħ°": 6627,
      "æ»ĳæ»ĳæ¢¯": 6628,
      "èĮĦ": 6629,
      "å¤©èĬ±æĿ¿": 6630,
      "ä»ĸå¤ª": 6631,
      "æĿ¥å¸®åĬ©": 6632,
      "è¥¿åħ°èĬ±": 6633,
      "ä»ĸçľĭè§ģ": 6634,
      "åľ¨åİ¨æĪ¿éĩĮ": 6635,
      "éĩĮéĿ¢æľī": 6636,
      "åĮħè£ħ": 6637,
      "æŃ£åľ¨åħ¬åĽŃéĩĮæķ£æŃ¥": 6638,
      "å¸ľ": 6639,
      "æĪĳå¤ª": 6640,
      "èİīèİīå¾Īä¼¤å¿ĥ": 6641,
      "å°ıå¥³åŃ©éĿŀå¸¸å¼Ģå¿ĥ": 6642,
      "ç©¿è¿ĩæ£®æŀĹ": 6643,
      "è¯Ńè¨Ģ": 6644,
      "æĹĹå¸ľ": 6645,
      "ä»ĸå°±": 6646,
      "ä»ĸå¾Īåĸľæ¬¢": 6647,
      "æĺ¯å¦ĤæŃ¤": 6648,
      "çľĭä¸Ĭåİ»": 6649,
      "åĿĬ": 6650,
      "çº±": 6651,
      "é¢Ī": 6652,
      "éĴĵé±¼": 6653,
      "ä»ĸçļĦå°ı": 6654,
      "çľ¨äºĨ": 6655,
      "å¥¹çļĦå¦Īå¦Īç¬ĳçĿĢè¯´": 6656,
      "æĺ¯æĹ¶åĢĻåĽŀå®¶äºĨ": 6657,
      "æī¶æīĭæ¤ħ": 6658,
      "åľ¨è¿Ļä¸ª": 6659,
      "å¾Īæ¼Ĥäº®": 6660,
      "å¾ĪåĨ·": 6661,
      "è·ĳè¿ĽäºĨ": 6662,
      "åĸĬçĿĢ": 6663,
      "è¿·å®«": 6664,
      "åįĩèµ·": 6665,
      "è´Ńçī©": 6666,
      "å¥¹åĴĮå¦Īå¦Īä¸Ģèµ·": 6667,
      "å¦»åŃĲ": 6668,
      "å¾®éķľ": 6669,
      "ä»ĸçľĭåĪ°ä¸Ģåıª": 6670,
      "æĹ§çļĦ": 6671,
      "éĩĳæŀª": 6672,
      "åľĨå½¢": 6673,
      "æĺ¾å¾®éķľ": 6674,
      "ä¼į": 6675,
      "åĪ«çļĦä¸ľè¥¿": 6676,
      "æĬ±èµ·": 6677,
      "éĩĳæŀªé±¼": 6678,
      "åľ¨ä¸ĬéĿ¢": 6679,
      "å¤§èĩªçĦ¶": 6680,
      "åįł": 6681,
      "åĲĥåħīäºĨ": 6682,
      "çĭĹçĭĹ": 6683,
      "é»ĳäºĨ": 6684,
      "å¥¹æīĵå¼Ģ": 6685,
      "ä»ĸä»¬è½®æµģ": 6686,
      "åĪ«å®³æĢķ": 6687,
      "ä¿¯": 6688,
      "æĭ¿ç»Ļå¦Īå¦Īçľĭ": 6689,
      "å´ĸ": 6690,
      "çķªèĮĦ": 6691,
      "åĴĮé©¬åħĭæĸ¯": 6692,
      "åĶ¤": 6693,
      "ç»§ç»Ńçİ©èĢį": 6694,
      "èļĬåŃĲ": 6695,
      "æĽ¿": 6696,
      "èĩªå·±çļĦå®¶": 6697,
      "èĬĤçĽ®": 6698,
      "ç²Ĺé²ģ": 6699,
      "æ¯ıå¤©æĻļä¸Ĭ": 6700,
      "æŁ±": 6701,
      "èµ°çĿĢçļĦæĹ¶åĢĻ": 6702,
      "æĬĢå·§": 6703,
      "èħĲ": 6704,
      "ä»ĸä»¬åľ¨åħ¬åĽŃéĩĮ": 6705,
      "é«ĺç©º": 6706,
      "å¸®å¸®æĪĳ": 6707,
      "çĬ¹è±«": 6708,
      "çļĦä¸īå²ģ": 6709,
      "æľĽçĿĢ": 6710,
      "éķ¿é¢Ī": 6711,
      "ä»ĸä»¬æ²¡æľī": 6712,
      "åıĳåĬ¨": 6713,
      "çĽĸå°Ķ": 6714,
      "æĢĿèĢĥäºĨä¸Ģä¼ļåĦ¿": 6715,
      "çļĦç»ĵå±Ģ": 6716,
      "äºĨä¸Ģé¡¿": 6717,
      "èĦļè¶¾": 6718,
      "çıłå®Ŀ": 6719,
      "è·ĳå¾Ĺå¾Īå¿«": 6720,
      "æī¬": 6721,
      "æĿ¥å¸®å¿Ļ": 6722,
      "ä½łä¸ºä»Ģä¹Īä¸į": 6723,
      "é£İåĲ¹è¿ĩ": 6724,
      "ä»ĸä»¬æī¾åĪ°äºĨ": 6725,
      "æĥ³åĪ°": 6726,
      "ä½Ĩè¦ģå°ıå¿ĥ": 6727,
      "å¾ĹæĽ´å¿«": 6728,
      "èĢĲå¿ĥåľ°": 6729,
      "æĪĳæľīä¸Ģä¸ª": 6730,
      "èĥ½åĬĽ": 6731,
      "æĪĳä»¬ä¸įèĥ½": 6732,
      "çī¹åĪ«å¼Ģå¿ĥ": 6733,
      "çŁĽ": 6734,
      "ä½łçļĦçİ©åħ·": 6735,
      "åĿļå®ļ": 6736,
      "æľĿçĿĢ": 6737,
      "æĺĤ": 6738,
      "é©°": 6739,
      "æĺŁçĲĥ": 6740,
      "æŃĮæĽ²": 6741,
      "åį±éĻ©çļĦ": 6742,
      "æĤ¬å´ĸ": 6743,
      "æľīä¸Ģå¤©æĻļä¸Ĭ": 6744,
      "èµ°å¼Ģ": 6745,
      "åģļä¸įåĪ°": 6746,
      "æķħæĦı": 6747,
      "å¸¦çĿĢçģ¿çĥĤçļĦç¬ĳå®¹": 6748,
      "åĪ»èĸĦ": 6749,
      "å¥½å¥½çħ§é¡¾": 6750,
      "éķ¿é¢Īé¹¿": 6751,
      "åĲł": 6752,
      "è¿ĩçļĦ": 6753,
      "çīµçĿĢ": 6754,
      "æĦ§çĸļ": 6755,
      "ç»Ļå¥¹çļĦ": 6756,
      "å¥¹åĸľæ¬¢æİ¢ç´¢": 6757,
      "åľ¨ä¸Ģä¸ªéĺ³åħīæĺİåªļçļĦæĹ¥åŃĲéĩĮ": 6758,
      "åĲ¬è¯´": 6759,
      "ä¸Ģåľºå¤§": 6760,
      "åı¥": 6761,
      "åºĻ": 6762,
      "æīĭçĶµçŃĴ": 6763,
      "çĽĽå¤§çļĦ": 6764,
      "åĴĴ": 6765,
      "ä½Ĩå½ĵä»ĸ": 6766,
      "äº«åıĹä¹Ĳè¶£": 6767,
      "çļĩ": 6768,
      "ç»ĩ": 6769,
      "ä¸įè¦ģå®³æĢķ": 6770,
      "çļĦè´Ŀ": 6771,
      "åľ¨éĻ¢åŃĲéĩĮ": 6772,
      "æĿ¥çİ©": 6773,
      "éĢĽ": 6774,
      "ä»ĸåıªæĺ¯": 6775,
      "ä½Ĳ": 6776,
      "è¿ĻåıªåħĶåŃĲ": 6777,
      "åĸĦå¾ħ": 6778,
      "æ½®": 6779,
      "æ¤°èıľ": 6780,
      "ä½łåı«ä»Ģä¹ĪåĲįåŃĹ": 6781,
      "åĸľæ¬¢åĲĥ": 6782,
      "çĻ¾": 6783,
      "åĵģå°Ŀ": 6784,
      "ä¸Ģæľ¬": 6785,
      "æĺ¯å®īåħ¨çļĦ": 6786,
      "åľ°ä¸ĭ": 6787,
      "æľ¬è¯´éģĵ": 6788,
      "ç«Ļåľ¨éĤ£éĩĮ": 6789,
      "ç¡®ä¿Ŀèĩªå·±": 6790,
      "æĿĳæ°ĳ": 6791,
      "æĪĳçĪ±ä½ł": 6792,
      "å¥¹åľ¨åľ°ä¸Ĭ": 6793,
      "èĭįèĿĩ": 6794,
      "åľ¨æ°´ä¸Ń": 6795,
      "åºĬåºķä¸ĭ": 6796,
      "å¥¹çľĭåĪ°äºĨä¸Ģä¸ª": 6797,
      "æ©¡æłĳ": 6798,
      "å¤ªé«ĺäºĨ": 6799,
      "åĬłæ²¹": 6800,
      "å®ĥçļĦåĲįåŃĹåı«": 6801,
      "éĩĳå¸ģ": 6802,
      "æ°´åĿĳéĩĮ": 6803,
      "ä¹ĺåĿĲ": 6804,
      "åĲ¬åĪ°äºĨä¸Ģå£°å·¨åĵį": 6805,
      "ä»ĸè¢«": 6806,
      "ä»ĸç»Īäºİ": 6807,
      "æıĲè®®": 6808,
      "èµ°äºĨåĩºæĿ¥": 6809,
      "åĴĮå¥¹çļĦçİ©åħ·": 6810,
      "åĸĦèī¯çļĦå¥³å£«": 6811,
      "åįļæ¯Ķ": 6812,
      "å¤§åį¡è½¦": 6813,
      "æĦŁåĪ°æĥĬåı¹": 6814,
      "æľĢåĸľæ¬¢çļĦçİ©åħ·": 6815,
      "å¾Īäº«åıĹ": 6816,
      "åĲ¬åĪ°äºĨä¸Ģéĺµ": 6817,
      "åĽ´è£Ļ": 6818,
      "çļĦä¸Ģéĥ¨åĪĨ": 6819,
      "æ²¿çĿĢè¡Ĺéģĵ": 6820,
      "å¥¹çľĭè§ģ": 6821,
      "æĭ¿äºĨ": 6822,
      "ä½Ĩæĺ¯å½ĵ": 6823,
      "ä½ıåľ¨æ£®æŀĹéĩĮ": 6824,
      "ç«ŀäºī": 6825,
      "çļĦè´Ŀå£³": 6826,
      "å®¶éĹ¨": 6827,
      "åį±éĻ©äºĨ": 6828,
      "è¡¨ç¤ºæĦŁè°¢": 6829,
      "ä»ĸä»¬å¸ĮæľĽ": 6830,
      "ä¸ŃéĹ´": 6831,
      "èµ°äºĨè¿ĩæĿ¥": 6832,
      "é¤Ĳå·¾": 6833,
      "æĺ¯ä¸Ģç§į": 6834,
      "èĬĤå¥ı": 6835,
      "å¤ıå¤©": 6836,
      "æĢ»æĺ¯åľ¨": 6837,
      "è°¢è°¢æĤ¨": 6838,
      "åĴĮæľĭåıĭä»¬ä¸Ģèµ·çİ©èĢį": 6839,
      "Ĥç²": 6840,
      "æĻļå®ī": 6841,
      "ç½Ĥç²": 6842,
      "æīĢæľīçļĦçİ©åħ·": 6843,
      "çģĮæľ¨ä¸ĽéĩĮ": 6844,
      "ç½Ĥç²Ł": 6845,
      "éĺģ": 6846,
      "ä¸įåĨįéĤ£ä¹Ī": 6847,
      "æĢĿè®®": 6848,
      "èĦĸ": 6849,
      "ä¸įèĥ½åĨį": 6850,
      "è·ĳåĲĳäºĨ": 6851,
      "å¼Ĺåħ°": 6852,
      "ä»ĸçļĦçİ©åħ·è½¦": 6853,
      "æ²¿çĿĢå°ıè·¯": 6854,
      "åºķéĥ¨": 6855,
      "å¥¹æĦŁåĪ°éĿŀå¸¸åħ´å¥ĭ": 6856,
      "ä¼¦": 6857,
      "è´©": 6858,
      "èĻ¾": 6859,
      "ç»į": 6860,
      "ä½łå¾Ĺ": 6861,
      "ç©¿è¶Ĭ": 6862,
      "å®Ŀè´µçļĦ": 6863,
      "ä»İåīįæľīä¸ĢåıªåĲįåı«": 6864,
      "åģľæŃ¢äºĨåĵŃæ³£": 6865,
      "åģľä¸ĭèĦļæŃ¥": 6866,
      "ä»ĭç»į": 6867,
      "ç£¨åĿĬ": 6868,
      "ä»ĸçļĦå®¶äºº": 6869,
      "èĸĦèį·": 6870,
      "çī¹å¨ģèĴĤ": 6871,
      "çļĦèĢģäºº": 6872,
      "è¿Ļæĺ¯ä»ĸ": 6873,
      "ä¿ĿæĮģå®īåħ¨": 6874,
      "æľīä¸¤ä¸ªæľĢå¥½çļĦæľĭåıĭ": 6875,
      "ç½ĲåŃĲéĩĮ": 6876,
      "å¾Īå¥½çİ©": 6877,
      "ç¬¼åŃĲ": 6878,
      "çº½æī£": 6879,
      "éĺģæ¥¼": 6880,
      "ä½łåľ¨è¿ĻéĩĮ": 6881,
      "ä½Ĩæĺ¯éļıåĲİ": 6882,
      "æ¹¿éĢı": 6883,
      "å±ŀäºİèĩªå·±çļĦ": 6884,
      "å°½åı¯èĥ½å¿«åľ°": 6885,
      "åĬ¿": 6886,
      "æľīä¸Ģå¤§": 6887,
      "åĲ¬åĪ°ä¸Ģä¸ªå£°éŁ³": 6888,
      "ä¸ĢåĬ¨": 6889,
      "ä»ĸåĸĬéģĵ": 6890,
      "å½ĵä½ľ": 6891,
      "ç¢°å®ĥ": 6892,
      "åĲ¬åĪ°äºĨä¸Ģä¸ªå£°éŁ³": 6893,
      "çļĦè·¯ä¸Ĭ": 6894,
      "æĺ¥": 6895,
      "åľ¨èĩªå·±çļĦ": 6896,
      "å¸¦ä½ł": 6897,
      "äºĶå½©æĸĳæĸĵ": 6898,
      "èµ¢å¾ĹäºĨæ¯ĶèµĽ": 6899,
      "æĸ§å¤´": 6900,
      "¼æ³½": 6901,
      "è¿Ļä¸ĢåĪĩ": 6902,
      "å®ĥæŃ£åľ¨": 6903,
      "æ²¼æ³½": 6904,
      "æĽ´å¤§çļĦ": 6905,
      "ä»ĸçľĭåĪ°äºĨä¸Ģä¸ª": 6906,
      "ä¸įåı¯æĢĿè®®": 6907,
      "çļĦç¿ħèĨĢ": 6908,
      "äºĨæķ´ä¸ª": 6909,
      "ä»ĸä»¬åİ»äºĨ": 6910,
      "åĴĮåħĶåŃĲ": 6911,
      "åĸľæ¬¢åĴĮä»ĸçļĦæľĭåıĭä»¬": 6912,
      "äºİæĺ¯å¥¹ä»¬": 6913,
      "åģļäºĨä¸Ģä»¶": 6914,
      "åıĹäºĨ": 6915,
      "åĨ²æµª": 6916,
      "å¥¹å°±": 6917,
      "åĴĮå¼Ģå¿ĥ": 6918,
      "éļ¾äºĨ": 6919,
      "æĻ´æľĹ": 6920,
      "éģĵä¸Ĭ": 6921,
      "ä¹ĲéĺŁ": 6922,
      "äº¤åĪ°äºĨä¸Ģä¸ª": 6923,
      "æı¡ä½ı": 6924,
      "æ¨¡åŀĭ": 6925,
      "é¬": 6926,
      "ä»ĸä¸į": 6927,
      "åĽ±": 6928,
      "å¦Īå¦Īå¾®ç¬ĳçĿĢ": 6929,
      "ä½Ĩä»ĸçļĦå¦Īå¦Ī": 6930,
      "æĬĬè¿ĻäºĽ": 6931,
      "æ²¡æī¾åĪ°": 6932,
      "çªĿ": 6933,
      "åĪ°å¤Ħæī¾": 6934,
      "çģ°èī²": 6935,
      "çĥŁåĽ±": 6936,
      "æķ²äºĨ": 6937,
      "å®¶åħ·": 6938,
      "æ°´æ§½": 6939,
      "è¡Įè¿Ľ": 6940,
      "åĲįåŃĹæĺ¯": 6941,
      "èĵ¬": 6942,
      "å°ıåĿĹ": 6943,
      "çĽĨ": 6944,
      "èĹıèµ·æĿ¥": 6945,
      "å¤º": 6946,
      "æİ¢ç´¢è¿Ļä¸ªä¸ĸçķĮ": 6947,
      "åĽ¢ç»ĵ": 6948,
      "åıĳåĬ¨æľº": 6949,
      "å¥¹ä¸įåģľåľ°": 6950,
      "å¥¹çļĦå¼Łå¼Ł": 6951,
      "åĪ°äºĨåľ°ä¸Ĭ": 6952,
      "çĶ»å®¶": 6953,
      "å®Ŀçī©": 6954,
      "åĴªåĴª": 6955,
      "ä¸ĢäºĽé£Łçī©": 6956,
      "æİ¥çĲĥ": 6957,
      "åĪĴèīĩ": 6958,
      "èĥ¡é¡»": 6959,
      "ä¸Ģä¸ªåĲįåı«èİīèİīçļĦå°ıå¥³åŃ©": 6960,
      "èİīèİīéĿŀå¸¸åĸľæ¬¢": 6961,
      "åĸľæ¬¢æķ´å¤©": 6962,
      "åįıåĬĽ": 6963,
      "ç»·å¸¦": 6964,
      "è´«ç©·": 6965,
      "äºĨä¸ĢæŃ¥": 6966,
      "èµ°åĩºäºĨ": 6967,
      "å¥½çļĦæľĭåıĭ": 6968,
      "å¯»å¸¸": 6969,
      "å¥¹å¾Īå¼Ģå¿ĥ": 6970,
      "åĿĲä¸ĭ": 6971,
      "å¾Īå¤ļä¸ľè¥¿": 6972,
      "éº¦çīĩ": 6973,
      "éĺŁä¼į": 6974,
      "å®ĥæľī": 6975,
      "ä»ĸä»¬ä¸º": 6976,
      "åİ»æİ¢éĻ©": 6977,
      "èĬ±çĵ£": 6978,
      "åĿĲäºĨä¸ĭæĿ¥": 6979,
      "å¥¹å¦Īå¦Īç¬ĳçĿĢè¯´": 6980,
      "èĤ²": 6981,
      "èĥ¡åŃĲ": 6982,
      "é£İæīĩ": 6983,
      "çļĦåĽ¾çīĩ": 6984,
      "ä»ĸçļĦçĲĥ": 6985,
      "æ²¡äºº": 6986,
      "é½Ĳå¿ĥ": 6987,
      "æŁĲæł·ä¸ľè¥¿": 6988,
      "æĪĳçľŁ": 6989,
      "åıĪé«ĺåıĪ": 6990,
      "è¿Ļä¸ªä¸»æĦı": 6991,
      "âĢĻãĢĤ": 6992,
      "ä¸Ģåıªå¤§": 6993,
      "éĿĻéĿĻ": 6994,
      "é¥®æĸĻ": 6995,
      "Ģåļ¼": 6996,
      "åĴĢåļ¼": 6997,
      "éĤ£å¤´": 6998,
      "ä½Ĩå®ĥä»¬": 6999,
      "èįīä¸Ľ": 7000,
      "æİ¥è¿ĳ": 7001,
      "èµ°è¿ĽæĪ¿éĹ´": 7002,
      "æĭįäºĨæĭįæīĭ": 7003,
      "èŀºä¸Ŀ": 7004,
      "é½Ĳå¿ĥåįıåĬĽ": 7005,
      "çĽı": 7006,
      "æ²¡æľīæ³¨æĦıåĪ°": 7007,
      "æĹłæģ": 7008,
      "é»ĳèī²çļĦ": 7009,
      "è´ĿèĮľ": 7010,
      "æĮīä¸ĭ": 7011,
      "è§ĦåĪĻ": 7012,
      "æĹłæģĻ": 7013,
      "ä»ĸè¯ķçĿĢ": 7014,
      "åħĭèİ±": 7015,
      "çĶ¨è¿Ļä¸ª": 7016,
      "çº¸æĿ¡": 7017,
      "èī²å½©æĸĳæĸĵ": 7018,
      "ä½łè¿ĺ": 7019,
      "é£ŁæĿĲ": 7020,
      "é£İæĻ¯": 7021,
      "å¥¹æĦŁåĪ°éĿŀå¸¸å¼Ģå¿ĥ": 7022,
      "åĽŀä»¥": 7023,
      "çľĭçľĭåĲ§": 7024,
      "çĶµçº¿": 7025,
      "æ¹Ľ": 7026,
      "ä¸ĬéĿ¢åĨĻçĿĢ": 7027,
      "èĢ¸èĤ©": 7028,
      "éº¦åħĭé£İ": 7029,
      "å¥¹å·²ç»ı": 7030,
      "åĿª": 7031,
      "è®©å¥¹çļĦ": 7032,
      "æ·»": 7033,
      "ä½©å¦®": 7034,
      "ä»İæĿ¥æ²¡æľī": 7035,
      "çļĦå¥½": 7036,
      "å¼Ģå§ĭåĲĥ": 7037,
      "çĦ¶åĲİé£ŀèµ°äºĨ": 7038,
      "éļıèº«": 7039,
      "æĬ¬å¤´ä¸Ģçľĭ": 7040,
      "æĬĬèĩªå·±": 7041,
      "çľŁæ£Ĵ": 7042,
      "å¤ªéĺ³éķľ": 7043,
      "æĦīå¿«çļĦæĹ¶åħī": 7044,
      "çļĦèįīåľ°": 7045,
      "éľĩæĥĬ": 7046,
      "èĢĻåŃĲ": 7047,
      "å¤ªå¿«äºĨ": 7048,
      "åĪĨå¼Ģ": 7049,
      "èİīèİīçļĦå¥³åŃ©": 7050,
      "åį¡ä½ıäºĨ": 7051,
      "ä¸Ģä¸ªæĸ°çļĦ": 7052,
      "ä½Ĩå¥¹çļĦå¦Īå¦Ī": 7053,
      "æĪĳä»¬ä¸Ģèµ·åİ»": 7054,
      "æ©¡æŀľ": 7055,
      "èĥľåĪ©": 7056,
      "éŀł": 7057,
      "èº¬": 7058,
      "åħ¥äºĨ": 7059,
      "çĶ·åŃ©è¯´": 7060,
      "çĶ¨è¿ĻäºĽ": 7061,
      "å¸¦èµ°": 7062,
      "åİŁåľ°": 7063,
      "ä¸İä¼Ĺä¸įåĲĮ": 7064,
      "æĪĳçĽ¸ä¿¡": 7065,
      "ç±³çī¹": 7066,
      "éĺ³åħīæ´Ĵ": 7067,
      "åº¦åģĩ": 7068,
      "åıĳçİ°äºĨä¸Ģæł¹": 7069,
      "ç²īæľ«": 7070,
      "ä»ĸå¾Īé«ĺåħ´èĩªå·±": 7071,
      "å°ıçĿ¡ä¸Ģä¼ļåĦ¿": 7072,
      "èħĲçĥĤ": 7073,
      "è¿ĻæĦıåĳ³çĿĢ": 7074,
      "åī¯": 7075,
      "èİīèİīç¬ĳçĿĢè¯´": 7076,
      "åĭ¤": 7077,
      "æĦŁè§īå¾Ī": 7078,
      "ä¸ĬåºĬçĿ¡è§īäºĨ": 7079,
      "çľĭåĲ§": 7080,
      "ä»ĸä»¬éĿŀå¸¸": 7081,
      "åıĺå¾Ĺå¾Ī": 7082,
      "èī°": 7083,
      "ç©ºçļĦ": 7084,
      "æĦīå¿«çļĦ": 7085,
      "æłĩçŃ¾": 7086,
      "è¦ģåİ»åĵªéĩĮ": 7087,
      "å¹¶ç»§ç»Ń": 7088,
      "èĭ¥": 7089,
      "æķĻä¼ļ": 7090,
      "å°Ŀè¯ķä¸ĢäºĽ": 7091,
      "è´Ŀå°¼": 7092,
      "å·«å¸Ī": 7093,
      "è·ĳåĩºäºĨ": 7094,
      "æ¸¸åĬ¨": 7095,
      "èī¾ç±³çļĦå°ıå¥³åŃ©": 7096,
      "éĤ£äºº": 7097,
      "å¦Īå¦ĪæŃ£åľ¨": 7098,
      "èİīèİīæĦŁåĪ°å¾Īéļ¾è¿ĩ": 7099,
      "ä»ĸæĥ³çŁ¥éģĵ": 7100,
      "çĭ¬çī¹çļĦ": 7101,
      "æĺ¯åķĬ": 7102,
      "åľ°éĵģ": 7103,
      "ä½Ĩåľ¨": 7104,
      "åķĨåºĹæĹ¶": 7105,
      "éĩįè¦ģçļĦæĺ¯": 7106,
      "åĽ¢éĺŁ": 7107,
      "ä»ĸåĲ¬åĪ°ä¸Ģä¸ªå£°éŁ³": 7108,
      "èİīèİīçļĦçĪ¸çĪ¸": 7109,
      "éħ·äºĨ": 7110,
      "èº²åľ¨": 7111,
      "çĳŀç§ĭ": 7112,
      "çļĦæĪ¿åŃĲ": 7113,
      "ä¸įå®īåħ¨": 7114,
      "è¢«åĲĵåĪ°äºĨ": 7115,
      "å¥¹æĥ³çŁ¥éģĵ": 7116,
      "äºĨä»ĸä»¬": 7117,
      "çĿĢå¥¹": 7118,
      "æĥ³å¸®åĬ©": 7119,
      "çļĦèŃ¦": 7120,
      "éĹ¨å»Ĭ": 7121,
      "åľŁåľ°": 7122,
      "èħ¾": 7123,
      "å®¢åİħéĩĮ": 7124,
      "é¼ĵèµ·åĭĩæ°Ķ": 7125,
      "èĪĶäºĨèĪĶ": 7126,
      "èİīèİīå¼Ģå§ĭ": 7127,
      "çļ®åĪĴèīĩ": 7128,
      "ä¸įåĨįå®³æĢķäºĨ": 7129,
      "çļĦè¢ĭ": 7130,
      "å®ĥåıĪå¤§åıĪ": 7131,
      "ä¸įå¤Ł": 7132,
      "éĻħ": 7133,
      "åĨįä¹ŁæĹłæ³ķ": 7134,
      "éĤ£æĺ¯ä¸ĢæĿ¡": 7135,
      "ç´§ç´§åľ°æĬ±ä½ı": 7136,
      "éĹ²äºĭ": 7137,
      "çļĦå¥³å£«": 7138,
      "è¿Ļå¾Ī": 7139,
      "æķŀ": 7140,
      "ç®¡éĹ²äºĭ": 7141,
      "åİŁæĿ¥æĺ¯ä¸Ģåıª": 7142,
      "è·ĳåķĬè·ĳ": 7143,
      "å¥¹çļĦæ´ĭå¨ĥå¨ĥ": 7144,
      "åĴĮå®¶äººä¸Ģèµ·": 7145,
      "éĿŀå¸¸èĩªè±ª": 7146,
      "åı«ä»ĸ": 7147,
      "é£İä¸Ń": 7148,
      "èľĺèĽĽç½ĳ": 7149,
      "in": 7150,
      "âĢĿï¼Į": 7151,
      "ä»ĸçļĦæīĭ": 7152,
      "å·²æĻļ": 7153,
      "çĭ¬èĩªä¸Ģäºº": 7154,
      "åĪ·åŃĲ": 7155,
      "æĮł": 7156,
      "å±±è°·": 7157,
      "é¦Ļæ°´": 7158,
      "æĹłè®ºä»ĸ": 7159,
      "ç»ıåİĨäºĨè®¸å¤ļ": 7160,
      "å¤©ç©ºä¸ŃçļĦ": 7161,
      "éĶħéĩĮ": 7162,
      "ä»ĸä»¬éĿŀå¸¸é«ĺåħ´": 7163,
      "èĩªå·±èĥ½": 7164,
      "å¥¹ä»¬éĥ½": 7165,
      "ä½Ĩè¿ĺæĺ¯æī¾ä¸įåĪ°": 7166,
      "ä½Ĩå½ĵ": 7167,
      "éĿ¢ç²ī": 7168,
      "è¯·æ±Ĥå¦Īå¦Ī": 7169,
      "æĳĩäºĨæĳĩå°¾å·´": 7170,
      "åĴĮè®¸å¤ļ": 7171,
      "äºĨä¸Ģé¢Ĺ": 7172,
      "éķ¿ç¬Ľ": 7173,
      "ç¼ĸ": 7174,
      "ä½Ĳä¼Ĭ": 7175,
      "ç½Ĥç²ŁèĬ±": 7176,
      "å¼Ħå¾Ĺä¸ĢåĽ¢ç³Ł": 7177,
      "ä¸ĬéĿ¢æľī": 7178,
      "æ¹ĽèĵĿ": 7179,
      "ä¹³": 7180,
      "å°ıéĿĴèĽĻ": 7181,
      "è¢Ń": 7182,
      "åı²èĴĤ": 7183,
      "æľīä¸Ģçīĩ": 7184,
      "æĭĶ": 7185,
      "æīĢæľīçļĦåĬ¨çī©": 7186,
      "æ²ĻåŃĲéĩĮ": 7187,
      "æĦŁåıĹçĿĢ": 7188,
      "å¥¹è®©": 7189,
      "åĬ¨æīĭ": 7190,
      "æķ´æķ´": 7191,
      "å¥¹åĸľæ¬¢çĶ¨": 7192,
      "éĤ£éĩĮæľī": 7193,
      "ä¿ĿçķĻ": 7194,
      "ä½Ĩæĺ¯å½ĵå¥¹": 7195,
      "ä»İåīįæľīä¸Ģä¸ªå¥³åŃ©": 7196,
      "èĤĥ": 7197,
      "è£ħé¥°åĵģ": 7198,
      "å®Īåį«": 7199,
      "ä¸¥èĤĥ": 7200,
      "ä»ĸåħ´å¥ĭåľ°": 7201,
      "ä»ĸåĽĽå¤Ħå¼łæľĽ": 7202,
      "å¾Īæĭħå¿ĥ": 7203,
      "å·¦": 7204,
      "é«ĺä¸ªåŃĲ": 7205,
      "æĸ¹å½¢": 7206,
      "éĹªäº®çļĦçŁ³å¤´": 7207,
      "å¢¨æ°´": 7208,
      "çĤīåŃĲ": 7209,
      "çĨĬçĮ«": 7210,
      "åĽłä¸ºå¥¹çŁ¥éģĵ": 7211,
      "æĬ¤çħ§": 7212,
      "çľĭæĹ¶": 7213,
      "èµ·åºĬ": 7214,
      "ä»ĸä»¬æĺİçĻ½äºĨ": 7215,
      "å¹¶æĭ¥æĬ±äºĨ": 7216,
      "èĬ±æ¤°èıľ": 7217,
      "éķ¯": 7218,
      "å¤ĸéĿ¢çİ©èĢį": 7219,
      "ç»ĪçĤ¹": 7220,
      "ä»ĸçļĦå¦Īå¦Īç¬ĳçĿĢè¯´": 7221,
      "è¿Ļæł·ä¸Ģä¸ª": 7222,
      "æŁľåŃĲ": 7223,
      "å¥¹åĲĳå¦Īå¦Ī": 7224,
      "æĭ¯æķĳ": 7225,
      "æĭīçĿĢ": 7226,
      "åĻľ": 7227,
      "æŁĲäºĽ": 7228,
      "åıĺå¾ĹæĽ´å¥½": 7229,
      "åĨ¬å¤©": 7230,
      "å®ĥé£ŀ": 7231,
      "äºĨä¸Ģä½į": 7232,
      "æİīè¿ĽäºĨ": 7233,
      "çĳļ": 7234,
      "åĲĥå®ĮäºĨ": 7235,
      "çļĦèįīåľ°ä¸Ĭ": 7236,
      "çıĬçĳļ": 7237,
      "å¼Ģå¿ĥèµ·æĿ¥": 7238,
      "éĢĹ": 7239,
      "æİ§": 7240,
      "å¹²åĩĢçļĦ": 7241,
      "å®ĥçľĭåĪ°": 7242,
      "ä»ĸä»¬å¯¹": 7243,
      "èİīèİīåĽŀçŃĶéģĵ": 7244,
      "å¹¶ç¡®ä¿Ŀ": 7245,
      "çķĻåľ¨äºĨ": 7246,
      "æŁĶåĴĮ": 7247,
      "çłĸ": 7248,
      "æĳĶäºĨä¸ĭæĿ¥": 7249,
      "æĪĲå°±": 7250,
      "ç®ĢçļĦå°ıå¥³åŃ©": 7251,
      "ä¸īå²ģçļĦå°ıå¥³åŃ©": 7252,
      "çļĦæĻ¯è±¡": 7253,
      "æĬ¹": 7254,
      "å¹¶åĳĬè¯īä»ĸ": 7255,
      "åĨ³å®ļæĬĬ": 7256,
      "åĨįä¹Łä¸įèĥ½": 7257,
      "åĳ¼æķĳ": 7258,
      "è¢«åĽ°åľ¨": 7259,
      "å¾ģ": 7260,
      "å°ıå¥³åŃ©éĿŀå¸¸é«ĺåħ´": 7261,
      "ä¸¤åįĬ": 7262,
      "åıĳçİ°äºĨè®¸å¤ļ": 7263,
      "åĴĮæĪĳä¸Ģèµ·": 7264,
      "å°ıæıĲçĲ´": 7265,
      "ä»ĸä»¬æĺ¯": 7266,
      "é¤Ĳé¦Ĩ": 7267,
      "ç²Ĺå¿ĥ": 7268,
      "æĹĹåŃĲ": 7269,
      "èµ°åĩº": 7270,
      "éĻĢ": 7271,
      "ç»ĻäºĨå¥¹ä¸Ģä¸ª": 7272,
      "èµĸ": 7273,
      "ä¸Ĭæľīä¸Ģä¸ª": 7274,
      "æ»ĳä¸ĭæĿ¥": 7275,
      "æľįåĬ¡": 7276,
      "ç±³å¨ħçļĦå°ıå¥³åŃ©": 7277,
      "æĶ¾è¿Ľçĥ¤ç®±": 7278,
      "ä¼¤åı£": 7279,
      "å¥¶æ²¹": 7280,
      "çł´äºĨ": 7281,
      "ä½ıåľ¨ä¸ĢéĹ´": 7282,
      "æĬµ": 7283,
      "ç©ºåľ°": 7284,
      "éĤ£è¾Ĩè½¦": 7285,
      "ä¸įå¥½çļĦäºĭæĥħ": 7286,
      "å¥¹åĸĬéģĵ": 7287,
      "çİ©çİ©åħ·": 7288,
      "å¤§çĮ©çĮ©": 7289,
      "è®©æ¯ıä¸ªäººéĥ½": 7290,
      "éĩĮéĿ¢æľīè®¸å¤ļ": 7291,
      "æ¶Į": 7292,
      "ä»Ķç»ĨçľĭäºĨçľĭ": 7293,
      "æĿĤè´§": 7294,
      "åģĩè£ħèĩªå·±æĺ¯": 7295,
      "éĻĢèŀº": 7296,
      "åľ£": 7297,
      "ä»İåĵªéĩĮ": 7298,
      "æŀģ": 7299,
      "æĳĬ": 7300,
      "ä¸Ŀå¸¦": 7301,
      "è¿ĻæĿ¡é±¼": 7302,
      "ç©¿çĿĢä¸Ģä»¶": 7303,
      "ä¿±ä¹Ĳ": 7304,
      "è¢į": 7305,
      "ä»ĸæĥ³èµ·äºĨ": 7306,
      "é¢ľèī²åĴĮ": 7307,
      "æ´Ĺç¢Ĺæľº": 7308,
      "é¡½çļ®": 7309,
      "ä»ĸä»¬åĲĳ": 7310,
      "ä»ĸä»¬æĪĲäºĨæľĢå¥½çļĦæľĭåıĭ": 7311,
      "èĢĮæĦŁåĪ°éļ¾è¿ĩ": 7312,
      "æĹłç¤¼": 7313,
      "å®ĥéĿŀå¸¸æ¼Ĥäº®": 7314,
      "éĿ¢å¸¦å¾®ç¬ĳ": 7315,
      "ä¿±ä¹Ĳéĥ¨": 7316,
      "éĥ½è¦ģ": 7317,
      "èĴĤå§ĨçļĦ": 7318,
      "å®ŀéªĮ": 7319,
      "å¤§èĪ¹": 7320,
      "èĴ¸": 7321,
      "æĻĴ": 7322,
      "çļĦè±": 7323,
      "æİ¢ç´¢ä¸ĸçķĮ": 7324,
      "æ··ä¹±": 7325,
      "éĤ£ç§į": 7326,
      "ç§ĳ": 7327,
      "å¸®åĬ©å¦Īå¦Ī": 7328,
      "å¸¦çĿĢå¥¹çļĦ": 7329,
      "å¼Ĺæ´Ľ": 7330,
      "om": 7331,
      "åĲĥçĤ¹": 7332,
      "æĢ»èĥ½": 7333,
      "æīĢæľīçļĦåĬ¨çī©éĥ½": 7334,
      "ä»ĸæĬĬå®ĥ": 7335,
      "å°ıè½¦": 7336,
      "éĥ½æī¾ä¸įåĪ°": 7337,
      "çļĦèľ¡": 7338,
      "åı¼çĿĢ": 7339,
      "ä»ĸä»¬å¿ħé¡»": 7340,
      "å¤ªå¥½": 7341,
      "åĴĮå¥¹çļĦæľĭåıĭ": 7342,
      "éĶĻäºĨ": 7343,
      "åŀĴ": 7344,
      "æķĻä»ĸå¦Ĥä½ķ": 7345,
      "å¥¹ç©¿ä¸Ĭ": 7346,
      "ä¸Ģä¸ªæĸ°": 7347,
      "åĸľçĪ±": 7348,
      "é«ĺåħ´æŀģäºĨ": 7349,
      "å¸®åĬ©ä»ĸä»¬": 7350,
      "çīĽèĤī": 7351,
      "æŃ£ç¡®çļĦäºĭæĥħ": 7352,
      "ç©ºæ°Ķä¸Ń": 7353,
      "çļĦå°ıé±¼": 7354,
      "æīĵäºĨ": 7355,
      "åıĳçİ°äºĨä¸Ģé¢Ĺ": 7356,
      "ä»įçĦ¶åı¯ä»¥": 7357,
      "é¼ĵæİĮæ¬¢åĳ¼": 7358,
      "ä»ĸä»¬ä¿©éĥ½": 7359,
      "éĺ´æ²ī": 7360,
      "æľīçĶ¨": 7361,
      "æīĵåĸ·åļı": 7362,
      "æ´Ĺæīĭ": 7363,
      "ä¸įè¦ģæĭħå¿ĥ": 7364,
      "ä»ĸæĦŁåĪ°å®³æĢķ": 7365,
      "ä»ĸæĦŁåĪ°éĿŀå¸¸åħ´å¥ĭ": 7366,
      "åŃ¦çĶŁ": 7367,
      "çģ«èĬ±": 7368,
      "é¢Ĩå¸¦": 7369,
      "æĪĳä»¬èµ°åĲ§": 7370,
      "æĪĲä¸ºäºĨæľĭåıĭ": 7371,
      "æĿĳåºĦéĩĮ": 7372,
      "æµ´ç¼¸éĩĮ": 7373,
      "çļĦè£ħé¥°": 7374,
      "æĭ¿æĿ¥": 7375,
      "å¦Ĥæŀľå¥¹": 7376,
      "ä¹Įäºĳ": 7377,
      "åĽŀä»¥å¾®ç¬ĳ": 7378,
      "åİ©": 7379,
      "æĢģ": 7380,
      "åı«å¥¹": 7381,
      "ä¹°äºĨä¸Ģä¸ª": 7382,
      "çī¹åĪ«çļĦåľ°æĸ¹": 7383,
      "é¾Ļåį·": 7384,
      "ä¸ĸçķĮä¸ĬæľĢ": 7385,
      "Ja": 7386,
      "è£¤åŃĲ": 7387,
      "å®ĥä»¬ä¸Ģèµ·": 7388,
      "èĥ³èĨĬ": 7389,
      "æĹ¥è®°": 7390,
      "åĿıäºĭ": 7391,
      "æ¶Īå¤±åľ¨": 7392,
      "é»ıåľŁ": 7393,
      "æľīä¸Ģç§į": 7394,
      "éĥ½åı¯ä»¥": 7395,
      "é©¬åİ©": 7396,
      "éĤ£åıªèĻ«åŃĲ": 7397,
      "éķ¿å¾Ĺ": 7398,
      "å¤ļå°ĳ": 7399,
      "æ»¡èĦ¸": 7400,
      "çĪ¬ä¸Ĭæłĳ": 7401,
      "åİ»åĮ»éĻ¢": 7402,
      "ä¸ºæĹ¶": 7403,
      "æ»ĳç¨½çļĦ": 7404,
      "çĶľç¾İçļĦ": 7405,
      "ue": 7406,
      "ä¸įå¾Ĺ": 7407,
      "ä½łçľŁæĺ¯": 7408,
      "åĩĿ": 7409,
      "çĶŁåĳ½": 7410,
      "æį§": 7411,
      "åĴĴè¯Ń": 7412,
      "ä»ĸä»¬å¾Īé«ĺåħ´": 7413,
      "è¿ĺæ²¡": 7414,
      "çĶ»äºĨ": 7415,
      "ç»§ç»Ńåīįè¡Į": 7416,
      "éĤ®éĢĴ": 7417,
      "å¤§ç¬ĳèµ·æĿ¥": 7418,
      "é¾Ļåį·é£İ": 7419,
      "åĨĽ": 7420,
      "æ¼ı": 7421,
      "æ»¡æĢĢ": 7422,
      "ç¦ģ": 7423,
      "çĶ»ç¬Ķ": 7424,
      "è·³è¿ĩ": 7425,
      "ç¾İåĳ³çļĦçĤ¹å¿ĥ": 7426,
      "å¥¹è¯ķçĿĢ": 7427,
      "åİŁåĽł": 7428,
      "ä»İæľªå¿ĺè®°": 7429,
      "è½®åĪ°": 7430,
      "ç¨įå¾®": 7431,
      "åħĭèİ±å°Ķ": 7432,
      "çĦķ": 7433,
      "çŁŃ": 7434,
      "å®Ŀç®±": 7435,
      "éĢĥç¦»": 7436,
      "æ±ªæ±ª": 7437,
      "å®ĥæĢ»æĺ¯": 7438,
      "æĪĳä¿Ŀè¯ģ": 7439,
      "æ¯Ĵ": 7440,
      "äºĨä¸ĢçĤ¹": 7441,
      "æ´ª": 7442,
      "äºĨä¸Ģä¸ªæĸ°æľĭåıĭ": 7443,
      "æľ¨æĿĲ": 7444,
      "åĽ°åĢ¦": 7445,
      "éĵ¾åŃĲ": 7446,
      "éĨĴæĿ¥åĲİ": 7447,
      "èĬĤæĹ¥": 7448,
      "ä»ĸä»¬åĸľæ¬¢åľ¨": 7449,
      "éĤ£è¾¹": 7450,
      "æīĵæŀ¶": 7451,
      "éľ²æ¯Ķ": 7452,
      "çĶ»ä¸Ģ": 7453,
      "ä¸Ģèµ·çİ©äºĨ": 7454,
      "ä¸¤ä¸ªåŃ©åŃĲ": 7455,
      "æºľ": 7456,
      "å®ĺ": 7457,
      "æĦŁåĪ°å¹¸ç¦ı": 7458,
      "ä»ĸå°Ĩ": 7459,
      "ç»ĻäºĨå¦Īå¦Ī": 7460,
      "åıĸå¾Ĺ": 7461,
      "å¾ĭå¸Ī": 7462,
      "éĺ¿æ¯ĶçĽĸå°Ķ": 7463,
      "lly": 7464,
      "éģĵè·¯": 7465,
      "ä¸Ģèµ·åģļ": 7466,
      "å®īå¿ĥ": 7467,
      "å¿«ä¹ĲåĴĮ": 7468,
      "åĸĿæ°´": 7469,
      "ä¹Łå¼Ģå§ĭ": 7470,
      "åĽłä¸ºå¥¹çļĦ": 7471,
      "æ²¡æľīæī¾åĪ°": 7472,
      "æŃ£åľ¨èĬ±åĽŃéĩĮ": 7473,
      "ä¸īå²ģçļĦ": 7474,
      "å¤ªéĺ³èĲ½å±±": 7475,
      "é»ĳæĿ¿": 7476,
      "åĿĲåľ¨éķ¿æ¤ħä¸Ĭ": 7477,
      "æİ¨çĿĢ": 7478,
      "èĵ¬æĿ¾": 7479,
      "å§¨": 7480,
      "ä»İä¸į": 7481,
      "çī§": 7482,
      "åĨįè¯ķ": 7483,
      "æĭĸæĬĬ": 7484,
      "Bo": 7485,
      "åİĭ": 7486,
      "åģļå¥½äºĨ": 7487,
      "ç¾İåĳ³çļĦä¸ľè¥¿": 7488,
      "èĢ¸äºĨ": 7489,
      "è±¹åŃĲ": 7490,
      "ä¸ĭèµ·äºĨéĽ¨": 7491,
      "å¥¹åĳĬè¯īä»ĸ": 7492,
      "åĽĽå¤Ħå¥Ķè·ĳ": 7493,
      "èĲ½ä¸ĭ": 7494,
      "ä»ĸæĹłæ³ķ": 7495,
      "å¼¥": 7496,
      "çĨ¨": 7497,
      "åħħæ»¡æ´»åĬĽ": 7498,
      "å¸ĮæľĽèĥ½": 7499,
      "çļĦçİ©åħ·è½¦": 7500,
      "å¸¦æĿ¥çļĦ": 7501,
      "è¶ħçº§èĭ±éĽĦ": 7502,
      "åľ¨åĲİéĻ¢": 7503,
      "ä»¥æĿ¥": 7504,
      "æŃ¦": 7505,
      "åĬ¨å¼¹": 7506,
      "æ²¡åĬŀæ³ķ": 7507,
      "æĪĲéķ¿": 7508,
      "ç¼Ĩ": 7509,
      "åľ¨æ±łå¡ĺéĩĮ": 7510,
      "ä¸Ģä¸ªçĶ·äºº": 7511,
      "æ¶¦": 7512,
      "çļĦå°½å¤´": 7513,
      "æ³Ĭ": 7514,
      "å½ĵèİīèİī": 7515,
      "åĴĮå¥¹çļĦçĪ¸çĪ¸": 7516,
      "æķ°åĪ°": 7517,
      "æķĳåĳ½": 7518,
      "å¤§æłĳä¸Ĭ": 7519,
      "åĲĥåĪ°": 7520,
      "æĭľæīĺ": 7521,
      "ä¸ºæĹ¶å·²æĻļ": 7522,
      "ä¹ī": 7523,
      "ä»ĸä»¬è¿ĺ": 7524,
      "ä¸ĬçĪ¬": 7525,
      "æĪĳä»¬æĬĬ": 7526,
      "å±ĭåŃĲ": 7527,
      "æĭįçĿĢæīĭ": 7528,
      "æľīäºĽå®³æĢķ": 7529,
      "åĩ¶æģ¶": 7530,
      "æĺ¯åı¯ä»¥çļĦ": 7531,
      "éĿŀå¸¸é¥¿": 7532,
      "ä½Ĩä»ĸçļĦ": 7533,
      "åıĤä¸İ": 7534,
      "åĲĥå®ĮåĲİ": 7535,
      "ä»ĸå¦Īå¦Īè¯´": 7536,
      "éĿŀå¸¸æĦŁè°¢": 7537,
      "æĥĬåĳ¼": 7538,
      "å¹¶ä¸ĶæĢ»æĺ¯": 7539,
      "åħ³ä¸Ĭ": 7540,
      "éĢĥèĦ±": 7541,
      "è·ĳäºĨè¿ĩåİ»": 7542,
      "ä½³": 7543,
      "è¿ĻæĶ¯": 7544,
      "çĦ¶åĲİè·ĳå¼ĢäºĨ": 7545,
      "è£ħçĿĢ": 7546,
      "æº¢": 7547,
      "äº§çĶŁ": 7548,
      "æĺ¯ä»ĸ": 7549,
      "ä»ĸä»¬åıĳçİ°": 7550,
      "ä»¥å¾Ģ": 7551,
      "æĦŁåĪ°æ¸©æļĸ": 7552,
      "åį¢": 7553,
      "å¥¹å¦Īå¦Īè¯´éģĵ": 7554,
      "åĨĴéĻ©ç»ıåİĨ": 7555,
      "éĤ£æĺ¯ä¸ĢåĿĹ": 7556,
      "åł¡åŀĴ": 7557,
      "è¿ĩåİ»äºĨ": 7558,
      "ç©ºéĹ´": 7559,
      "ä½ĵèĤ²": 7560,
      "èĲ¨æĭīåĴĮæľ¬": 7561,
      "ä»ĸå¾Īå¼Ģå¿ĥ": 7562,
      "éĤ£å£°éŁ³": 7563,
      "ä¸Ĭè·¯": 7564,
      "æĭĩ": 7565,
      "æ¬¢ç¬ĳçĿĢ": 7566,
      "å®īçĦ¶": 7567,
      "è¿ĳäºĨ": 7568,
      "é¸ŁåĦ¿åľ¨": 7569,
      "éŃĶæ³ķæ£Ĵ": 7570,
      "ç§°ä¸º": 7571,
      "æĪĺæĸĹ": 7572,
      "åīĥåĪĢ": 7573,
      "ä»ĸä»¬çľĭåĪ°ä¸Ģä¸ª": 7574,
      "æĹłçŁ¥": 7575,
      "èµ°äºĨè¿ĽæĿ¥": 7576,
      "è°¢è°¢å¦Īå¦Ī": 7577,
      "è¿Ļä½įå¥³å£«": 7578,
      "å¥¹çĪ¸çĪ¸": 7579,
      "åľ¨æµ·æ»©ä¸Ĭ": 7580,
      "ä»ĸä»¬å°±": 7581,
      "æĸ¯æ´¾": 7582,
      "çľŁå¥½": 7583,
      "ä¸Ģå¤´": 7584,
      "æĺ¯å¦Ĥä½ķ": 7585,
      "ä»ĸä»¬çļĦå¦Īå¦Ī": 7586,
      "å¾Ĺå¾Īè¿ľ": 7587,
      "ä¸ĢçĤ¹ä¹Łä¸į": 7588,
      "ä»ĸæ¯ıå¤©éĥ½ä¼ļ": 7589,
      "å°ıæĿ¾é¼ł": 7590,
      "å¾Ĺå¾Īå¿«": 7591,
      "æĶ¶èĹı": 7592,
      "Ma": 7593,
      "ä¸ĩ": 7594,
      "æķĻä½ł": 7595,
      "å¾®ç¬ĳèµ·æĿ¥": 7596,
      "å¸ĥæĸĻ": 7597,
      "ç¢°åĪ°": 7598,
      "éģĵåĪ«åĲİ": 7599,
      "èĥĸä¹İä¹İ": 7600,
      "åı²èĴĤå¤«": 7601,
      "ä½łæĺ¯ä¸ª": 7602,
      "çģ¯æ³¡": 7603,
      "é»ĳæļĹä¸Ń": 7604,
      "çļĦèº«ä½ĵ": 7605,
      "æĴŃæĶ¾": 7606,
      "æĭĩæĮĩ": 7607,
      "hi": 7608,
      "åľ¨è¡Ĺä¸Ĭ": 7609,
      "åı£æ¸´": 7610,
      "èħ°å¸¦": 7611,
      "æ¬£åĸľèĭ¥": 7612,
      "æ¬£åĸľèĭ¥çĭĤ": 7613,
      "ä»ĸä»¬çİ©äºĨ": 7614,
      "ä»ĸä»¬æĪĲäºĨå¥½æľĭåıĭ": 7615,
      "åĲĳå®ĥ": 7616,
      "åģ¥èº«": 7617,
      "ä¹Łæĥ³çİ©": 7618,
      "èĢ¸äºĨèĢ¸èĤ©": 7619,
      "éĥ½èĥ½": 7620,
      "è·ĳæİīäºĨ": 7621,
      "ä¸ĢåĪĩéĥ½ä¼ļ": 7622,
      "åĨħå®¹": 7623,
      "æŁ±åŃĲ": 7624,
      "åľ¨ä¸Ģ": 7625,
      "ä½ıåľ¨ä¸Ģçīĩ": 7626,
      "æ°¸è¿ľè®°ä½ı": 7627,
      "å¢ŀ": 7628,
      "åĹħ": 7629,
      "çľĭåĪ°äºĨä¸Ģä¸ªå¤§": 7630,
      "çĥŁçģ°": 7631,
      "èĴ¸æ±½": 7632,
      "çĦ¶åĲİæĬĬ": 7633,
      "è§£åĨ³éĹ®é¢ĺ": 7634,
      "äº¤åĪ°äºĨä¸Ģä¸ªæĸ°æľĭåıĭ": 7635,
      "éĿŀå¸¸å¥½": 7636,
      "ä¸įå¼Ģ": 7637,
      "çļĦå°ıå¥³åŃ©åı«": 7638,
      "åĶ¯": 7639,
      "æĳ¸æĳ¸": 7640,
      "æ¸ħçĲĨå¹²åĩĢ": 7641,
      "åĴĮå®ĥä¸Ģèµ·çİ©": 7642,
      "åį§å®¤éĩĮ": 7643,
      "éĤ®éĢĴåĳĺ": 7644,
      "é¸Łç¬¼": 7645,
      "åĶ±äºĨä¸Ģé¦ĸ": 7646,
      "ä¸Ģåı£æ°Ķ": 7647,
      "å¥¹åıĳçİ°äºĨä¸Ģä¸ª": 7648,
      "æĪĳä¸įåĸľæ¬¢": 7649,
      "å¹¶è®©": 7650,
      "çİ©å¾Ĺå¤ªå¼Ģå¿ĥäºĨ": 7651,
      "çļĦæĹħç¨ĭ": 7652,
      "ä¸Ģä¸ªåľ°æĸ¹": 7653,
      "æľīä¸Ģèīĺ": 7654,
      "ä½Ĩè¿Ļæ¬¡": 7655,
      "éķ¿çŁĽ": 7656,
      "ä½ıåľ¨ä¸Ģä¸ªå¤§": 7657,
      "ç¾Ĭæ¯Ľ": 7658,
      "æĥ³åĪ°ä¸Ģä¸ªä¸»æĦı": 7659,
      "åľ¨åľ°æĿ¿ä¸Ĭ": 7660,
      "éĤ£æŀļ": 7661,
      "ç»ĻäºĪ": 7662,
      "æ°´æ¡¶": 7663,
      "è§īå¾Ĺå¾Ī": 7664,
      "è§īå¾Ĺè¿Ļæĺ¯ä¸ªå¥½ä¸»æĦı": 7665,
      "æıĲéĨĴå¥¹": 7666,
      "å¥¹å¾®ç¬ĳçĿĢè¯´": 7667,
      "ä¸Ģä¸ªçĶ·åŃ©": 7668,
      "å¥¹å¦Īå¦Īå¾®ç¬ĳçĿĢè¯´": 7669,
      "æ¼«æŃ¥": 7670,
      "çļĦè½¦": 7671,
      "ä»ĸæī¾åĪ°äºĨ": 7672,
      "æĺ¯åĽłä¸º": 7673,
      "çİ©ä¸Ģä¸ªæ¸¸æĪı": 7674,
      "ä½Ĩä»ĸä»įçĦ¶": 7675,
      "å°Ŀå°Ŀ": 7676,
      "éĻ¤": 7677,
      "éĵľ": 7678,
      "åº¦è¿ĩäºĨä¸Ģä¸ª": 7679,
      "å¾ĹæĽ´é«ĺ": 7680,
      "ä¸ĵæ¨ª": 7681,
      "åĶ¯ä¸Ģ": 7682,
      "ä»ĸæĺ¯ä¸Ģä¸ª": 7683,
      "æľīç¤¼è²Į": 7684,
      "éĿ¢å¯¹": 7685,
      "åĲĳæľĭåıĭä»¬": 7686,
      "åıĹåĪ°": 7687,
      "æłĳä¸ĬçļĦ": 7688,
      "çĶľçŃĴ": 7689,
      "ç¢İäºĨ": 7690,
      "æĨ¾": 7691,
      "éģĹæĨ¾": 7692,
      "åĳĬè¯īä»ĸä»¬": 7693,
      "æ±½è½¦åĴĮ": 7694,
      "ä¸įä»ħ": 7695,
      "äºĨä¸Ģè¾Ĩ": 7696,
      "ä¼¤åĪ°": 7697,
      "æ£®æŀĹéĩĮçļĦ": 7698,
      "éĥģ": 7699,
      "åº·å¤į": 7700,
      "æµ´è¢į": 7701,
      "çĪµ": 7702,
      "ä»ĸçļĦçĪ¶äº²": 7703,
      "æĪĳä»¬åĽŀå®¶": 7704,
      "äºİæĺ¯ä»ĸä»¬ä¸Ģèµ·": 7705,
      "çĦ¶åĲİå¥¹ä»¬": 7706,
      "æľīè¶£çļĦæ¸¸æĪı": 7707,
      "å¼¹è·³": 7708,
      "æĥ³è±¡åĬĽ": 7709,
      "æĺ¯ä¸įå¥½çļĦ": 7710,
      "çĥŁçģ°ç¼¸": 7711,
      "å¯¹ä½ł": 7712,
      "åĺ´å·´": 7713,
      "åŃ¤åįķäºĨ": 7714,
      "çīµçĿĢæīĭ": 7715,
      "Tweety": 7716,
      "ä»ĸæŃ£": 7717,
      "æĦŁåĪ°å¥½å¥ĩ": 7718,
      "èĥ½åĲ¦": 7719,
      "æĿ°ç±³": 7720,
      "é¼»": 7721,
      "æĢ»æĺ¯å¾Ī": 7722,
      "é¦ħ": 7723,
      "è®²æķħäºĭ": 7724,
      "é«ĺé«ĺåľ°": 7725,
      "ä½łåģļ": 7726,
      "çŁ³åŃĲ": 7727,
      "åĴĮå¥¹çļĦå®¶äºº": 7728,
      "é²ľèī³çļĦ": 7729,
      "äºĨè¿ĩåİ»": 7730,
      "å¥¹å°Ĩ": 7731,
      "ä»İåīįæľīä¸Ģä¸ªçĶ·åŃ©åı«": 7732,
      "è·ĳå¾ĹéĿŀå¸¸å¿«": 7733,
      "èĪ¹éķ¿": 7734,
      "åĪĩåľ°": 7735,
      "å¼ºå£®çļĦ": 7736,
      "æ¸ħçĲĨäºĨ": 7737,
      "çĪµå£«": 7738,
      "åĩºåı£": 7739,
      "å¥¹å¦Īå¦ĪåĳĬè¯īå¥¹": 7740,
      "å®īéĿĻåľ°": 7741,
      "æĪĳåıªæĺ¯æĥ³": 7742,
      "çļĦçŁ¥è¯Ĩ": 7743,
      "ä½łçľĭ": 7744,
      "è¿Ļæł·ä½ł": 7745,
      "åĮ»çĶŁè¯´": 7746,
      "äºĨä¸ĭåİ»": 7747,
      "æīĭè¡¨": 7748,
      "æİ¥ä½ı": 7749,
      "æ°¸è¿ľä¸įè¦ģ": 7750,
      "æĺ¯åĲ¦æĦ¿æĦı": 7751,
      "èª": 7752,
      "ä¸ĢåľĪ": 7753,
      "ä¸Ģä¸ªçİ©åħ·": 7754,
      "æ´²": 7755,
      "è´µäºĨ": 7756,
      "åľ¨åģļä»Ģä¹Ī": 7757,
      "åĴĮåĸĦèī¯": 7758,
      "çĶ¨äºĨ": 7759,
      "åĬ¨çī©åĴĮ": 7760,
      "ç¾İåĳ³çļĦéĽ¶é£Ł": 7761,
      "éĢĲæ¸Ĳ": 7762,
      "çľĭçĶµè§Ĩ": 7763,
      "åĽłä¸ºä»ĸçļĦ": 7764,
      "æľīä¸Ģä»¶": 7765,
      "å£°åĵį": 7766,
      "çī¹åĪ«çļĦç¤¼çī©": 7767,
      "ä¼Ļä¼´": 7768,
      "åĳĬè¯īäºĨå¦Īå¦Ī": 7769,
      "è¿ĻçľŁæĺ¯": 7770,
      "å°ıå¥³åŃ©åĴĮ": 7771,
      "åıĪéļ¾è¿ĩ": 7772,
      "åĨ·äºĨ": 7773,
      "çļĦå®¶åºŃ": 7774,
      "å®Įä¹ĭåĲİ": 7775,
      "è´¨": 7776,
      "æĭ¥æĬ±åľ¨ä¸Ģèµ·": 7777,
      "æĹ¶éĹ´çļĦ": 7778,
      "æīĵå¼ĢäºĨçĽĴåŃĲ": 7779,
      "èŃ¦è§ī": 7780,
      "æ¬¾": 7781,
      "ä¿Ŀç®¡": 7782,
      "åłµ": 7783,
      "åĩºæĿ¥çļĦ": 7784,
      "åģĩçļĦ": 7785,
      "ä»ĸå¯¹èĩªå·±": 7786,
      "Li": 7787,
      "èĢĲ": 7788,
      "å¥¹çļĦå®¶äºº": 7789,
      "ä¸ºèĩªå·±æĦŁåĪ°éĿŀå¸¸èĩªè±ª": 7790,
      "æ¸¸æ³³æ±ł": 7791,
      "å¯¼å¼¹": 7792,
      "æĭįäºĨæĭį": 7793,
      "å¤§åŃ¦": 7794,
      "èĦ¸ä¸ĬçļĦ": 7795,
      "åĸ·æ°Ķ": 7796,
      "åĪ°å¤ĸéĿ¢åİ»çİ©": 7797,
      "è¿Ļæł·çļĦä¸ľè¥¿": 7798,
      "åįĪçĿ¡": 7799,
      "è·³ä¸Ĭè·³ä¸ĭ": 7800,
      "çģŃäºĨ": 7801,
      "æĺ¥å¤©": 7802,
      "ä»ĸæīĵå¼Ģ": 7803,
      "å¤§åį«": 7804,
      "å¸¦çĿĢå¾®ç¬ĳ": 7805,
      "çļĦå¾®ç¬ĳ": 7806,
      "ä»ĸæī¾åĪ°äºĨä¸Ģ": 7807,
      "ä»¥ä¾¿": 7808,
      "ä»İåīįæľīä¸¤ä¸ªæľĭåıĭ": 7809,
      "ç³ķçĤ¹": 7810,
      "åĮĸå¦Ĩ": 7811,
      "ä¼¸æīĭåİ»": 7812,
      "ä»·åĢ¼": 7813,
      "ç¬¦åı·": 7814,
      "é¦ħé¥¼": 7815,
      "å¥¹æľĢåĸľæ¬¢": 7816,
      "è¿Ļé¦ĸ": 7817,
      "åİ»åıĤåĬł": 7818,
      "æľĭåıĭçļĦ": 7819,
      "å¼Ģå§ĭä¸ĭéĽ¨äºĨ": 7820,
      "çĦ¶åĲİåĽŀå®¶äºĨ": 7821,
      "å¸¦åĽŀäºĨ": 7822,
      "åį¡éĢļ": 7823,
      "çļĦèĤļåŃĲ": 7824,
      "æĦŁåĪ°éĿŀå¸¸ä¼¤å¿ĥ": 7825,
      "æīĺé©¬": 7826,
      "åı°ä¸Ĭ": 7827,
      "è¿Ļæľ¬": 7828,
      "æ°´åĴĮ": 7829,
      "çĽ¸ä¿¡èĩªå·±": 7830,
      "çłĶ": 7831,
      "æ¹ĸæ³Ĭ": 7832,
      "èĭįçĻ½": 7833,
      "æľīæĿ¡": 7834,
      "ä½łçľŁæĺ¯å¤ª": 7835,
      "çĦ¶åĲİå®ĥ": 7836,
      "æ¯Ķä»¥å¾Ģ": 7837,
      "åĬłåħ¥ä»ĸä»¬": 7838,
      "ç¥ĸæ¯į": 7839,
      "ä»ĸåºĶè¯¥": 7840,
      "åĲĥåįĪé¥Ń": 7841,
      "çļĦå°ıè·¯": 7842,
      "çĽ¸åıį": 7843,
      "æ´Ĺåıĳ": 7844,
      "çļĦæĥħåĨµ": 7845,
      "ä»ĸåĨįä¹Łæ²¡æľī": 7846,
      "æĭĨ": 7847,
      "å°ıå¥³åŃ©å¾®ç¬ĳçĿĢ": 7848,
      "å¯¹è¿Ļä¸ª": 7849,
      "æĬĬå®ĥæį¡èµ·æĿ¥": 7850,
      "æĬĵåĪ°": 7851,
      "æĻĥåĬ¨": 7852,
      "å·¢ç©´": 7853,
      "å¹¿åĳĬ": 7854,
      "çļĦå®¶äºº": 7855,
      "æĪĳä¸įæĺ¯": 7856,
      "ä¹Łç¬ĳäºĨ": 7857,
      "åľ¨äºĨåľ°ä¸Ĭ": 7858,
      "å®ĪæĬ¤": 7859,
      "ä¸ĭå®ļåĨ³å¿ĥè¦ģ": 7860,
      "ä»ĸåģľä¸ĭæĿ¥": 7861,
      "å¾Īå®īåħ¨": 7862,
      "å¥¹çļĦæ³°è¿ªçĨĬ": 7863,
      "äºİæĺ¯æľīä¸Ģå¤©": 7864,
      "ä»ĸè§īå¾Ĺèĩªå·±": 7865,
      "è®¤çľŁåľ°": 7866,
      "éĿĻéĿĻåľ°": 7867,
      "æīĺé©¬æĸ¯": 7868,
      "çĦ¶åĲİè¯´éģĵ": 7869,
      "ç¾İåĳ³çļĦèĽĭç³ķ": 7870,
      "çĶµç¼Ĩ": 7871,
      "ä»ĸä»¬çļĦçİ©åħ·": 7872,
      "å¥¶å¥¶å®¶": 7873,
      "æĮīæĳ©": 7874,
      "åĪ°å®¶æĹ¶": 7875,
      "ä¸ģ": 7876,
      "ä»ĸä»¬æ¯ıå¤©": 7877,
      "ä½ĨæıĲç±³": 7878,
      "å¤ªéĩįäºĨ": 7879,
      "ä½ıåľ¨ä¸Ģä¸ªå°ı": 7880,
      "æ¹¿æ¼ī": 7881,
      "æĪĲä¸ºäºĨå¥½æľĭåıĭ": 7882,
      "èµ¢å¾Ĺæ¯ĶèµĽ": 7883,
      "ä»ĸä¸įåĸľæ¬¢": 7884,
      "éĿŀå¸¸çī¹åĪ«çļĦä¸ľè¥¿": 7885,
      "çİ©èĢįå¹¶": 7886,
      "æŁĲç§į": 7887,
      "æĪĳä¹Łæĺ¯": 7888,
      "åĿ¦åħĭ": 7889,
      "æ¹¿æ¼īæ¼ī": 7890,
      "å¦Īå¦Īèº«è¾¹": 7891,
      "è´§è½¦": 7892,
      "åĲ¼åı«": 7893,
      "ä¸Ģè·¯ä¸Ĭ": 7894,
      "ä¸Ģèīĺ": 7895,
      "æī¾åĪ°åĽŀå®¶çļĦè·¯": 7896,
      "æĶ¾åľ¨äºĨ": 7897,
      "äºĴçĽ¸æĭ¥æĬ±": 7898,
      "ä½İå£°": 7899,
      "çŁ¿çŁ³": 7900,
      "çłĶç©¶": 7901,
      "æī«": 7902,
      "åĴĮå¹³": 7903,
      "æĸ°çŁ¥è¯Ĩ": 7904,
      "è¡£æŁľéĩĮ": 7905,
      "èī°éļ¾": 7906,
      "èİīèİīçĤ¹äºĨçĤ¹å¤´": 7907,
      "å®¶éĻĦè¿ĳçļĦ": 7908,
      "è¿Ļä¸ªå°ıçĶ·åŃ©": 7909,
      "æĸ¹ä½ĵ": 7910,
      "æ¼Ĥäº®äºĨ": 7911,
      "å¥¹åĸľæ¬¢åĴĮæľĭåıĭä»¬ä¸Ģèµ·": 7912,
      "æĪ¿éĹ´çļĦ": 7913,
      "ç¬¬äºĮå¤©æĹ©ä¸Ĭ": 7914,
      "åģļçĤ¹ä»Ģä¹Ī": 7915,
      "åľ¨äºĨä¸Ģ": 7916,
      "åħĭæ´Ľ": 7917,
      "åı¯ä»¥è®©": 7918,
      "ä¹Łåľ¨": 7919,
      "è·³äºĨåĩºæĿ¥": 7920,
      "è´Ŀä¸Ŀ": 7921,
      "å¤ªéĺ³å¼Ģå§ĭä¸ĭå±±": 7922,
      "ä»ĸæħ¢æħ¢åľ°": 7923,
      "åĸĻ": 7924,
      "å¼Ģå¿ĥæŀģäºĨ": 7925,
      "æĸ¯çī¹": 7926,
      "ä¸°": 7927,
      "èİīèİīçľĭåĪ°ä¸Ģä¸ª": 7928,
      "èĬ±åĦ¿": 7929,
      "è´¥": 7930,
      "æĿĨåŃĲ": 7931,
      "è¶³å¤ŁçļĦéĴ±": 7932,
      "æ´Ĺåıĳæ°´": 7933,
      "ä»ĸä»¬çľĭçĿĢ": 7934,
      "å¼Ģçİ©ç¬ĳ": 7935,
      "åľ¨ä¸Ģä¸ªå°ıéķĩä¸Ĭ": 7936,
      "è¿Ļå¤ªæľīè¶£äºĨ": 7937,
      "ç«ĭæĸ¹ä½ĵ": 7938,
      "çļĦèľĤ": 7939,
      "åĸľæ¬¢åľ¨å¤ĸéĿ¢çİ©": 7940,
      "æĬĬæīĢæľī": 7941,
      "æĪĳä»¬æĺİå¤©": 7942,
      "éĹ®å¥¹çļĦå¦Īå¦Ī": 7943,
      "çĪ¬è¡Į": 7944,
      "åĲĦç§įåĲĦæł·çļĦ": 7945,
      "åĨįè¯ķä¸Ģæ¬¡": 7946,
      "ä¸Ģä¸ªéĺ³åħīæĺİåªļçļĦæĹ¥åŃĲ": 7947,
      "éĤ£æĹ¶": 7948,
      "äºĨä¸ĢäºĽå¥ĩæĢªçļĦäºĭæĥħ": 7949,
      "å¸ĥé²ģ": 7950,
      "éĽ·ç±³": 7951,
      "åı¯éĿłçļĦ": 7952,
      "åģ¥èº«æĪ¿": 7953,
      "çļĦé¡¶ç«¯": 7954,
      "èİīèİīæĦŁåĪ°å¾Ī": 7955,
      "ä¸Ģèµ·è·³èĪŀ": 7956,
      "æĹ¥èĲ½": 7957,
      "èįīåĿª": 7958,
      "åĴĮä»ĸä¸Ģèµ·çİ©": 7959,
      "éľĢè¦ģå¸®åĬ©æĹ¶": 7960,
      "å°ĸåı«èµ·æĿ¥": 7961,
      "çĩĥçĥ§": 7962,
      "å¹¿åĳĬçīĮ": 7963,
      "çļĦèĹ": 7964,
      "ç»¿æ´²": 7965,
      "æ¿ĢåĬ¨å¾Ĺ": 7966,
      "éģĵäºĨæŃī": 7967,
      "ä¸¸": 7968,
      "å¥¹æ¯ıå¤©éĥ½ä¼ļ": 7969,
      "ä»¥åħį": 7970,
      "çĥ¹": 7971,
      "é¢Ŀ": 7972,
      "æ£µæłĳä¸Ĭ": 7973,
      "ç¼ł": 7974,
      "åĵįäºĨ": 7975,
      "çł´åĿı": 7976,
      "èµ°è¿Ľåİ¨æĪ¿": 7977,
      "è·³åĪ°äºĨ": 7978,
      "èĦļä¸ĭ": 7979,
      "ä¸Ģæ£µæłĳä¸Ĭ": 7980,
      "åĩ³": 7981,
      "æī¾çĤ¹": 7982,
      "ç¾İäºĨ": 7983,
      "æīĵä¸ª": 7984,
      "è¿ĳè·Ŀç¦»": 7985,
      "çĽ´åĪ°æľīä¸Ģå¤©": 7986,
      "è¡£æŀ¶": 7987,
      "çĥ¤æŀ¶": 7988,
      "å°ıåĬ¨çī©": 7989,
      "ç»§ç»Ńæİ¢ç´¢": 7990,
      "éĶĭåĪ©çļĦ": 7991,
      "çĻ¾åĲĪ": 7992,
      "å¤§äºº": 7993,
      "é«ĺå¤Ħ": 7994,
      "è¿ĺæľīä¸Ģä¸ª": 7995,
      "ä»ĸçļĦå¦Īå¦ĪåĳĬè¯īä»ĸ": 7996,
      "è¯·ä¸įè¦ģ": 7997,
      "å½ĵä»ĸä»¬åľ¨": 7998,
      "è¿ĩæĿ¥ä¸Ģèµ·çİ©": 7999,
      "æĿ¥åĪ°äºĨä¸Ģä¸ª": 8000,
      "åŃĹåħ¸": 8001,
      "å¥¹åľ¨èĬ±åĽŃéĩĮ": 8002,
      "ç»Ĩå¿ĥ": 8003,
      "çĮĽçĥĪ": 8004,
      "æĢİä¹Īä¹Ł": 8005,
      "åĴ§": 8006,
      "åľ°çĤ¹": 8007,
      "æĦŁåĪ°ä¼¤å¿ĥ": 8008,
      "é£ĵ": 8009,
      "å±¿": 8010,
      "æľĭåıĭä»¬çľĭ": 8011,
      "ç»ĻäºĨä»ĸä»¬": 8012,
      "è§£å¼Ģ": 8013,
      "çĶŁæ´»ä¸Ń": 8014,
      "åĿĳéĩĮ": 8015,
      "å²Ľå±¿": 8016,
      "ºåºĻ": 8017,
      "å¥¹ç»Īäºİ": 8018,
      "éģ¿åħį": 8019,
      "æ¯ıå½ĵä»ĸ": 8020,
      "è·³äºĨè¿Ľåİ»": 8021,
      "çļĦå¤§çĭĹ": 8022,
      "å®īå¨ľè¯´": 8023,
      "å¡ĳæĸĻ": 8024,
      "©æ¢¦": 8025,
      "å¦Īå¦ĪçŃĶåºĶäºĨ": 8026,
      "åĥıæĺ¯": 8027,
      "çħİ": 8028,
      "åĻ©æ¢¦": 8029,
      "ç¬¼åŃĲéĩĮ": 8030,
      "è£Ĥç¼Ŀ": 8031,
      "å¥¹è¢«": 8032,
      "åģĩæľŁ": 8033,
      "åģļä¸ĢäºĽçī¹åĪ«çļĦäºĭæĥħ": 8034,
      "è¾Ľåĭ¤": 8035,
      "åĲłåı«": 8036,
      "æŃ¦åĻ¨": 8037,
      "åħ«": 8038,
      "éĤ£éģĵ": 8039,
      "é¤Ĳæ¡Į": 8040,
      "åĳ¼åĶ¤": 8041,
      "è¿·äººçļĦ": 8042,
      "å·¢éĩĮ": 8043,
      "å®ŀåľ¨å¤ª": 8044,
      "è¿Ļæłª": 8045,
      "ä»ĸä»¬è¦ģåİ»": 8046,
      "ç±³å¥ĩ": 8047,
      "éĥ½æ²¡æľī": 8048,
      "å¤ĸéĿ¢çİ©": 8049,
      "ç»ĻäºĨå®ĥ": 8050,
      "éģĵè°¢": 8051,
      "åĲĥä¸ĢäºĽ": 8052,
      "ä¸Ģå®ļæĺ¯": 8053,
      "ä¸¥éĩį": 8054,
      "éŀŃ": 8055,
      "å¤´éª¨": 8056,
      "åĪ¶å®ļ": 8057,
      "å¦Ĥæŀľä»ĸ": 8058,
      "æķ´å¤©éĥ½åľ¨çİ©": 8059,
      "æĪĳä¸į": 8060,
      "åı¯è´´": 8061,
      "èµ°å¼ĢäºĨ": 8062,
      "è¯ķåĽ¾æĬĵä½ı": 8063,
      "å¼Ħä¸¢": 8064,
      "åĪĽåı¯è´´": 8065,
      "æłĩçīĮ": 8066,
      "æ©¡çļ®æĵ¦": 8067,
      "äºĨå¥½åĩłä¸ªå°ıæĹ¶": 8068,
      "ç»Ļä»ĸçļĦ": 8069,
      "åĲĥçļĦ": 8070,
      "æ¸¸èµ°äºĨ": 8071,
      "çĽ¸äºĴ": 8072,
      "æīĢä»¥ä»ĸåĨ³å®ļ": 8073,
      "èĲ¨å§Ĩè¯´": 8074,
      "çĶŁæ´»åľ¨": 8075,
      "å¹¶ä¸įåľ¨æĦı": 8076,
      "äºĨä¸Ģå¤§åı£": 8077,
      "Bi": 8078,
      "å¤©èī²": 8079,
      "æĭĤ": 8080,
      "åıĪä¸Ģéģį": 8081,
      "åĵŃçĿĢ": 8082,
      "åį¡å°Ķ": 8083,
      "è¿Ľè¡Įä¸Ģæ¬¡": 8084,
      "æĥĬè®¶åľ°åıĳçİ°": 8085,
      "æĺ¯ä¸įå¯¹çļĦ": 8086,
      "çĶŁçĹħäºĨ": 8087,
      "è¿ŁäºĨ": 8088,
      "ä½Ļ": 8089,
      "çľĭåĪ°åľ°ä¸Ĭ": 8090,
      "æľīä¸ĢåıªåıĪå¤§åıĪ": 8091,
      "æľīä¸Ģä¸ªåĲįåı«éľ²è¥¿çļĦå°ıå¥³åŃ©": 8092,
      "å®Ŀè´µçļĦæķĻè®Ń": 8093,
      "äºĨåĩºåİ»": 8094,
      "éľľ": 8095,
      "æĭ¿åĪ°äºĨ": 8096,
      "åŃ©åŃĲéĥ½": 8097,
      "èªĵ": 8098,
      "çļĦåħīèĬĴ": 8099,
      "åľ¨èº«è¾¹": 8100,
      "åı¯ä»¥åģļ": 8101,
      "èĴĻ": 8102,
      "éĹ®ä»ĸçļĦå¦Īå¦Ī": 8103,
      "æŃ£åĿĲåľ¨": 8104,
      "çļĦèĨ": 8105,
      "æģ³": 8106,
      "æ»ĳåĢĴäºĨ": 8107,
      "å¡ŀ": 8108,
      "åŀĥåľ¾æ¡¶": 8109,
      "åĲ¬äºĨå¦Īå¦ĪçļĦè¯Ŀ": 8110,
      "ä½łçİ°åľ¨": 8111,
      "æ¢¦æĥ³çĿĢ": 8112,
      "æ¢¦ä¹¡": 8113,
      "å¥¹æľĢåĸľæ¬¢çļĦçİ©åħ·": 8114,
      "ä»ĸæĦıè¯ĨåĪ°èĩªå·±": 8115,
      "èİīèİīæĦŁåĪ°éļ¾è¿ĩ": 8116,
      "ä½łè§īå¾Ĺ": 8117,
      "é£ŀå¾Ĺå¾Īé«ĺ": 8118,
      "åħ±åĲĮ": 8119,
      "å¥¹å¤ª": 8120,
      "ä»ĸä»¬è¦ģ": 8121,
      "èĥ½å¸®åĬ©": 8122,
      "å½ĵä»ĸä»¬åĽŀåĪ°å®¶æĹ¶": 8123,
      "æĿĳæ°ĳä»¬": 8124,
      "å®ĥæĹ¶": 8125,
      "å®ĥçĶ¨": 8126,
      "çĪ±ç®¡éĹ²äºĭ": 8127,
      "æľīä¸Ģä¸ªåı«èĴĤå§ĨçļĦå°ıçĶ·åŃ©": 8128,
      "çĸĳ": 8129,
      "è·ŁæĪĳæĿ¥": 8130,
      "èººåľ¨èįīåľ°ä¸Ĭ": 8131,
      "å¿«éĢŁåľ°": 8132,
      "åħĭæ´Ľä¼Ĭ": 8133,
      "å¥¹ç©¿ä¸ĬäºĨ": 8134,
      "å¾Īé«ĺ": 8135,
      "ä½łè¦ģ": 8136,
      "è½½": 8137,
      "æĪĳä»¬ä¸Ģèµ·çİ©åĲ§": 8138,
      "çŃĭ": 8139,
      "åıĺå¾Ĺå¹²åĩĢ": 8140,
      "å¹³å®ī": 8141,
      "äºīè®º": 8142,
      "è¿ĻçľŁ": 8143,
      "æĬĬä¸ľè¥¿": 8144,
      "èµ°æĹ¶": 8145,
      "åģļåĩºäºĨ": 8146,
      "æĪĲæŀľ": 8147,
      "æĦŁåĪ°éĿŀå¸¸å¿«ä¹Ĳ": 8148,
      "å¾®ç¬ĳçĿĢåĽŀçŃĶ": 8149,
      "æĵİ": 8150,
      "ç¾İä¸½çļĦèĬ±": 8151,
      "å¼ķæĵİ": 8152,
      "èµ°è¿ĽäºĨæĪ¿éĹ´": 8153,
      "é£ĵé£İ": 8154,
      "å¥¹æĭ¿åĩº": 8155,
      "å¥¹åĪ°å¤Ħå¯»æī¾": 8156,
      "å¸Ŀ": 8157,
      "ç¾İçļĦ": 8158,
      "åıĳçİ°çļĦ": 8159,
      "é¢ľèī²çļĦ": 8160,
      "çİ¯å¢ĥ": 8161,
      "éĢģåĪ°": 8162,
      "æĦŁåıĹåĪ°äºĨ": 8163,
      "çĲ¼": 8164,
      "è·³å¾Ĺ": 8165,
      "éļĨ": 8166,
      "åľ°æ¯¯ä¸Ĭ": 8167,
      "èĳĹåĲįçļĦ": 8168,
      "æľīèĢĲå¿ĥ": 8169,
      "è¯±": 8170,
      "åĴĮçĭĹ": 8171,
      "æłħ": 8172,
      "æķ¬": 8173,
      "å¸¦èµ°äºĨ": 8174,
      "æŁĶè½¯åıĪ": 8175,
      "ä¿®çĲĨå·¥": 8176,
      "çļĦèĨĿçĽĸ": 8177,
      "çļĦåĸĦèī¯": 8178,
      "è¯´ä»ĸ": 8179,
      "å½ĵæĹ¶": 8180,
      "åĽŀåĪ°åħ¬åĽŃ": 8181,
      "æŀ¶åŃĲ": 8182,
      "æıĲå§ĨçļĦå°ıçĶ·åŃ©": 8183,
      "æ¶Ĥèī²": 8184,
      "åĴĮå¥¹ä¸Ģèµ·çİ©": 8185,
      "æŃ£åľ¨åħ¬åĽŃéĩĮçİ©èĢį": 8186,
      "ä»ĸçİ©å¾ĹéĿŀå¸¸å¼Ģå¿ĥ": 8187,
      "æľīä¸¤åıª": 8188,
      "å®ĥå·²ç»ı": 8189,
      "çİ©åĪ°": 8190,
      "äºĨä¸Ģéģĵ": 8191,
      "èĢģåħĪçĶŁ": 8192,
      "é©¬åħĭæĸ¯åĸľæ¬¢": 8193,
      "å¯»æī¾åı¯ä»¥": 8194,
      "çļĩåĨł": 8195,
      "ç±³é¥Ń": 8196,
      "éĹ®äºĨ": 8197,
      "éĩĮéĿ¢æĺ¯ä»Ģä¹Ī": 8198,
      "åıĳçĶŁä»Ģä¹Ī": 8199,
      "æ³¢æ¯Ķ": 8200,
      "ä»Ķç»Ĩçľĭçľĭ": 8201,
      "è¸¢çĲĥ": 8202,
      "é¥ª": 8203,
      "åĳ¼åĸĬ": 8204,
      "éľĩåĬ¨": 8205,
      "ä¼¯çī¹": 8206,
      "çĥ¹é¥ª": 8207,
      "éĤ£æĺ¯ä¸Ģé¢Ĺ": 8208,
      "çıĬçĳļç¤ģ": 8209,
      "æĿ¥åģļ": 8210,
      "ä½Ĩä¸ºæĹ¶å·²æĻļ": 8211,
      "å¹¶ä¿ĿæĮģ": 8212,
      "æĭ¥æľīä¸Ģä¸ª": 8213,
      "éĢģç»Ļå¥¹": 8214,
      "å¾Ģåīį": 8215,
      "ä¸ĵæ³¨": 8216,
      "åķĥ": 8217,
      "å¥¹åĸľæ¬¢åĴĮæľĭåıĭä»¬": 8218,
      "èĢĮä¸Ķå¾Ī": 8219,
      "è´Ŀå°Ķ": 8220,
      "çĿĢä»ĸ": 8221,
      "ä¸Ĭå¸Ŀ": 8222,
      "åľ°çĲĥ": 8223,
      "è¿ĩå¾Ĺ": 8224,
      "éĤ£æĺ¯æĪĳçļĦ": 8225,
      "éĽ¨åģľäºĨ": 8226,
      "åĸľæ¬¢åľ¨éĺ³åħīä¸ĭ": 8227,
      "æłĳæŀĿåĴĮ": 8228,
      "è¯ģæĺİ": 8229,
      "æī¾åĽŀ": 8230,
      "æıĲç±³åĴĮ": 8231,
      "æĿ°åħĭéĿŀå¸¸åħ´å¥ĭ": 8232,
      "åħ´å¥ĭåľ°è¯´": 8233,
      "çĥŁéĽ¾": 8234,
      "Tweetie": 8235,
      "æģ³æ±Ĥ": 8236,
      "ä¸ĢæĿ¯": 8237,
      "å¥¹åĨįæ¬¡": 8238,
      "å¸®æīĭ": 8239,
      "æľīä¸Ģåıªå¤§": 8240,
      "ä½ľåĵį": 8241,
      "åĴĮä»ĸçļĦå¦Īå¦Īä¸Ģèµ·": 8242,
      "å®½å¹¿": 8243,
      "ä»ĸä¸įå¾Ĺä¸į": 8244,
      "åĴĮéļ¾è¿ĩ": 8245,
      "åİķ": 8246,
      "èİīèİīæĦŁè§īå¥½å¤ļäºĨ": 8247,
      "æľīä¸Ģä¸ªåĭĩæķ¢": 8248,
      "äº¤æį¢": 8249,
      "ä¾ĿéĿł": 8250,
      "è·ĳè¿Ľå±ĭéĩĮ": 8251,
      "æĥĬåĳ¼éģĵ": 8252,
      "å¥¹æī¾åĪ°äºĨ": 8253,
      "åľ¨çİ©èĢį": 8254,
      "éķ¿åıĪ": 8255,
      "å¸®åĬ©ä»ĸäºº": 8256,
      "å¤ļæ±ģçļĦ": 8257,
      "å®ŀéªĮå®¤": 8258,
      "å¥¹æī¾åĪ°äºĨä¸Ģ": 8259,
      "åľ¨éĽ¨ä¸Ń": 8260,
      "éĿŀå¸¸ç¾İä¸½": 8261,
      "æĹ¥åİĨ": 8262,
      "è¿ĻäºĽçİ©åħ·": 8263,
      "åħ¶ä»ĸä¸ľè¥¿": 8264,
      "åĲĦç§įåĲĦæł·": 8265,
      "åĲĮæĥħå¿ĥ": 8266,
      "é¬¼": 8267,
      "ç¹": 8268,
      "æı´": 8269,
      "çŃīçŃī": 8270,
      "åŃĺåľ¨": 8271,
      "å¾Ħ": 8272,
      "è°İ": 8273,
      "åĪ°äºĨåĽŀå®¶çļĦæĹ¶éĹ´": 8274,
      "æ²¡éĹ®é¢ĺ": 8275,
      "è¿ĻåıªèĢģé¼ł": 8276,
      "æľīä¸Ģä¸ªåĲįåı«èĴĤå§ĨçļĦå°ıçĶ·åŃ©": 8277,
      "ç±³å¨ħè¯´": 8278,
      "æĪĳä¸ºä½ł": 8279,
      "æľĢå¿«çļĦ": 8280,
      "åĽłä¸ºå®ĥä»¬": 8281,
      "åıĳçİ°äºĨä¸ĢæĿ¡": 8282,
      "å¥¹éĹ®ä»ĸ": 8283,
      "å¸¦ä»ĸåİ»": 8284,
      "åĨ°ç®±éĩĮ": 8285,
      "èģªæĺİçļĦèĢģçĮ«å¤´é¹°": 8286,
      "å¾Īåıĭå¥½": 8287,
      "å»¶": 8288,
      "èĵĿèĵĿ": 8289,
      "éĤ£å¤©ç¨įæĻļäºĽæĹ¶åĢĻ": 8290,
      "çī§åľº": 8291,
      "ä»ĸä»¬ä¸Ģè¾¹": 8292,
      "ä½łåı¯èĥ½ä¼ļ": 8293,
      "æİ¢ç´¢åĳ¨åĽ´çļĦä¸ĸçķĮ": 8294,
      "åºĹéĩĮ": 8295,
      "ä½¿çĶ¨å®ĥ": 8296,
      "åģļå¾Ĺå¥½": 8297,
      "å¾®ç¬ĳçĿĢçĤ¹äºĨçĤ¹å¤´": 8298,
      "å£°éŁ³æĺ¯ä»İ": 8299,
      "åĩĨå¤ĩäºĨä¸Ģä¸ª": 8300,
      "åħħæ»¡å¥½å¥ĩ": 8301,
      "æĺ¯åĲ¦èĥ½": 8302,
      "ä½łä¸ºä»Ģä¹Īè¿Ļä¹Ī": 8303,
      "å°ĸåı«çĿĢ": 8304,
      "å¯¹å¥¹æĿ¥è¯´": 8305,
      "ç¹ģ": 8306,
      "å¥¹æĺ¯åĲ¦åı¯ä»¥": 8307,
      "çĤ¹çĩĥ": 8308,
      "æıĲç±³éĿŀå¸¸åĸľæ¬¢": 8309,
      "ä½Ĩæĺ¯å½ĵä»ĸ": 8310,
      "æĢİæł·": 8311,
      "æ©¡åŃĲ": 8312,
      "çĶ»äºĨä¸Ģå¹ħ": 8313,
      "ä»ĸè®©": 8314,
      "æĺ¯ä¸įæĺ¯": 8315,
      "åİ»è¿ĩ": 8316,
      "èĢĮæĦŁåĪ°éĿŀå¸¸èĩªè±ª": 8317,
      "åħīäº®": 8318,
      "äº«åıĹäºĨ": 8319,
      "æĪĳå¾Īé«ĺåħ´ä½ł": 8320,
      "çļĦèĦ¸ä¸Ĭ": 8321,
      "ä»ĸåĨįæ¬¡": 8322,
      "è½¦åŃĲ": 8323,
      "æĽ´éĩįè¦ģ": 8324,
      "å¹²äºĨ": 8325,
      "åĨįä¹Łä¸įæĥ³": 8326,
      "éŃĶæĿĸ": 8327,
      "åĽºå®ļ": 8328,
      "åħ®åħ®": 8329,
      "åİķæīĢ": 8330,
      "åĲŀ": 8331,
      "å¾ĪåĽ°éļ¾": 8332,
      "å¼Ģåı£": 8333,
      "éĿ¢ä¸Ĭ": 8334,
      "é©¬åħĭæĸ¯çļĦä¸»äºº": 8335,
      "å¸¦çĿĢä»ĸçļĦ": 8336,
      "æİ¥åıĹäºĨ": 8337,
      "ä»ĸè®¤ä¸º": 8338,
      "è¿Ļå¹ħçĶ»": 8339,
      "èµ·èĪŀ": 8340,
      "éĿŀå¸¸åĸĦèī¯": 8341,
      "éĥ½è¢«": 8342,
      "æŁ¿": 8343,
      "èĭıçıĬ": 8344,
      "å±±å§ĨåĴĮ": 8345,
      "å¦®å¨ľ": 8346,
      "éĤ£æĺ¯ä¸Ģè¾Ĩ": 8347,
      "äºĨä¸Ģå£°å·¨åĵį": 8348,
      "ç»ĻäºĨä»ĸä¸Ģä¸ª": 8349,
      "çļĦçī¹æ®Ĭ": 8350,
      "å°ıéº¦": 8351,
      "éĿŀå¸¸åı¯çĪ±": 8352,
      "æĪĳä¸įèĥ½": 8353,
      "å¤§æ£®æŀĹéĩĮ": 8354,
      "æıĲç±³çļĦæľĭåıĭ": 8355,
      "éĹªåħī": 8356,
      "è¿Ļæł·å®ĥ": 8357,
      "ç«ĻçĿĢ": 8358,
      "å¾ĢéĩĮéĿ¢": 8359,
      "åĨĻåŃĹ": 8360,
      "å¼Ĺåħ°åħĭ": 8361,
      "ä»Ģä¹ĪæĹ¶åĢĻ": 8362,
      "ä¼łæĿ¥ä¸Ģå£°å·¨åĵį": 8363,
      "äºĳå±Ĥ": 8364,
      "æĪ·å¤ĸçİ©èĢį": 8365,
      "æłĳç¯±": 8366,
      "æĸ°çļĦä¸Ģæł·": 8367,
      "éĤ®ä»¶": 8368,
      "å·®çĤ¹": 8369,
      "Lily": 8370,
      "å¤ķ": 8371,
      "èİīèİīåıĪ": 8372,
      "äººåľ¨": 8373,
      "è¿Ļä¸ªå°ı": 8374,
      "æĽ´å°ıå¿ĥ": 8375,
      "åħĶåŃĲè¯´": 8376,
      "æ¸©åº¦": 8377,
      "èĹıçĿĢ": 8378,
      "å®¶éĩĮçļĦ": 8379,
      "åĽłä¸ºä»ĸçŁ¥éģĵ": 8380,
      "äº¤æľĭåıĭ": 8381,
      "æĪĲä¸ºä¸ĢåĲį": 8382,
      "èĦıåħ®åħ®": 8383,
      "ä¸įä¹ħåĲİ": 8384,
      "è·ªä¸ĭæĿ¥": 8385,
      "ä»ĸæĦŁåĪ°éĿŀå¸¸å¼Ģå¿ĥ": 8386,
      "ä»ĸä»¥åīįä»İæľªè§ģè¿ĩ": 8387,
      "ä»ĸä»¬æī¾åĪ°äºĨä¸Ģ": 8388,
      "æī¾äºĨ": 8389,
      "åģļäºĨä¸ĢäºĽ": 8390,
      "åħ¨å®¶": 8391,
      "éĶĲ": 8392,
      "æĤī": 8393,
      "ä¾¿å£«": 8394,
      "æľīè¶£çļĦåĨĴéĻ©": 8395,
      "éŀŃåŃĲ": 8396,
      "å¤ķéĺ³": 8397,
      "è¥¿çº¢": 8398,
      "é£ŀé©°": 8399,
      "æıĲç±³éĿŀå¸¸é«ĺåħ´": 8400,
      "æĬ±åľ¨": 8401,
      "åº§å¤§": 8402,
      "ä¸Ģä¸ªåĲįåı«èĴĤå§ĨçļĦå°ıçĶ·åŃ©": 8403,
      "æĬĢèĥ½": 8404,
      "è¥¿çº¢æŁ¿": 8405,
      "çļĦçħ§çīĩ": 8406,
      "æıĲç±³çļĦçĶ·åŃ©": 8407,
      "çľĭèµ·æĿ¥å¾Īæľīè¶£": 8408,
      "ä»Ĭå¤©æĺ¯": 8409,
      "ä¸Ģä¸ªåı«èĴĤå§ĨçļĦå°ıçĶ·åŃ©": 8410,
      "èģļéĽĨ": 8411,
      "ä»Ĭå¹´": 8412,
      "åıĳèªĵ": 8413,
      "ç¾İé£Ł": 8414,
      "è§ģéĿ¢": 8415,
      "æĮģç»Ń": 8416,
      "æĪ´åľ¨": 8417,
      "ä½ĵéªĮ": 8418,
      "è¸¢è¶³çĲĥ": 8419,
      "åİ»åķĨåºĹä¹°": 8420,
      "ä»ĸä»¬åĿĲåľ¨": 8421,
      "æī¾ä¸Ģä¸ª": 8422,
      "æīĭéĵ¾": 8423,
      "æ°´æŀľåĴĮ": 8424,
      "å®īçĦ¶æĹłæģĻ": 8425,
      "æłħæłı": 8426,
      "çľĭçľĭéĩĮéĿ¢æľīä»Ģä¹Ī": 8427,
      "åĨ°åĿĹ": 8428,
      "åĨ°å±ĭ": 8429,
      "åľĨçļĦ": 8430,
      "éģ¥è¿ľçļĦåľ°æĸ¹": 8431,
      "ä¸Ģä¸ªå·¨å¤§çļĦ": 8432,
      "åĴĮèĶ": 8433,
      "éĶ¯åŃĲ": 8434,
      "å¤±åİ»": 8435,
      "å±±å§Ĩè¯´": 8436,
      "åĩĮä¹±": 8437,
      "åĴ§åĺ´": 8438,
      "å¥¹è·ĳè¿ĩåİ»": 8439,
      "çİ©åĲĹ": 8440,
      "çļĦèĶ": 8441,
      "é²ľèĬ±": 8442,
      "äºĨæīĢæľī": 8443,
      "èİīèİīä¸º": 8444,
      "æ¯ıä¸Ģ": 8445,
      "æĦŁåĪ°å¾Īèĩªè±ª": 8446,
      "æĹ¥åĩº": 8447,
      "æľīçĤ¹éļ¾è¿ĩ": 8448,
      "çĸ²åĢ¦": 8449,
      "æĦŁåĪ°æĹłæ¯Ķèĩªè±ª": 8450,
      "èĩªå®¶": 8451,
      "æĪĳä»¬æĿ¥çİ©": 8452,
      "ä¸ĢåĬ¨ä¸įåĬ¨": 8453,
      "å®ĥæĬĬ": 8454,
      "å®ĥçľĭèµ·æĿ¥åĥı": 8455,
      "ä½łæĺ¯ä¸Ģä¸ª": 8456,
      "ä¸ŃæľĢ": 8457,
      "ä¹ĶåĴĮ": 8458,
      "å°Ŀè¯ķä¸Ģä¸ĭ": 8459,
      "æľīäºĨä¸Ģä¸ªæĥ³æ³ķ": 8460,
      "çĨ¨æĸĹ": 8461,
      "ä»ĸåıĳçİ°äºĨä¸Ģä¸ª": 8462,
      "æľīä¸Ģä¸ªå¾Īå¤§çļĦ": 8463,
      "é¢Ĭ": 8464,
      "é»ĺ": 8465,
      "æĦŁåĪ°å¾Īå¥½å¥ĩ": 8466,
      "èİīèİīåĴĮå¦Īå¦Ī": 8467,
      "åŃ¦ä¹łæĸ°äºĭçī©": 8468,
      "æ±¤å§ĨåĴĮç±³å¨ħ": 8469,
      "å¤§å¤§çļĦç¬ĳå®¹": 8470,
      "æīŃåĬ¨": 8471,
      "å¥½åĲİ": 8472,
      "ä¸ºä»ĸçļĦ": 8473,
      "åĶĩ": 8474,
      "å°ıå¿ĥç¿¼ç¿¼åľ°æĬĬ": 8475,
      "æĪ´çĿĢä¸Ģé¡¶": 8476,
      "ä»ĸåĲ¬åĪ°äºĨ": 8477,
      "å¥¹å¾Īé«ĺåħ´èĩªå·±": 8478,
      "åĴĮæ»¡è¶³": 8479,
      "éĤ£ä¸įæĺ¯": 8480,
      "å¹¶åĴĮ": 8481,
      "æ»¡æ»¡": 8482,
      "è¿ĩæĿ¥çľĭ": 8483,
      "èİİæĭīçļĦå°ıå¥³åŃ©": 8484,
      "è°¢è°¢ä½łä»¬": 8485,
      "åĴĮå®¶äººä¸Ģèµ·åİ»": 8486,
      "æı¡çĿĢ": 8487,
      "èĢĲçĥ¦": 8488,
      "ä¸Ĭå¿Ļ": 8489,
      "æİ¢ç´¢è¿Ļä¸ª": 8490,
      "çļĦèľľ": 8491,
      "çľ¨äºĨçľ¨çľ¼": 8492,
      "éĿŀå¸¸å¤§çļĦ": 8493,
      "åįµ": 8494,
      "è·ĳèµ·æĿ¥": 8495,
      "å¾ħçĿĢ": 8496,
      "å°½äºĨ": 8497,
      "çº¸æĿ¿": 8498,
      "æĮ£æīİ": 8499,
      "ä»ĸä»¬æĦŁè°¢": 8500,
      "åİ»æĹħè¡Į": 8501,
      "ä»¥ç¡®ä¿Ŀ": 8502,
      "ç±į": 8503,
      "é«ĺé«ĺåħ´": 8504,
      "çĦ¶åĲİåİ»": 8505,
      "æĪĲä¸Ģ": 8506,
      "å¤ĸéĿ¢çļĦ": 8507,
      "ä½Ĩä»ĸæ²¡æľī": 8508,
      "åºĬåįķ": 8509,
      "çĥŃäºĨ": 8510,
      "æĪĳä¼ļç»Ļä½ł": 8511,
      "åīªå¤´åıĳ": 8512,
      "éħ±æĸĻ": 8513,
      "èĥĮä¸Ĭ": 8514,
      "é«ĺé«ĺåħ´åħ´": 8515,
      "ä»ĸç«ĭåĪ»": 8516,
      "å¤§å°ı": 8517,
      "åľ°éľĩ": 8518,
      "éĥ½åĸľæ¬¢": 8519,
      "è½°": 8520,
      "åıĳåŀĭ": 8521,
      "çĦ¶åĲİè·ĳåİ»": 8522,
      "ä¸Ģåıªå¤§çĭĹ": 8523,
      "ä½Ĩä»ĸä¸įçŁ¥éģĵ": 8524,
      "å¼Ģå¿ĥåľ°ç¬ĳäºĨèµ·æĿ¥": 8525,
      "ĮèĤī": 8526,
      "è¯ŀ": 8527,
      "äººåĳĺ": 8528,
      "å¯¹å®ĥ": 8529,
      "éĺ¶": 8530,
      "ä¸įåĲĮæĦı": 8531,
      "æľīä¸Ģä¸ªå°ıå¥³åŃ©åĲįåı«èİīèİī": 8532,
      "çĳŁ": 8533,
      "åĴĮèĶ¼": 8534,
      "æ±¡": 8535,
      "å¼Ģå§ĭåıĺ": 8536,
      "çļ®æĻ®": 8537,
      "æĺ¯ä¸ĢæĿ¡": 8538,
      "å¾Ĺå¤ªå¿«": 8539,
      "æĦļèł¢çļĦ": 8540,
      "çļĦèľľèľĤ": 8541,
      "ä»ĸä»¬è¿ĩä¸ĬäºĨå¹¸ç¦ıçļĦçĶŁæ´»": 8542,
      "å¹¶åıĳåĩº": 8543,
      "å¯ºåºĻ": 8544,
      "èĮĤ": 8545,
      "æ¿ĢåĬ¨åľ°": 8546,
      "å®½éĺĶ": 8547,
      "éģĩåĪ°çļĦ": 8548,
      "å¥½å¿ĥäºº": 8549,
      "çļĦèĶ¬èıľ": 8550,
      "ä¸ºå®ĥ": 8551,
      "ä»ĸçļĦçĪ¸çĪ¸è¯´": 8552,
      "è®¸åı¯": 8553,
      "çº¦ç¿°åĴĮä»ĸçļĦå¦Īå¦Ī": 8554,
      "éĩĮéĿ¢è£ħæ»¡äºĨ": 8555,
      "è®©æĪĳæĿ¥": 8556,
      "åħįåıĹ": 8557,
      "ç»µç¾Ĭ": 8558,
      "ä»ĸæĭ¿çĿĢ": 8559,
      "èİīèİīå¾®ç¬ĳçĿĢè¯´": 8560,
      "å¼Ģå§ĭå¯»æī¾": 8561,
      "è®©åĪ«äºº": 8562,
      "æŃ£å¥½": 8563,
      "æīĵä¸įå¼Ģ": 8564,
      "é¢Ħ": 8565,
      "è´ĿèĴĤ": 8566,
      "åĲİéĻ¢çİ©èĢį": 8567,
      "èĴĤå§ĨåĴĮèĭı": 8568,
      "çļĦç¾İåĳ³": 8569,
      "ä»ĸä¸įåĨį": 8570,
      "ä¸ĬæĿ¥": 8571,
      "ä¼ļæľī": 8572,
      "æ¯ıåĳ¨": 8573,
      "é¡¶å¸½åŃĲ": 8574,
      "åĴĮå¥¹çļĦå¦Īå¦Īä¸Ģèµ·": 8575,
      "ä¸įä¹ħä¹ĭåĲİ": 8576,
      "çļĦçĽĴåŃĲ": 8577,
      "çļĦç§ĺå¯Ĩ": 8578,
      "ä»ĸåĪ°å¤Ħå¯»æī¾": 8579,
      "ä¸įçŁ¥": 8580,
      "èİīèİīæĦıè¯ĨåĪ°": 8581,
      "åıªæĥ³": 8582,
      "æīĭéķ¯": 8583,
      "æ±¤å§Ĩè¯´éģĵ": 8584,
      "æĲº": 8585,
      "åĨľæ°ĳ": 8586,
      "ä»¤å¥¹": 8587,
      "ä¸Ģä¸ªåı«èİīèİīçļĦå°ıå¥³åŃ©": 8588,
      "å®³ç¾ŀäºĨ": 8589,
      "å°Ħåĩ»": 8590,
      "py": 8591,
      "ra": 8592,
      "ä»ĸå¾Īå¿«": 8593,
      "å¥¹èº«è¾¹": 8594,
      "æµħ": 8595,
      "èĴĤç±³çļĦæľĭåıĭ": 8596,
      "çĽ¸æ¡Ĩ": 8597,
      "çľĭåĪ°äºĨä¸ĢæĿ¡": 8598,
      "éĽ¨ä¼ŀ": 8599,
      "æĪĳåı¯ä»¥è¦ģ": 8600,
      "è·ĳäºĨè¿ĩæĿ¥": 8601,
      "å´Ń": 8602,
      "åı½åı½": 8603,
      "å¾ĪæĥĬè®¶": 8604,
      "å®ĥè¢«": 8605,
      "å¦Īå¦Īæĺ¯å¯¹çļĦ": 8606,
      "æıĲç±³åĸľæ¬¢çİ©ä»ĸçļĦçİ©åħ·": 8607,
      "æĽ´å¤§": 8608,
      "æ³ķå®ĺ": 8609,
      "åĪ¶æľį": 8610,
      "çĽĺåŃĲéĩĮ": 8611,
      "éķĩä¸ĬçļĦ": 8612,
      "å§Ĳå¦¹": 8613,
      "çļĦè¿ĩç¨ĭä¸Ń": 8614,
      "æĺ¯çĶ¨æĿ¥": 8615,
      "æī¯": 8616,
      "è¿Ļä¸į": 8617,
      "çŁ¥éģĵä»ĸå¿ħé¡»": 8618,
      "çłį": 8619,
      "æľīäºĨä¸Ģä¸ªæĸ°æľĭåıĭ": 8620,
      "çĶ»çĶ»åĴĮ": 8621,
      "åı²ä»¥æĿ¥": 8622,
      "è¾Ľèĭ¦": 8623,
      "ç§ĭåįĥåĴĮæ»ĳæ¢¯": 8624,
      "å¥¹æľīä¸Ģåıª": 8625,
      "ä¸įèĢĲçĥ¦": 8626,
      "ç»Ļèĩªå·±": 8627,
      "çº¦ç¿°è¯´": 8628,
      "çľĭè§ģäºĨ": 8629,
      "é¸ŁåĦ¿åĴĮ": 8630,
      "å®ŀçİ°äºĨ": 8631,
      "å¥¹åİ»äºĨ": 8632,
      "éĥ½æľī": 8633,
      "æ²¡è¿ĩ": 8634,
      "è®°å¿Ĩ": 8635,
      "ä½Ĩä»ĸå¤ª": 8636,
      "å¦Īå¦ĪçļĦæīĭ": 8637,
      "éħ¸æ©Ļ": 8638,
      "å¥¹ä¸Ģè¾¹": 8639,
      "éĿŀå¸¸å®īéĿĻ": 8640,
      "å½ĵæĪĳä»¬": 8641,
      "æĬĬå®ĥå±ķç¤ºç»Ļ": 8642,
      "å·´å£«": 8643,
      "ç¾İä¸½çļĦèĬ±æľµ": 8644,
      "éĤ£æĿ¡é¾Ļ": 8645,
      "åĮĨåĮĨ": 8646,
      "å¥¹æĭ¿": 8647,
      "é¸¥": 8648,
      "ä¹Łæĥ³è¦ģ": 8649,
      "äº®äºĨ": 8650,
      "æ²īéĩįçļĦ": 8651,
      "è¸ıæĿ¿": 8652,
      "æłĳæĹģ": 8653,
      "è·³åĬ¨": 8654,
      "æ²¡æľīä»Ģä¹Ī": 8655,
      "è½»æŁĶ": 8656,
      "ç©¿ä¸ĬéŀĭåŃĲ": 8657,
      "å¯Įäºº": 8658,
      "åı«äºĨèµ·æĿ¥": 8659,
      "å®ĥçļĦæľĭåıĭ": 8660,
      "éº»è¢ĭ": 8661,
      "å¯ĴåĨ·çļĦ": 8662,
      "ä¸Ģæ£µå¤§æłĳä¸ĭ": 8663,
      "çĲ³è¾¾": 8664,
      "è¿Ļæ®µ": 8665,
[...]
